the 5880738
, 4755761
. 3893817
of 3073119
and 2720027
to 2640805
in 1900237
a 1673497
is 1374404
that 1117222
for 990038
on 786981
@-@ 738070
with 662376
be 657184
are 637889
The 619262
I 597203
this 573081
as 571846
it 509712
we 502591
have 478589
by 467443
not 465397
which 414596
you 410769
will 408451
&quot; 382289
from 363630
or 350901
at 348380
- 346075
has 345257
an 341729
&apos;s 336238
( 325209
) 322354
European 298455
can 284247
our 272030
all 271730
: 246960
also 245544
was 240891
its 206850
would 202564
your 199000
but 198737
We 198295
more 191981
their 188566
been 186270
In 180952
Mr 180055
one 177543
should 177350
This 172228
It 169395
Commission 167623
must 160113
&apos; 154991
they 147204
President 146493
there 143842
do 143479
other 141121
new 140997
like 140348
only 136936
very 136792
time 136462
about 133677
/ 133595
these 126228
? 124326
us 123903
Union 123508
so 123476
up 121162
who 120039
Parliament 116380
if 115780
Europe 114269
no 112079
people 108352
any 107984
States 107530
out 106770
countries 105849
Member 105413
into 105238
report 104837
such 102608
what 102343
; 98402
Council 97941
EU 97488
need 97477
well 97201
than 96837
my 94755
were 93543
use 93198
when 93062
important 91566
now 91275
some 90669
make 89063
work 89052
them 88790
because 88381
first 88105
between 87859
most 87519
many 86097
take 84066
his 83920
way 79907
support 79422
! 78989
made 77758
policy 77344
A 77219
those 76849
years 76275
information 74649
world 74635
two 74438
If 73767
just 73443
... 72446
am 72343
over 71887
being 71561
able 70136
s 69658
where 69124
had 68305
system 67914
even 67788
may 66566
he 66319
re@@ 66307
year 65725
un@@ 65659
right 65573
economic 64132
order 63979
political 63863
market 63601
part 62236
hotel 61685
% 61269
rights 60615
possible 59950
development 59626
here 59464
same 59349
area 59290
As 58830
see 58388
own 58280
through 58263
against 58112
good 58077
could 57706
therefore 57672
country 57641
how 57353
place 57321
want 56794
within 56145
then 55777
You 55010
much 54861
does 54710
both 54612
after 54570
There 54313
public 53872
For 53665
under 53374
in@@ 52951
point 52898
social 52271
used 52231
fact 51867
without 51407
international 51281
say 51280
find 50764
high 50568
ing 50347
believe 50216
2 50132
de 49953
1 49666
still 49629
future 49504
number 49497
long 49294
me 49142
services 49031
know 48998
already 48831
free 48104
last 47838
today 47688
ed 47518
That 47131
different 47124
view 47033
But 46625
think 46592
cannot 46375
course 46105
great 45949
too 45934
human 45704
financial 45650
set 45647
Commissioner 45596
end 45594
case 45566
process 45450
before 45428
available 45349
level 45274
o 44286
products 44034
debate 43946
proposal 43747
issue 43271
national 43242
i 42868
data 42836
question 42482
said 42177
example 42162
quality 42125
Hotel 41804
situation 41732
means 41401
3 41086
S@@ 40409
clear 40375
Committee 40258
day 40254
measures 40156
get 40018
since 39962
particular 39915
service 39779
citizens 39561
However 39547
es 39511
y 39416
including 39061
during 38937
e 38804
common 38773
energy 38729
agreement 38693
based 38482
help 38284
offers 38131
every 38015
best 37829
taken 37360
give 37280
areas 37249
C@@ 37083
problem 37045
ensure 37004
each 36909
put 36854
access 36758
small 36620
business 36372
next 36335
c@@ 36273
far 35982
three 35935
security 35760
provide 35699
problems 35663
P@@ 35643
cooperation 35286
Our 35218
few 35202
further 35138
necessary 35131
why 34900
large 34698
vote 34692
again 34665
change 34609
go 34544
given 34469
come 34306
s@@ 34165
&#91; 34134
position 34034
ation 33982
hope 33888
&#93; 33725
however 33693
room 33693
law 33692
shall 33634
offer 33603
4 33428
On 33384
city 33377
action 33282
United 32920
real 32831
er 32797
All 32720
needs 32626
back 32514
p@@ 32457
T@@ 32418
al 32361
And 32337
protection 32257
while 32189
group 32123
Community 31852
less 31834
Mrs 31757
B@@ 31751
trade 31749
better 31674
company 31612
rooms 31529
To 31429
A@@ 31381
whether 31335
power 31323
current 31295
ers 31275
With 31234
particularly 31193
5 31124
always 31091
state 31053
life 31035
What 30977
Group 30975
form 30841
terms 30818
legal 30721
down 30697
working 30603
her 30588
making 30491
At 30377
d@@ 30258
using 30256
They 30227
present 30142
issues 30141
become 30025
House 30012
full 29898
10 29842
m 29748
production 29715
result 29637
ate 29496
together 29361
M@@ 29349
o@@ 29308
sector 29283
women 29261
D@@ 29205
did 29117
conditions 29005
certain 28992
role 28977
G@@ 28910
another 28876
de@@ 28814
open 28752
health 28716
government 28703
When 28636
These 28410
ated 28404
main 28281
children 28272
systems 28260
US 28233
basis 28207
en@@ 28114
second 27974
b@@ 27973
budget 27956
respect 27954
companies 27947
special 27878
matter 27793
industry 27671
&amp; 27530
around 27435
per 27387
done 27380
crisis 27370
account 27222
control 27199
whole 27185
decision 27180
E@@ 27176
especially 27165
located 27098
&apos;t 27071
specific 27018
global 27005
rapporteur 26987
H@@ 26970
F@@ 26962
L@@ 26765
various 26735
create 26460
third 26454
million 26378
research 26322
stay 26297
resolution 26259
term 26241
N@@ 26219
dis@@ 26218
continue 26211
K@@ 26045
line 25979
directive 25943
e@@ 25898
growth 25860
programme 25799
regard 25791
region 25739
gentlemen 25710
called 25658
rules 25564
itself 25524
non 25397
v@@ 25371
really 25286
going 25215
t 25211
page 25201
y@@ 25163
experience 25104
major 25079
something 25053
site 25037
old 24931
fully 24914
least 24912
look 24898
institutions 24880
t@@ 24745
management 24678
wish 24630
Treaty 24575
project 24552
local 24541
single 24467
general 24395
Madam 24354
water 24348
d 24313
hand 24266
ask 24260
V@@ 24149
ted 24130
subject 24064
ts 24030
towards 23962
centre 23890
increase 23885
environment 23816
g@@ 23813
often 23808
following 23731
Germany 23690
once 23610
m@@ 23585
O@@ 23567
aid 23512
f@@ 23502
economy 23491
thank 23417
transport 23400
welcome 23363
ating 23286
resources 23269
several 23264
start 23227
days 23197
opportunity 23151
list 23120
China 23103
approach 23065
Members 22998
R@@ 22954
money 22934
i@@ 22923
forward 22869
di@@ 22864
things 22858
con@@ 22841
20 22779
interest 22778
rather 22772
German 22729
agree 22671
an@@ 22665
close 22658
proposals 22610
framework 22459
amendments 22426
behalf 22359
ting 22357
call 22339
individual 22289
name 22279
u@@ 22209
W@@ 22069
ladies 22049
off 22012
State 21985
field 21948
range 21931
yet 21857
adopted 21841
No 21833
product 21807
policies 21799
2009 21799
away 21765
30 21763
progress 21733
price 21589
&#124; 21583
food 21563
little 21562
taking 21558
private 21553
software 21546
might 21538
legislation 21498
solution 21478
safety 21477
modern 21455
activities 21452
al@@ 21408
k@@ 21405
n@@ 21365
until 21302
family 21293
ti@@ 21264
costs 21234
opinion 21221
favour 21135
li@@ 21135
period 21128
allow 21120
quite 21096
effective 21039
having 21033
found 21022
6 20998
So 20959
among 20926
members 20923
short 20886
a@@ 20883
provided 20855
points 20845
reason 20718
ly 20706
him 20667
key 20645
responsibility 20638
concerned 20601
side 20586
technology 20578
personal 20573
7 20561
value 20547
difficult 20486
strategy 20317
greater 20248
ates 20223
importance 20168
others 20137
excellent 20097
&apos;@@ 20055
society 20038
include 20015
above 19934
air 19932
attention 19928
projects 19893
ra@@ 19819
known 19809
environmental 19808
results 19797
ch@@ 19795
play 19787
let 19781
principle 19770
I@@ 19698
groups 19678
building 19647
content 19638
due 19605
simply 19594
makes 19594
home 19511
le 19506
left 19501
ations 19471
application 19469
ar@@ 19461
text 19454
p 19434
employment 19409
authorities 19405
8 19384
times 19345
He 19310
customers 19240
words 19203
recent 19198
clearly 19191
light 19187
en 19131
questions 19116
c 19095
15 19013
Russia 18978
ro@@ 18951
standards 18950
One 18871
risk 18852
.@@ 18807
addition 18799
achieve 18797
l 18792
serious 18765
co@@ 18741
provides 18718
proposed 18660
age 18625
deal 18556
After 18555
step 18542
show 18540
interests 18501
version 18470
essential 18416
democracy 18409
si@@ 18327
z@@ 18319
regulation 18229
j@@ 18202
x 18158
internal 18150
regions 18123
k 18115
design 18080
voted 18044
meeting 18039
h@@ 17957
longer 17950
pages 17949
democratic 17919
efforts 17908
ri@@ 17906
le@@ 17896
on@@ 17846
training 17802
implementation 17796
rate 17785
cultural 17779
freedom 17771
technical 17768
address 17726
website 17711
ago 17694
currently 17694
bring 17667
12 17662
past 17644
required 17632
complete 17616
kind 17614
l@@ 17587
needed 17561
responsible 17556
competition 17549
peace 17540
months 17527
parties 17515
markets 17513
easy 17505
related 17496
negotiations 17496
der 17455
er@@ 17439
contact 17393
involved 17386
World 17378
2010 17344
EUR 17309
themselves 17304
Internet 17259
natural 17258
enjoy 17231
J@@ 17206
positive 17192
2008 17182
location 17169
u 17136
solutions 17107
ent 17105
force 17102
sure 17084
b 17081
user 17055
wide 17022
developing 16942
fundamental 16921
requirements 16911
cost 16906
cases 16885
enough 16841
Presidency 16829
along 16821
town 16792
funds 16771
developed 16757
states 16728
minutes 16693
ings 16682
se 16677
directly 16656
changes 16643
feel 16640
she 16632
nature 16617
als 16617
low 16567
or@@ 16558
young 16550
regional 16549
four 16531
education 16483
led 16480
foreign 16474
extremely 16345
thing 16331
strong 16316
upon 16291
climate 16278
sea 16275
man 16272
em@@ 16263
date 16257
workers 16216
events 16160
improve 16153
person 16141
consider 16113
comes 16090
heart 16058
never 16055
via 16030
history 16017
th@@ 15943
investment 15922
war 15920
keep 15917
thus 15824
land 15823
effect 15810
true 15791
el@@ 15761
share 15754
as@@ 15731
network 15728
st@@ 15700
prices 15697
tax 15683
50 15677
C 15666
staff 15657
procedure 15656
central 15644
beautiful 15629
century 15611
house 15605
majority 15598
ar 15591
actually 15569
appropriate 15546
accept 15546
views 15531
either 15528
at@@ 15508
es@@ 15487
w@@ 15469
understand 15463
though 15458
reform 15442
lead 15433
success 15416
pay 15397
el 15367
3@@ 15359
total 15321
idea 15318
held 15317
seen 15314
Turkey 15295
2007 15282
event 15234
art 15203
International 15184
request 15180
created 15164
im@@ 15157
lot 15132
online 15125
additional 15118
care 15104
run 15104
almost 15099
ever 15092
relations 15077
according 15068
certainly 15065
pre@@ 15052
meet 15026
context 15025
n 15022
From 15007
France 14998
la 14943
live 14935
soon 14925
concerns 14915
tions 14910
language 14909
2000 14900
please 14900
agreements 14855
capital 14852
des 14836
visit 14830
top 14815
significant 14805
aware 14785
impact 14748
doing 14729
Re@@ 14710
Please 14698
type 14688
programmes 14674
r@@ 14673
guarantee 14655
red 14642
committee 14628
living 14626
five 14607
9 14602
New 14597
existing 14595
decisions 14592
D 14586
receive 14574
plan 14557
communication 14554
mentioned 14535
am@@ 14493
file 14477
over@@ 14459
direct 14454
everything 14440
French 14427
Government 14427
military 14402
takes 14383
men 14379
turn 14321
guests 14302
ous 14296
road 14292
concerning 14268
knowledge 14235
add 14220
included 14195
objectives 14177
sh@@ 14162
car 14160
jobs 14156
looking 14142
reasons 14138
initiative 14105
Z@@ 14087
ad@@ 14060
near 14039
try 14002
users 13988
America 13980
writing 13979
25 13976
final 13971
remain 13966
act 13964
designed 13952
standard 13951
facilities 13947
reach 13930
apply 13886
Lisbon 13864
week 13862
governments 13836
across 13835
rates 13828
ability 13813
throughout 13807
connection 13786
community 13783
4@@ 13759
population 13758
U@@ 13727
values 13726
demand 13721
team 13720
re 13718
parts 13707
works 13697
24 13679
agricultural 13677
h 13634
euro 13613
outside 13596
11 13587
nothing 13584
fight 13582
objective 13579
party 13572
concern 13571
American 13557
member 13547
amount 13533
took 13533
sense 13527
unique 13507
By 13491
integration 13480
space 13467
program 13464
hard 13458
100 13444
leading 13429
ally 13428
moment 13403
established 13377
practice 13360
benefit 13358
media 13357
How 13350
ine 13343
although 13336
early 13331
later 13319
inter@@ 13319
Court 13309
ways 13282
Affairs 13270
regarding 13259
partners 13258
basic 13255
develop 13244
model 13229
Al@@ 13209
ve 13192
_ 13153
stage 13146
indeed 13142
etc 13132
ab@@ 13102
reports 13102
sp@@ 13101
et 13101
aim 13100
face 13092
completely 13085
move 13080
Let 13058
keyword 13058
customer 13053
ant 13052
performance 13047
dialogue 13045
situated 13027
features 13025
seems 12995
package 12987
ans 12984
po@@ 12932
nuclear 12931
km 12924
Finally 12910
body 12904
achieved 12892
music 12865
My 12831
ac@@ 12812
est 12799
hours 12786
Office 12785
culture 12773
prevent 12770
famous 12764
focus 12748
Y@@ 12745
X@@ 12739
mean 12733
potential 12725
consumers 12723
goods 12718
it@@ 12716
2006 12709
traditional 12687
Since 12645
lack 12640
quickly 12640
amendment 12629
S 12594
big 12581
active 12576
principles 12557
x@@ 12554
table 12542
night 12542
allows 12519
check 12508
entire 12508
commitment 12505
station 12504
function 12501
includes 12488
half 12483
increased 12460
bar 12455
Article 12451
ex@@ 12429
lo@@ 12419
agreed 12418
treatment 12415
In@@ 12387
+ 12355
received 12343
send 12343
ic 12342
recently 12336
ist 12334
levels 12333
perhaps 12309
read 12292
border 12288
book 12274
matters 12270
South 12263
beach 12247
professional 12235
card 12225
ideal 12213
built 12205
os 12202
contains 12198
co 12198
18@@ 12189
job 12188
per@@ 12177
successful 12170
higher 12153
sustainable 12118
huge 12117
self 12117
everyone 12109
East 12107
promote 12105
Con@@ 12105
g 12103
whose 12100
answer 12089
mind 12071
2@@ 12065
applications 12063
* 12048
below 12047
web 12038
carried 12018
game 12013
return 11989
enable 11987
TV 11987
restaurant 11981
board 11972
actions 11970
follow 11969
joint 11967
presented 11964
original 11953
choice 11949
ds 11939
stop 11933
res 11928
simple 11927
response 11919
se@@ 11911
billion 11881
material 11869
beginning 11866
Therefore 11858
increasing 11853
reduce 11834
bo@@ 11815
June 11810
balance 11808
oil 11803
files 11802
creation 11788
effects 11768
equipment 11762
May 11745
op@@ 11736
aspects 11732
opportunities 11715
highly 11711
ty 11707
possibility 11706
funding 11704
pressure 11703
exchange 11687
be@@ 11686
enlargement 11685
image 11672
Here 11663
tion 11640
vi@@ 11625
capacity 11620
is@@ 11587
priority 11578
civil 11567
direction 11544
test 11541
external 11541
asked 11515
B 11508
added 11482
bi@@ 11444
note 11438
00 11434
sed 11423
coming 11399
previous 11386
les 11376
mail 11376
T 11362
pro@@ 11354
ding 11352
ma@@ 11343
perfect 11338
shown 11336
protect 11332
rest 11332
Africa 11324
reached 11302
ance 11301
closed 11301
speak 11274
forms 11274
shows 11270
consumer 11270
equipped 11261
remains 11230
prepared 11225
supply 11223
stability 11208
thanks 11193
An 11187
O 11186
setting 11182
behind 11176
comfortable 11170
mo@@ 11149
Now 11148
und 11130
complex 11121
press 11109
5@@ 11098
Bank 11082
� 11080
fair 11079
pool 11071
40 11044
supported 11041
considered 11028
ors 11026
assistance 11023
Convention 11023
industrial 11006
providing 11002
ten 10992
series 10983
holiday 10982
Of 10968
Spain 10964
cause 10960
rule 10957
office 10937
categories 10927
2005 10911
friendly 10895
movement 10894
regulations 10883
tic 10873
computer 10861
regards 10855
decided 10845
Central 10840
choose 10831
breakfast 10812
ap@@ 10806
efficient 10802
Some 10796
qu@@ 10789
tra@@ 10787
creating 10784
ver@@ 10783
former 10769
ce 10768
Italy 10755
um 10746
$ 10746
relation 10743
latest 10734
ci@@ 10733
ary 10697
style 10696
18 10692
compromise 10678
discussion 10672
December 10663
independent 10658
came 10612
limited 10603
ec@@ 10601
ves 10599
commercial 10598
violence 10592
size 10589
relevant 10588
® 10569
pleased 10564
places 10563
materials 10512
Minister 10509
z 10509
sites 10508
te 10508
que 10504
sing 10477
procedures 10464
ses 10459
bed 10451
contribution 10447
gives 10437
2004 10428
operation 10419
double 10409
provisions 10406
brought 10402
internet 10382
fishing 10362
similar 10333
purpose 10328
September 10318
benefits 10294
item 10291
sound 10288
activity 10280
Berlin 10276
6@@ 10268
labour 10263
statement 10260
tive 10252
draft 10228
14 10223
agenda 10222
message 10215
di 10210
criteria 10209
steps 10208
walk 10202
search 10187
First 10179
structure 10178
leave 10166
travel 10165
instead 10151
Mediterranean 10136
transparency 10133
easily 10132
distribution 10130
effort 10114
front 10109
poverty 10107
instruments 10093
document 10087
status 10080
16 10078
E 10073
giving 10070
credit 10068
British 10066
challenges 10058
English 10052
solidarity 10045
consequences 10044
property 10040
Republic 10036
ourselves 10035
UN 10018
Rights 10018
car@@ 10016
elections 10005
r 9999
safe 9997
2003 9996
medium 9977
six 9975
sub 9965
Today 9956
gas 9955
code 9950
produced 9949
equal 9946
details 9945
to@@ 9934
source 9926
cross 9921
conflict 9917
January 9915
don 9915
center 9910
legislative 9880
ling 9869
om@@ 9862
conference 9856
task 9852
star 9840
stand 9830
express 9829
tri@@ 9823
damage 9818
floor 9809
forces 9809
produce 9787
lines 9786
tell 9769
2001 9756
March 9751
reviews 9744
popular 9737
require 9736
terrorism 9715
paid 9709
allowed 9702
Mar@@ 9700
reality 9698
th 9695
13 9691
speed 9678
finally 9675
construction 9673
growing 9666
ones 9651
ke 9646
nor 9641
October 9639
ground 9637
link 9629
P 9629
largest 9628
concept 9616
study 9612
video 9606
000 9593
0@@ 9592
summer 9582
integrated 9576
ties 9575
charge 9569
colleagues 9559
reading 9548
te@@ 9536
An@@ 9527
establish 9516
Ro@@ 9503
7@@ 9486
Service 9479
Furthermore 9455
documents 9453
accommodation 9442
Ar@@ 9441
tomorrow 9438
written 9436
option 9418
crucial 9414
Directive 9409
avoid 9409
saying 9407
ise 9407
ch 9407
partner 9403
Development 9401
congratulate 9398
ou@@ 9398
ins 9390
par@@ 9382
ons 9381
efficiency 9379
draw 9375
General 9375
applied 9367
sub@@ 9350
implemented 9340
requires 9324
lives 9300
started 9297
8@@ 9291
organisations 9286
payment 9285
leaders 9275
word 9274
review 9270
talk 9267
Amendment 9255
Co@@ 9250
interesting 9247
elements 9245
enter 9243
ity 9238
Italian 9237
et@@ 9237
monitoring 9227
Party 9220
beyond 9219
reduction 9194
relating 9179
goes 9171
voting 9168
ze 9164
July 9158
Israel 9158
tool 9146
analysis 9139
employees 9139
DE 9127
ded 9122
atmosphere 9121
accession 9111
G 9109
ment 9104
processes 9100
hotels 9092
immediately 9090
class 9090
types 9067
practical 9061
su@@ 9047
IT 9047
official 9046
ol@@ 9046
Spanish 9031
ator 9027
submitted 9019
anti 9007
North 9005
farmers 9002
section 8995
click 8995
ha@@ 8992
carry 8992
powers 8990
island 8987
Many 8987
under@@ 8974
post 8964
sectors 8961
rich 8954
instrument 8950
9@@ 8944
variety 8930
2002 8923
November 8922
tools 8921
Although 8918
minimum 8911
da 8909
ag@@ 8903
gra@@ 8882
banks 8880
waste 8858
death 8856
do@@ 8825
happy 8814
challenge 8808
ms 8804
ter 8795
extent 8794
build 8789
wi@@ 8788
expect 8785
bus 8776
ism 8769
reference 8764
Fund 8759
ders 8759
comprehensive 8757
highest 8756
base 8737
cut 8726
persons 8725
M 8725
.com 8716
ideas 8715
useful 8714
school 8709
mention 8703
Moreover 8702
historical 8700
reforms 8698
begin 8697
annual 8695
businesses 8695
National 8692
Windows 8684
guest 8676
secure 8671
ot@@ 8664
strategic 8662
poor 8659
hold 8653
Even 8653
implement 8644
weeks 8641
links 8634
€ 8627
ta@@ 8613
despite 8608
scale 8590
adopt 8580
ge@@ 8577
caused 8576
Indeed 8573
Western 8571
digital 8571
namely 8570
technologies 8558
server 8557
raised 8543
download 8539
la@@ 8526
X 8516
Secondly 8511
operating 8509
borders 8508
numerous 8505
innovation 8504
lower 8501
0 8497
sc@@ 8492
accordance 8490
starting 8482
drive 8478
alone 8477
wine 8472
During 8471
scientific 8448
rise 8432
sts 8432
initiatives 8420
ed@@ 8407
no@@ 8404
Chinese 8401
doubt 8399
ne@@ 8397
month 8389
structural 8388
currency 8362
R 8360
mobile 8338
cohesion 8335
Ireland 8334
sent 8323
daily 8307
probably 8304
fall 8303
While 8300
Russian 8298
child 8298
rec@@ 8297
debt 8296
historic 8295
ces 8295
é@@ 8283
60 8276
ready 8267
w 8267
methods 8266
became 8261
regime 8258
affected 8251
so@@ 8245
gu@@ 8243
April 8240
ess 8237
anything 8227
sometimes 8219
absolutely 8216
bit 8214
scope 8214
maximum 8213
influence 8212
unemployment 8207
representatives 8199
transfer 8197
round 8191
expressed 8188
calls 8185
thought 8184
Your 8179
trying 8177
f 8169
ur@@ 8161
&apos;ll 8155
demands 8151
friends 8151
increasingly 8145
accepted 8143
late 8142
confidence 8139
offered 8133
worldwide 8132
17 8122
method 8122
gh@@ 8121
published 8117
apartment 8117
ge 8115
for@@ 8111
1999 8108
Conference 8097
ality 8096
lies 8095
ina 8095
advantage 8093
com@@ 8091
illegal 8090
vital 8090
justice 8089
sales 8088
fine 8075
ni@@ 8068
Iraq 8068
chance 8060
committed 8056
options 8052
offering 8050
ments 8048
news 8047
= 8045
distance 8042
priorities 8038
machine 8036
overall 8032
heard 8031
mis@@ 8027
ent@@ 8024
ators 8023
maintain 8014
learn 8012
interested 8002
approved 7987
innovative 7985
lost 7985
extra 7983
intended 7980
critical 7980
Thank 7971
ul@@ 7966
infrastructure 7963
ence 7953
emissions 7951
L 7950
talking 7945
die 7943
join 7935
pi@@ 7925
head 7924
K 7924
languages 7918
administration 7908
conclusion 7906
Nations 7905
wanted 7894
proper 7880
village 7878
stress 7870
relationship 7869
circumstances 7855
processing 7853
alternative 7852
En@@ 7844
ad 7841
ensuring 7839
victims 7823
cities 7818
Austria 7817
worked 7815
plans 7814
ful 7811
crime 7811
likely 7802
st 7793
release 7787
ter@@ 7783
del 7779
Do 7772
clients 7767
competitive 7764
opening 7764
gi@@ 7764
-@@ 7758
uses 7758
sports 7752
income 7748
Greece 7747
risks 7746
mon@@ 7746
fields 7746
pass 7745
F 7745
pe@@ 7738
target 7737
tabled 7735
fi@@ 7733
II 7732
effectively 7729
up@@ 7719
contribute 7713
encourage 7709
res@@ 7695
decide 7694
man@@ 7683
got 7678
ry 7677
improved 7669
il@@ 7663
pa@@ 7661
Is 7657
reduced 7653
out@@ 7647
agriculture 7635
players 7617
Japan 7616
UK 7611
21 7605
Security 7601
ck@@ 7600
budgetary 7593
goal 7589
contract 7588
participation 7587
cover 7586
us@@ 7584
restaurants 7563
Bo@@ 7558
aimed 7553
fish 7548
changed 7542
La 7540
met 7539
morning 7539
son 7538
bu@@ 7538
India 7532
bank 7519
ski 7519
fellow 7515
comments 7514
airport 7511
says 7508
ler 7506
images 7499
Public 7498
mainly 7486
green 7479
whom 7472
park 7469
ra 7461
ative 7446
Iran 7424
80 7416
placed 7415
exist 7407
assessment 7406
ving 7405
mountain 7403
planning 7399
Only 7399
precisely 7398
19 7397
ren@@ 7395
institutional 7387
apartments 7386
correct 7380
partnership 7375
West 7370
discussed 7359
specifically 7357
sources 7356
hi@@ 7355
discuss 7343
laws 7339
strengthen 7337
fast 7335
running 7327
immigration 7321
200 7312
Room 7312
supports 7308
stated 7302
People 7301
ents 7297
player 7291
discrimination 7290
enterprises 7285
discussions 7275
22 7266
wrong 7262
protected 7258
traffic 7254
developments 7253
families 7251
ho@@ 7250
games 7249
manner 7246
ten@@ 7244
selection 7244
motion 7239
defined 7238
ir@@ 7229
Agreement 7227
Th@@ 7223
ber@@ 7223
introduced 7220
measure 7217
rural 7213
More 7204
Di@@ 7200
guidelines 7188
film 7182
financing 7181
Car@@ 7180
zed 7178
suitable 7177
represents 7176
ic@@ 7164
serve 7160
wants 7158
ets 7148
nice 7140
powerful 7139
becoming 7139
500 7128
sufficient 7119
{ 7119
box 7116
sign 7115
automatically 7112
tor 7109
da@@ 7108
Paris 7108
else 7096
introduction 7095
improving 7089
competitiveness 7087
Ad@@ 7086
train 7084
Middle 7084
referred 7083
Asia 7081
limit 7079
sk@@ 7077
Centre 7073
ship 7066
broad 7060
closely 7055
ps 7054
speaking 7051
ure 7048
managed 7044
covered 7040
fisheries 7036
administrative 7034
Pro@@ 7025
Mo@@ 7025
yourself 7021
quiet 7020
monetary 7018
police 7013
17@@ 7012
phone 7010
detailed 7002
animals 7000
thousands 6995
considerable 6992
supporting 6990
clean 6989
appear 6987
V 6981
27 6980
exactly 6977
sitting 6976
sized 6975
loss 6971
linked 6968
ati@@ 6956
presidency 6955
coordination 6952
relate 6951
separate 6951
minute 6944
sive 6943
represent 6941
installation 6939
economies 6936
email 6935
GmbH 6935
visitors 6931
electronic 6925
inc@@ 6924
session 6923
networks 6916
parliamentary 6903
purposes 6903
king 6897
speech 6891
listed 6882
signed 6881
ru@@ 6881
delivery 6879
menu 6879
functions 6878
happen 6873
Park 6869
ca 6868
entry 6863
provision 6850
Economic 6845
summit 6843
Policy 6841
v 6840
generation 6837
Ma@@ 6836
Why 6829
hour 6825
Web 6820
thinking 6816
ages 6815
sion 6814
wing 6810
evening 6808
ep@@ 6806
} 6805
duty 6803
otherwise 6803
www.@@ 6803
facing 6798
ging 6798
earlier 6797
ut@@ 6789
AG 6786
parking 6784
den@@ 6779
feature 6774
Ch@@ 6771
du@@ 6769
bad 6767
1.@@ 6767
bodies 6765
plant 6765
lu@@ 6764
suggest 6757
shopping 6748
map 6734
London 6733
Cor@@ 6731
Its 6729
authority 6729
comm@@ 6724
ies 6717
end@@ 6714
pl@@ 6706
usually 6703
operations 6701
San 6698
record 6688
extensive 6686
swimming 6683
properly 6681
Social 6681
remember 6678
difficulties 6677
comfort 6671
positions 6667
den 6666
H 6664
Brussels 6658
garden 6658
expected 6650
ously 6648
organisation 6647
ali@@ 6638
collection 6638
ia 6638
threat 6637
modified 6637
sions 6636
domestic 6633
understanding 6633
politics 6630
dealing 6628
founded 6628
ical 6625
seem 6619
followed 6612
cu@@ 6605
Then 6601
worth 6596
trust 6589
degree 6587
port 6581
getting 6578
ph@@ 6576
path 6570
spirit 6567
ev@@ 6566
N 6561
entirely 6556
consideration 6555
programs 6549
00@@ 6547
animal 6536
students 6535
promoting 6528
ters 6524
Unfortunately 6522
ing@@ 6521
combat 6514
ably 6513
presence 6510
sen@@ 6509
experts 6506
street 6505
flexibility 6504
refer 6503
February 6500
humanitarian 6499
23 6483
began 6481
cor@@ 6481
&apos;re 6477
average 6468
City 6462
fund 6455
medical 6455
love 6448
regular 6447
establishment 6447
flexible 6442
ka 6438
bar@@ 6428
University 6419
white 6418
Ukraine 6416
failure 6404
save 6401
Poland 6398
opposition 6388
applies 6387
hear 6386
opened 6382
implementing 6374
reducing 6367
seriously 6364
adoption 6358
paper 6357
me@@ 6354
sur@@ 6351
played 6349
informed 6348
PC 6342
difference 6334
fiscal 6332
defence 6326
aims 6325
ys 6322
spend 6320
track 6318
finance 6317
criminal 6308
Kingdom 6306
origin 6306
Each 6296
appears 6295
sti@@ 6291
practices 6291
selected 6291
Czech 6287
Europeans 6285
tourism 6284
Not 6283
components 6277
connected 6276
Switzerland 6276
camera 6268
terrace 6266
il 6264
screen 6255
marketing 6254
fixed 6250
election 6250
Firstly 6249
70 6242
90 6239
vehicles 6238
St@@ 6236
actual 6234
aspect 6234
Gu@@ 6231
balanced 6224
est@@ 6220
ard 6220
differences 6217
born 6217
au@@ 6216
ale 6213
ying 6207
respond 6201
attempt 6200
stable 6190
union 6186
producers 6185
ak@@ 6185
ES 6182
Ex@@ 6176
bathroom 6176
Sea 6174
plants 6173
Rooms 6170
exclusive 6167
spending 6163
God 6163
der@@ 6162
Because 6157
structures 6146
statements 6144
Lo@@ 6144
votes 6143
ness 6143
consumption 6143
myself 6142
south 6142
mar@@ 6142
client 6142
Y 6141
Just 6140
1@@ 6138
playing 6135
Justice 6134
won 6132
buy 6130
meetings 6130
negative 6128
metres 6127
Barcelona 6126
propose 6125
larger 6123
dangerous 6121
recognition 6121
concrete 6113
happened 6113
purchase 6112
0.@@ 6112
Human 6110
Debian 6107
,000 6106
tourist 6105
&gt; 6102
Q@@ 6099
ma 6098
ari@@ 6093
easier 6091
normal 6090
reasonable 6084
asylum 6082
net 6080
served 6077
war@@ 6077
genuine 6075
hands 6075
sa@@ 6063
agencies 6062
unacceptable 6054
advanced 6050
becomes 6048
ahead 6048
raise 6046
forget 6045
WTO 6037
ban 6036
go@@ 6031
col@@ 6029
calling 6028
Ri@@ 6023
EC 6019
evidence 6018
ne 6016
ana 6013
introduce 5999
prior 5996
generally 5994
Bar@@ 5991
buildings 5991
mission 5991
fear 5991
estate 5991
select 5989
numbers 5988
fo@@ 5987
impossible 5984
pre 5978
guarantees 5977
membership 5977
August 5975
immediate 5972
seek 5971
elected 5963
un 5962
According 5956
ese 5954
ob@@ 5952
unfortunately 5946
trading 5946
can@@ 5943
gave 5941
sport 5936
Amsterdam 5923
associated 5911
peaceful 5907
instance 5907
campaign 5904
acts 5902
establishing 5901
houses 5896
improvement 5878
wa@@ 5876
Once 5872
telephone 5867
Also 5865
items 5865
continued 5861
gain 5860
zing 5860
cards 5858
High 5854
fresh 5853
Pre@@ 5851
ches 5850
Free 5847
carefully 5844
USA 5843
inside 5843
ology 5840
spent 5836
experienced 5836
walking 5835
voice 5831
ks 5830
ish 5830
closer 5827
Po@@ 5821
stock 5816
shared 5810
urgent 5809
went 5807
fied 5802
machines 5802
Kosovo 5801
picture 5793
cs 5787
CD 5787
Prime 5782
Services 5780
sides 5779
core 5778
territory 5777
Democrats 5777
African 5777
War 5776
detail 5770
Regulation 5760
continues 5758
strongly 5756
ck 5755
é 5752
Turkish 5750
enormous 5748
des@@ 5748
desire 5745
figures 5744
conclusions 5743
anyone 5740
era 5734
commitments 5733
outcome 5732
perspective 5732
inform 5729
Christian 5727
leader 5724
truly 5720
he@@ 5720
Palestinian 5720
Le@@ 5718
told 5708
display 5708
changing 5706
rightly 5703
models 5703
religious 5701
Com@@ 5699
sensitive 5697
e.g. 5696
fire 5695
wishes 5690
comp@@ 5683
contrary 5681
database 5680
winter 5680
convinced 5677
failed 5675
bear 5675
Linux 5666
announced 5664
export 5662
Li@@ 5659
participate 5653
cur@@ 5653
obtain 5652
weapons 5652
Irish 5647
Yet 5645
unto 5640
insurance 5634
greatest 5633
typical 5631
element 5628
Such 5625
wonderful 5622
candidate 5617
photo 5613
drawn 5612
allowing 5612
tasks 5612
ants 5606
paragraph 5604
Mon@@ 5598
300 5597
cal 5593
Euro 5593
exercise 5589
transparent 5587
fl@@ 5585
passed 5582
availability 5581
remind 5580
described 5578
manage 5576
Most 5574
Nevertheless 5574
forced 5573
warm 5573
combination 5572
studies 5571
factors 5571
honourable 5567
Swiss 5567
Lu@@ 5563
har@@ 5559
controls 5556
institution 5551
Vi@@ 5551
Trade 5550
definition 5550
ble 5550
Research 5549
equality 5549
ie 5547
achieving 5545
payments 5544
unless 5539
disease 5538
format 5538
á@@ 5537
Green 5535
ambitious 5529
tradition 5527
sort 5517
charged 5512
Booking.com 5512
firm 5510
Constitution 5509
Be@@ 5504
fying 5503
permanent 5501
Guest 5498
ta 5486
19@@ 5483
obligations 5481
himself 5480
lin@@ 5473
tu@@ 5473
mi@@ 5472
translation 5470
possibilities 5466
character 5465
ently 5464
expenditure 5463
intervention 5462
targets 5458
tour 5458
De@@ 5458
kitchen 5458
vo@@ 5457
advance 5456
beds 5456
packages 5452
Foreign 5451
sets 5448
Due 5447
individuals 5446
comment 5442
Greek 5441
reliable 5438
Un@@ 5437
ver 5432
ast@@ 5424
1998 5423
entitled 5419
20@@ 5418
colleague 5418
organised 5416
GDP 5411
governance 5411
Portugal 5406
initial 5401
claims 5396
laid 5393
attractive 5391
Health 5390
learning 5390
unable 5389
fun 5389
obviously 5387
Eastern 5385
neither 5380
.. 5376
ER 5375
28 5374
granted 5368
enables 5368
deep 5365
ats 5364
26 5363
va 5361
contain 5358
independence 5356
compared 5356
district 5355
Board 5354
vision 5351
Par@@ 5347
ges 5346
W 5346
gen@@ 5344
yesterday 5340
article 5340
moving 5334
season 5328
shop 5325
continuing 5324
um@@ 5324
eg@@ 5323
limits 5322
courses 5319
combined 5318
installed 5317
registered 5314
2.@@ 5314
strengthening 5313
totally 5310
middle 5310
She 5307
names 5306
AN@@ 5304
cars 5297
His 5295
completed 5294
pointed 5292
Netherlands 5292
corporate 5283
skills 5281
advertising 5279
expression 5279
promotion 5275
dy 5273
stands 5272
merely 5269
prevention 5261
exhibition 5252
av@@ 5249
recommendations 5249
asking 5244
substantial 5244
devices 5243
brand 5240
Airport 5239
grounds 5226
mechanism 5224
goals 5222
black 5222
decades 5220
Another 5216
kept 5214
extended 5212
obvious 5210
platform 5210
cre@@ 5208
button 5186
win 5179
Sch@@ 5179
ics 5177
responsibilities 5174
consensus 5174
Summit 5173
zation 5172
bringing 5169
conclude 5165
court 5165
situations 5164
seeking 5163
binding 5163
attack 5155
architecture 5149
putting 5146
ig@@ 5146
reservation 5144
eb@@ 5141
recovery 5135
thereby 5130
communities 5130
Every 5130
zone 5129
31 5125
monitor 5124
science 5124
sale 5124
Inter@@ 5123
ner 5121
bur@@ 5120
released 5118
wood 5117
attacks 5114
claim 5113
acc@@ 5110
rapid 5109
mass 5106
acceptable 5101
Thus 5100
ines 5099
refugees 5096
ber 5093
pleasant 5091
15@@ 5090
York 5087
super@@ 5086
ens 5086
consistent 5079
condition 5074
35 5073
storage 5073
biggest 5073
factor 5070
ste@@ 5069
door 5069
break 5067
resort 5065
pictures 5063
write 5058
shops 5058
television 5057
agency 5054
tried 5051
weight 5050
addressed 5048
arms 5045
capable 5043
compliance 5041
Su@@ 5041
color 5034
deliver 5032
Agency 5030
nation 5025
sis 5020
contained 5015
successfully 5015
sanctions 5015
memory 5014
extend 5013
install 5012
discussing 5010
advice 5006
cuisine 5005
maintenance 5001
operate 5000
signal 5000
causes 4997
background 4995
ino 4994
north 4993
ice 4983
Those 4980
sting 4974
elegant 4974
ological 4973
investments 4970
constantly 4968
chosen 4964
dimension 4963
vehicle 4962
ingly 4961
alism 4961
mark 4960
fuel 4958
nations 4957
guaranteed 4955
Business 4953
U 4950
organization 4946
ancient 4945
qualified 4944
piece 4938
AT@@ 4936
Can 4934
ven@@ 4929
testing 4927
perfectly 4925
Dis@@ 4925
seven 4922
spacious 4922
med 4918
IN@@ 4916
accessible 4909
ships 4904
mechanisms 4902
planned 4901
talks 4900
dedicated 4893
Romania 4891
surface 4890
explain 4889
mm 4889
ised 4885
keeping 4884
industries 4881
dynamic 4878
adequate 4874
determined 4868
Latin 4868
interface 4867
meters 4867
ade 4860
diversity 4857
10@@ 4857
urge 4852
IT@@ 4852
phase 4851
saw 4850
Sweden 4849
ass@@ 4848
id 4846
stone 4846
recommend 4844
surrounding 4843
trans@@ 4842
Minutes 4841
Environment 4841
valid 4829
physical 4822
delay 4820
beaches 4820
AR@@ 4818
29 4817
competence 4816
leadership 4816
ring 4814
EC@@ 4809
exp@@ 4809
ore 4809
railway 4808
identity 4807
hot 4806
evaluation 4804
resulting 4800
1997 4797
sha@@ 4797
host 4797
Are 4796
mutual 4795
leads 4792
Click 4792
arrival 4790
foot 4784
update 4784
someone 4781
sun 4781
examples 4777
dealt 4776
category 4773
mer@@ 4773
print 4772
consultation 4771
politicians 4770
technological 4769
device 4762
approval 4761
conduct 4760
disposal 4760
contents 4760
Management 4759
à 4754
aircraft 4754
spread 4751
16@@ 4750
Rules 4749
45 4747
patients 4745
cra@@ 4739
guide 4734
affect 4729
treated 4729
unit 4724
ba@@ 4722
Austrian 4721
nearly 4715
multi 4714
tests 4714
brings 4712
IC@@ 4712
manufacturing 4710
association 4710
representative 4709
relax 4709
lose 4700
Euro@@ 4699
older 4696
burden 4694
primary 4693
tors 4693
Association 4692
object 4690
recognise 4688
ger 4688
sal@@ 4685
Museum 4685
Federal 4684
tor@@ 4683
flight 4679
emphasise 4672
coast 4667
flow 4666
primarily 4662
Vienna 4660
System 4659
regret 4657
waiting 4653
bl@@ 4652
drugs 4644
coffee 4644
fer@@ 4642
helpful 4642
beauty 4641
previously 4639
medi@@ 4639
rejected 4634
story 4633
accounts 4633
registration 4632
shower 4632
engine 4631
discover 4628
outstanding 4626
existence 4624
window 4623
remove 4622
Ac@@ 4618
oral 4615
resolve 4614
speakers 4612
highlight 4612
driving 4612
approximately 4608
faced 4607
i.e. 4605
letter 4603
bra@@ 4602
por@@ 4602
booking 4601
tur@@ 4600
artists 4600
standing 4597
ER@@ 4597
trip 4597
race 4597
Great 4593
river 4590
reply 4585
orders 4584
turned 4583
taxes 4583
participants 4583
improvements 4582
liability 4581
AS@@ 4580
Ber@@ 4579
disaster 4578
Tra@@ 4578
represented 4577
ton 4573
compensation 4571
ce@@ 4569
Both 4569
significantly 4568
nearby 4566
smaller 4564
urban 4564
obligation 4558
Gra@@ 4557
holidays 4557
delegation 4556
FR 4554
knows 4553
attitude 4552
helping 4550
cl@@ 4549
reception 4547
Man@@ 4546
species 4544
ists 4540
Center 4540
meaning 4539
spaces 4537
truth 4534
appeal 4534
smoking 4527
rent 4527
fin@@ 4525
amongst 4524
ws 4524
cally 4522
fraud 4522
Red 4522
affairs 4519
suffering 4514
Despite 4512
prepare 4510
renewable 4510
intention 4509
rail 4505
tly 4504
requested 4503
wealth 4503
Energy 4503
St. 4502
pen@@ 4501
ja 4500
Chamber 4497
ely 4497
ve@@ 4497
danger 4494
combating 4492
comply 4489
ster 4489
IS@@ 4487
mobility 4485
title 4485
AL@@ 4483
# 4483
fighting 4482
church 4482
Information 4481
ak 4479
square 4479
consists 4477
manufacturers 4472
entered 4469
om 4468
solve 4466
controlled 4465
profit 4464
Any 4461
na 4460
Britain 4460
tics 4460
dra@@ 4457
route 4455
emphasis 4454
reflect 4453
von 4451
substances 4450
pri@@ 4448
firstly 4448
ths 4446
mandate 4445
books 4444
ini 4444
AC@@ 4443
ori@@ 4440
diseases 4439
ST@@ 4438
Programme 4434
fail 4433
steel 4432
millions 4430
im 4430
schools 4429
strength 4428
constructive 4424
notice 4422
EN@@ 4422
touch 4421
syn@@ 4419
serves 4419
officials 4418
mountains 4418
kinds 4416
Ab@@ 4410
expectations 4406
peoples 4406
Afghanistan 4402
versions 4400
forest 4399
Dutch 4398
recognised 4396
relaxing 4396
marked 4394
landscape 4393
ano 4392
involving 4390
glass 4389
all@@ 4387
directives 4384
Paper 4384
RE@@ 4384
Thanks 4382
protecting 4381
delivered 4379
14@@ 4370
&apos;ve 4369
treaty 4367
tes 4365
acting 4364
ined 4364
Microsoft 4363
exists 4361
br@@ 4359
arrangements 4358
Find 4358
satellite 4355
launched 4354
NATO 4353
ite 4348
drawing 4347
luxury 4347
involvement 4345
Restaurant 4345
Other 4342
default 4339
copy 4334
attractions 4334
surrounded 4334
fication 4334
fac@@ 4333
extension 4332
Instead 4330
Ministers 4328
register 4327
opposed 4327
president 4327
rapporteurs 4321
shape 4320
aries 4320
southern 4319
ES@@ 4319
respective 4317
opposite 4317
liberalisation 4315
requests 4312
finding 4312
criticism 4310
Per@@ 4308
ched 4305
Strategy 4305
whatever 4303
largely 4302
Pi@@ 4302
multiple 4298
UN@@ 4298
ian 4296
p.m. 4295
operators 4293
Before 4292
ended 4290
Monetary 4289
presentation 4287
relatively 4287
naturally 4287
dri@@ 4285
ran@@ 4285
holding 4280
gre@@ 4276
Market 4275
hand@@ 4275
debates 4272
Safety 4271
reaching 4269
stations 4268
store 4266
pleasure 4263
happens 4262
not@@ 4259
felt 4259
Club 4257
Charter 4254
Bar 4248
j 4247
Software 4245
regulatory 4243
figure 4242
personally 4242
producing 4240
Or@@ 4239
applicable 4238
advantages 4238
discharge 4238
repeat 4237
equally 4233
gets 4232
latter 4228
heavy 4228
eight 4227
mid 4226
feeling 4224
expertise 4224
photos 4220
defend 4219
ff@@ 4217
error 4215
happening 4214
1996 4214
tim@@ 4212
temporary 4203
author 4196
au 4195
van 4194
back@@ 4194
collective 4194
Private 4190
í@@ 4189
inflation 4187
restrictions 4186
length 4185
No@@ 4182
32 4180
amounts 4179
contributions 4175
gender 4175
lake 4175
ur 4174
expensive 4171
Mor@@ 4169
contemporary 4169
Sp@@ 4168
prove 4166
constant 4166
strategies 4161
Sa@@ 4159
hostels 4159
appreciate 4158
confirmed 4158
Financial 4157
sell 4156
cks 4153
continent 4151
mode 4151
ff 4149
sted 4148
ought 4147
@ 4147
Swedish 4144
determine 4144
Home 4143
increases 4142
worse 4141
Rome 4139
texts 4137
Located 4137
resolutions 4134
whilst 4134
min@@ 4134
covers 4133
opinions 4132
parliaments 4132
experiences 4131
Se@@ 4130
club 4130
tical 4127
tan@@ 4127
proof 4125
berg 4125
healthy 4123
ann@@ 4122
onto 4121
MEPs 4120
fruit 4116
awareness 4116
ker 4115
inv@@ 4115
sol@@ 4114
valuable 4113
fu@@ 4110
2020 4109
carbon 4109
bath 4106
conflicts 4104
quick 4103
bro@@ 4102
bars 4097
mann 4096
lic@@ 4095
fit 4093
recommendation 4089
Two 4088
eye 4085
furnished 4083
cing 4081
requirement 4080
centres 4080
ved 4079
stra@@ 4078
plus 4077
units 4076
locations 4074
Bi@@ 4074
Ladies 4072
define 4071
massive 4070
uni@@ 4069
75 4068
resi@@ 4066
emerging 4066
terrorist 4063
skin 4062
passengers 4061
head@@ 4059
websites 4058
investors 4056
engineering 4056
browser 4053
contracts 4052
Control 4052
involve 4047
radio 4047
willing 4044
runs 4043
handling 4042
els 4038
Cyprus 4036
wed 4035
helps 4035
migration 4032
welfare 4031
output 4031
intend 4030
ethnic 4030
minority 4030
subsidies 4029
ye 4029
except 4028
Go@@ 4027
sexual 4027
met@@ 4024
facilitate 4022
cycle 4022
IP 4022
privacy 4022
fill 4018
To@@ 4016
DVD 4016
Grand 4014
helped 4013
sold 4011
exclusively 4010
waters 4010
moved 4009
Si@@ 4008
ear@@ 4007
ery 4007
SMEs 4005
mu@@ 4005
Note 4005
buffet 4003
ars 4002
Mi@@ 3995
organizations 3993
issued 3992
effectiveness 3988
sec@@ 3983
corruption 3981
ou 3981
articles 3979
Company 3978
Where 3977
Rule 3974
For@@ 3974
fe@@ 3974
yes 3973
Korea 3972
Last 3971
audio 3969
gone 3968
Arab 3967
Tri@@ 3966
gar@@ 3965
reserves 3965
identify 3962
Bulgaria 3962
chain 3960
depends 3958
operational 3958
precise 3955
Croatia 3953
volume 3952
vel@@ 3951
acy 3950
pollution 3950
sto@@ 3949
soft 3948
automatic 3948
recommended 3947
ement 3947
preparation 3945
IS 3944
du 3942
proved 3940
Alliance 3939
charges 3938
ward 3937
ther@@ 3936
imposed 3935
ultimately 3934
obtained 3933
wait 3927
meat 3927
Given 3926
removed 3926
judicial 3925
che 3924
tru@@ 3923
alisation 3920
ering 3920
communications 3918
Israeli 3917
Lake 3915
discovered 3914
CO@@ 3912
water@@ 3906
Ni@@ 3904
her@@ 3902
cutting 3901
facts 3899
suite 3899
Her@@ 3897
Lord 3896
work@@ 3894
creates 3893
trafficking 3892
Google 3892
ically 3891
jo@@ 3891
men@@ 3888
understood 3887
focused 3885
functioning 3885
customs 3885
leaving 3877
5.@@ 3875
Roma 3875
cal@@ 3874
destination 3873
emergency 3872
golf 3871
launch 3868
cul@@ 3867
creative 3866
grateful 3864
spring 3864
firms 3860
assist 3859
electricity 3859
counter 3858
bilateral 3858
cheap 3858
ours 3857
grant 3857
Luxembourg 3855
universal 3855
pping 3854
named 3853
wind 3853
remaining 3851
ced 3851
hundreds 3848
objects 3847
sen 3845
extreme 3845
maintained 3844
confirm 3844
declaration 3844
fy 3843
™ 3838
reserve 3835
occasion 3833
glad 3832
looks 3831
seeing 3829
ya 3828
block 3827
ft 3826
Brazil 3821
and@@ 3819
Check 3819
eyes 3818
Schengen 3816
cent 3814
impression 3813
exceptional 3813
parents 3812
OS 3807
dly 3806
Over 3802
statistics 3802
alised 3800
committees 3800
command 3799
Institute 3799
submit 3797
Qu@@ 3796
vast 3795
reject 3795
deals 3795
Enjoy 3793
Cal@@ 3790
Pact 3790
abroad 3790
spa 3788
Foundation 3788
ca@@ 3787
perform 3787
conducted 3784
stri@@ 3783
divided 3780
assets 3779
Amendments 3777
offices 3775
demonstrate 3772
transition 3770
ro 3770
justified 3769
minorities 3769
down@@ 3768
visa 3762
RO@@ 3761
ron@@ 3760
Under 3757
ends 3756
° 3755
credibility 3754
demonstrated 3753
characteristics 3749
immigrants 3748
ged 3747
demanding 3746
topic 3746
temperature 3746
maintaining 3741
grow 3741
za 3740
6.@@ 3739
hit 3738
delighted 3738
noted 3737
we@@ 3736
trees 3735
ports 3733
98 3729
Japanese 3728
friend 3724
Procedure 3723
Villa 3722
Art 3721
ration 3720
faster 3716
crimes 3716
somewhat 3714
Applause 3714
Polish 3713
visible 3712
ongoing 3710
absolute 3707
pension 3707
concluded 3706
ching 3706
Book 3705
adopting 3704
3.@@ 3704
streets 3704
answers 3703
Soviet 3700
marks 3699
tackle 3699
password 3699
Take 3698
PT 3697
bri@@ 3697
lay 3696
ral 3695
determination 3694
hor@@ 3694
ang 3694
Use 3692
impressive 3689
constitutional 3687
are@@ 3687
ots 3685
connections 3684
Munich 3683
Their 3683
ah 3683
stronger 3681
ei@@ 3681
Breakfast 3678
deficit 3677
strict 3675
Question 3672
boat 3670
involves 3669
compatible 3668
intellectual 3668
actively 3667
Funds 3664
convenient 3664
overcome 3662
ures 3659
4.@@ 3658
legitimate 3657
taste 3656
museum 3655
signs 3654
blue 3654
follows 3653
Time 3653
residence 3651
taxation 3650
proud 3650
phrase 3647
Ba@@ 3646
blood 3645
Perhaps 3642
contrast 3642
Copenhagen 3641
tic@@ 3638
01 3635
-- 3635
Portuguese 3634
speaker 3632
declared 3628
watch 3626
atic 3625
respected 3624
subsidiarity 3623
charming 3623
bre@@ 3620
regularly 3619
mer 3618
eu@@ 3616
bedroom 3615
Gi@@ 3613
row 3612
indicated 3611
feed 3611
journey 3609
So@@ 3608
star@@ 3604
citizen 3601
dishes 3600
satisfied 3598
dependent 3597
globalisation 3596
messages 3594
organized 3594
competent 3591
Belarus 3590
ek 3589
1995 3588
encouraging 3587
ple@@ 3587
edge 3586
load 3586
Structural 3585
finished 3584
careful 3583
chemical 3583
ID 3577
ess@@ 3576
roads 3575
wall 3575
accompanied 3573
sm@@ 3571
White 3569
doors 3566
hardware 3566
drug 3565
2011 3565
tr@@ 3564
displayed 3560
mp@@ 3558
Best 3558
dates 3557
tional 3557
meant 3556
couple 3556
sters 3555
multi@@ 3553
vers 3550
vulnerable 3550
flat 3550
Do@@ 3549
conditioning 3549
frequently 3545
inclusion 3545
heritage 3543
13@@ 3542
noise 3542
Baltic 3541
plenary 3540
PL 3540
rapidly 3539
constitution 3538
Hotels 3537
je@@ 3536
bound 3534
fies 3534
east 3534
eastern 3534
tested 3530
contacts 3530
possibly 3529
scheme 3528
rising 3528
colour 3526
partly 3525
Can@@ 3522
impose 3520
tures 3520
exports 3520
cold 3519
Nice 3519
Col@@ 3517
Pakistan 3517
assume 3516
furniture 3516
resistance 3515
Vice 3514
Le 3514
newly 3512
dic@@ 3510
familiar 3507
the@@ 3507
ach@@ 3506
Costa 3504
definitely 3503
showing 3502
banking 3502
ular 3501
loc@@ 3499
died 3497
brief 3496
lets 3495
cap@@ 3495
99 3494
collaboration 3493
spoken 3493
argument 3493
raw 3493
Frankfurt 3493
Protection 3489
EL@@ 3489
entertainment 3488
sian 3487
400 3486
reported 3486
Canada 3486
ir 3486
widely 3484
joined 3482
seat 3479
Am@@ 3478
pieces 3477
El@@ 3476
elsewhere 3475
earth 3475
proposing 3474
doesn 3474
decisive 3473
mor@@ 3472
destruction 3472
printing 3472
los 3471
30@@ 3469
regarded 3468
apart 3467
owners 3466
Thirdly 3465
occasions 3465
proposes 3464
je 3464
23@@ 3464
license 3459
band 3459
saving 3458
resolved 3458
ga@@ 3458
profile 3457
cable 3455
bottom 3454
lists 3454
prefer 3452
ser@@ 3452
occur 3451
ó@@ 3451
Pa@@ 3451
app@@ 3450
referendum 3449
expansion 3448
excessive 3447
counter@@ 3447
lasting 3444
sky 3443
flo@@ 3441
our@@ 3439
outdoor 3439
Belgium 3437
bs 3436
ming 3435
Hungary 3434
air@@ 3434
Yes 3433
correctly 3433
ty@@ 3429
passenger 3428
clo@@ 3427
quarter 3427
settings 3427
cuts 3426
ell@@ 3424
leisure 3422
ture 3421
examine 3419
150 3419
afternoon 3418
satisfaction 3416
hin@@ 3416
tobacco 3416
listen 3415
drivers 3415
oriented 3413
depth 3412
depending 3411
Au@@ 3407
cking 3407
transactions 3406
em 3405
driver 3402
configuration 3402
ory 3401
AD@@ 3400
land@@ 3399
father 3399
preparing 3398
ju@@ 3398
provider 3397
dan@@ 3397
updated 3396
Whether 3393
Non 3393
prosperity 3392
settlement 3391
starts 3389
Action 3388
identified 3386
desired 3384
politically 3383
Rec@@ 3382
Day 3382
sight 3381
interpretation 3381
returned 3381
educational 3380
Nos 3379
presents 3379
housing 3379
properties 3379
fee 3379
woman 3377
invite 3374
pursue 3373
foundation 3371
ACP 3371
bor@@ 3370
ising 3370
Get 3369
expert 3368
channels 3367
absence 3366
documentation 3366
fil@@ 3366
northern 3365
Kar@@ 3364
maritime 3360
weather 3359
SP@@ 3359
tours 3359
95 3358
generated 3357
invest 3357
puts 3357
shares 3356
log 3354
library 3354
behaviour 3353
suffer 3352
replace 3351
cies 3351
Data 3350
ns 3349
fre@@ 3349
amp@@ 3349
classic 3348
voluntary 3347
alization 3346
dining 3346
mat@@ 3345
Mexico 3344
remote 3343
west 3343
Fi@@ 3342
dinner 3340
savings 3339
Bush 3334
heating 3333
pped 3331
ending 3330
appointed 3330
Sh@@ 3329
Framework 3329
bedrooms 3329
elling 3327
Without 3325
Second 3323
moral 3322
imports 3320
techniques 3320
Bu@@ 3320
bly 3317
12@@ 3317
THE 3314
spot 3313
gs 3312
Women 3312
percent 3312
Welcome 3312
visited 3311
iz@@ 3311
stance 3309
considering 3307
ECB 3307
Assembly 3307
nevertheless 3306
employed 3305
freedoms 3305
applying 3304
award 3303
sharing 3302
sugar 3301
walls 3301
performed 3299
mostly 3299
owner 3298
Ho@@ 3298
duties 3297
tion@@ 3296
metal 3296
abuse 3295
assure 3294
forum 3294
He@@ 3291
stored 3291
1,@@ 3289
gener@@ 3288
distributed 3284
containing 3283
transportation 3282
personnel 3282
aged 3280
Obama 3280
corresponding 3279
che@@ 3279
inhabitants 3275
formed 3274
John 3274
ant@@ 3273
OR@@ 3272
substance 3268
2013 3268
trend 3267
ast 3266
negotiating 3266
copyright 3266
wn 3264
productivity 3264
ency 3264
cat@@ 3262
Open 3262
Islamic 3261
Desk 3261
suppliers 3260
exception 3259
fla@@ 3259
ein 3259
Will 3259
com 3259
intensive 3258
fashion 3258
component 3258
MS 3256
Hungarian 3256
harmonisation 3254
enhance 3254
poli@@ 3254
surroundings 3254
complicated 3252
proceed 3251
societies 3251
arguments 3251
providers 3250
pose 3249
Well 3249
realistic 3248
wonder 3248
Report 3248
Agriculture 3247
arrive 3247
bul@@ 3246
gold 3246
heat 3245
ght 3243
falls 3242
CO2 3242
courts 3241
ordinary 3241
El 3240
sending 3239
La@@ 3236
solely 3235
VAT 3233
Americans 3233
surely 3232
flights 3232
representation 3230
LE@@ 3229
sum 3228
usual 3227
7.@@ 3227
solid 3225
manufacturer 3224
wo@@ 3224
extraordinary 3224
milk 3224
pu@@ 3223
Saint 3223
farm 3222
Legal 3222
generate 3221
master 3221
gri@@ 3221
az@@ 3220
replaced 3219
Star 3219
Shi@@ 3218
val@@ 3217
channel 3216
asing 3216
western 3216
carrying 3215
pla@@ 3215
De 3215
blog 3215
Following 3214
97 3214
plays 3213
equ@@ 3211
das 3211
islands 3209
exciting 3208
division 3208
weak 3206
army 3206
char@@ 3206
cooperate 3204
Square 3203
sta@@ 3201
formal 3200
Egypt 3200
² 3200
slow 3199
youth 3199
allocated 3196
match 3196
EL 3196
depend 3195
succeed 3194
Air 3193
wines 3193
ticket 3190
ko@@ 3190
Mal@@ 3187
Friday 3185
def@@ 3185
promised 3185
ens@@ 3185
patent 3185
tel@@ 3181
count 3179
functional 3178
COM 3177
Northern 3177
Stability 3177
valley 3176
necessarily 3173
Auditors 3172
ss 3172
zi@@ 3171
Secretary 3170
castle 3170
Station 3169
united 3168
Special 3168
drink 3168
enabled 3164
battle 3164
secret 3160
Barroso 3160
barriers 3157
farming 3157
frame 3156
ine@@ 3156
cash 3156
supplies 3151
career 3151
proven 3151
professionals 3151
sauna 3151
fantastic 3150
Socialist 3149
exit 3148
pe 3147
Thursday 3145
difficulty 3145
ll 3142
raising 3142
greatly 3141
ational 3139
fra@@ 3138
constitute 3136
mother 3136
recorded 3135
ss@@ 3135
safeguard 3134
significance 3132
preventing 3132
Within 3131
Transport 3130
ensures 3130
appearance 3130
Page 3130
Strasbourg 3129
hom@@ 3127
domain 3126
owned 3126
awarded 3124
Du@@ 3124
enabling 3123
96 3122
ach 3122
str@@ 3121
lessons 3120
sel@@ 3120
Ra@@ 3120
af@@ 3119
renovated 3119
Description 3117
Street 3115
labelling 3113
trial 3113
ki@@ 3111
toward 3111
sought 3110
.... 3109
attempts 3109
packaging 3108
pr@@ 3108
suggested 3107
lie 3107
pan@@ 3107
forthcoming 3106
ara 3106
cri@@ 3105
Prague 3105
addresses 3104
fulfil 3103
Dr. 3102
facility 3101
legally 3100
relaxation 3099
thousand 3097
proceedings 3096
Har@@ 3094
http 3094
nu@@ 3092
consent 3092
audi@@ 3090
ishing 3087
cru@@ 3086
tro@@ 3086
introducing 3085
concepts 3085
anti@@ 3085
Ver@@ 3085
sovereignty 3083
productive 3082
comparison 3082
sa 3082
micro@@ 3080
cy@@ 3079
flows 3078
eurozone 3078
subjects 3077
Palace 3077
forests 3076
alized 3075
decade 3073
department 3072
Spa 3071
obliged 3070
sustainability 3070
Madrid 3070
tickets 3070
swe@@ 3069
Sal@@ 3069
ining 3067
paying 3066
supervision 3065
fore@@ 3064
firmly 3063
updates 3063
slightly 3062
revision 3060
theme 3060
hundred 3059
balcony 3057
disasters 3056
gap 3056
spoke 3055
ill 3053
religion 3052
Design 3052
armed 3051
adults 3051
soci@@ 3050
del@@ 3049
hall 3049
qui@@ 3048
explore 3047
suggestions 3046
ministers 3046
48 3045
hair 3045
directed 3044
accurate 3042
Serbia 3042
pres@@ 3041
ning 3041
import 3041
specified 3040
EADS 3040
ill@@ 3039
artist 3039
Q 3039
coordinated 3035
fle@@ 3035
Facilities 3034
undoubtedly 3033
stocks 3033
Ru@@ 3033
Congress 3033
routes 3032
obstacles 3032
bridge 3031
con 3029
suites 3029
Code 3027
exploitation 3027
estimated 3026
supposed 3026
gained 3025
Tip 3025
und@@ 3023
towns 3022
eventually 3020
dec@@ 3020
arise 3017
exclusion 3016
Commissioners 3016
ISO 3015
receiving 3014
decorated 3014
ella 3014
corner 3013
Jo@@ 3011
dignity 3010
straight 3008
zes 3007
PPE 3006
contributed 3006
diverse 3003
endorse 3001
resource 3001
Putin 3001
Or 3000
hu@@ 3000
realise 2999
ales 2999
interior 2999
tourists 2998
wider 2997
directory 2996
whereas 2995
traditions 2995
suffered 2994
US@@ 2994
drop 2994
welcomed 2993
visiting 2991
ame 2989
disabled 2987
Like 2987
beings 2987
adapt 2986
AL 2986
cast 2986
university 2984
periods 2983
Having 2981
supplier 2981
pers 2978
topics 2978
fitness 2977
Finland 2975
zz@@ 2975
1990 2975
ley 2975
sheet 2975
remarks 2974
Atlantic 2972
Bal@@ 2971
cia 2970
Technology 2969
violations 2968
restructuring 2968
centuries 2968
Old 2964
Very 2963
lat@@ 2962
tically 2961
reflected 2960
id@@ 2959
electric 2959
refers 2958
losses 2958
hardly 2958
shipping 2957
si 2957
labor 2956
ls 2954
Balkans 2954
parliament 2952
Global 2952
sch@@ 2951
nights 2950
ben@@ 2950
believes 2948
ECU 2948
input 2948
turning 2948
sation 2947
IMF 2947
Enterprise 2945
investigation 2943
reflects 2943
notes 2943
disk 2943
reservations 2942
sm 2942
severe 2942
virtual 2942
treat 2940
rep@@ 2940
restricted 2938
ser 2938
cont@@ 2938
module 2938
clause 2937
ah@@ 2937
Chi@@ 2936
permitted 2935
33 2935
faith 2934
theory 2933
assess 2930
programming 2929
Gar@@ 2929
1st 2929
approve 2928
invited 2927
ay 2926
Asian 2926
blo@@ 2925
Agenda 2924
post@@ 2924
explained 2922
winning 2922
ki 2921
Roman 2919
cosy 2919
vacation 2919
Guests 2918
decline 2917
movements 2916
wor@@ 2915
penalty 2915
IM@@ 2915
rock 2914
twenty 2913
planet 2913
ads 2911
van@@ 2910
prime 2909
leaves 2908
regardless 2906
patient 2905
Church 2905
windows 2905
yed 2904
elled 2904
everyday 2903
web@@ 2903
selling 2900
EN 2899
Ju@@ 2898
atory 2898
scene 2897
recognized 2896
lounge 2895
enhanced 2894
driven 2893
strengthened 2892
considerably 2891
River 2891
entrance 2890
sphere 2889
ping 2889
ok@@ 2887
une 2886
plenty 2886
fourth 2885
motor 2884
optim@@ 2884
imagine 2882
finish 2882
Comp@@ 2881
courage 2881
label 2881
Media 2880
filled 2879
Cre@@ 2877
liberal 2876
missing 2873
shift 2873
worst 2872
pp@@ 2871
Tor@@ 2871
conventional 2869
conc@@ 2868
64 2868
welcomes 2863
spectacular 2863
stylish 2863
3D 2863
1994 2861
alist 2861
indicate 2860
Food 2859
dness 2859
emb@@ 2858
vessels 2856
Act 2855
gen 2853
wrote 2852
hearing 2851
Year 2850
34 2849
philosophy 2849
lift 2849
Monday 2848
continuous 2848
artistic 2847
threats 2846
08 2846
cancer 2846
therapy 2846
undertaken 2845
isation 2844
Z 2843
Does 2841
gardens 2841
teams 2840
appropriations 2838
prospects 2838
none 2836
ited 2836
See 2836
generations 2835
Cam@@ 2834
ize 2834
rely 2832
profits 2832
acknowledge 2832
MA@@ 2832
excluded 2830
protocol 2830
fishermen 2830
sensible 2829
sli@@ 2829
enterprise 2829
everybody 2828
overview 2828
Organisation 2826
ov@@ 2824
ING 2824
Besides 2822
PHP 2821
ire 2820
MP@@ 2820
gli@@ 2820
acceptance 2819
promise 2819
dollar 2819
restore 2819
MO@@ 2818
covering 2817
shadow 2816
worthy 2816
bas@@ 2816
homes 2815
• 2814
dream 2813
pillar 2813
ado 2813
&apos;m 2813
managing 2812
budgets 2812
description 2811
sun@@ 2811
cells 2811
aside 2810
publication 2809
killed 2809
checks 2808
magnificent 2805
CAP 2804
ET@@ 2804
specialist 2802
ga 2802
root 2801
reaction 2801
od@@ 2801
š@@ 2801
parameters 2800
targeted 2799
liber@@ 2799
departure 2799
mix 2798
IN 2797
gallery 2795
wear 2795
concentrate 2794
NGOs 2794
ong 2790
handle 2790
deeply 2789
mini 2789
Georgia 2788
ash@@ 2786
Comm@@ 2785
connect 2785
bio@@ 2784
Regional 2781
modules 2781
boost 2780
urgently 2780
minister 2777
uri@@ 2776
ased 2775
Me@@ 2775
listings 2773
renowned 2772
sections 2771
pro 2771
weekend 2771
mental 2771
tables 2770
bike 2770
09 2769
rental 2769
errors 2765
fly 2764
colours 2763
universities 2761
Ti@@ 2761
Through 2759
U.S. 2759
aff@@ 2758
lots 2758
Geneva 2757
intends 2757
organic 2757
accident 2756
ell 2756
pra@@ 2756
films 2756
album 2756
territorial 2755
Ombudsman 2755
36 2755
Law 2754
fairly 2753
functionality 2753
reconstruction 2752
freely 2752
sufficiently 2750
roots 2750
Syria 2750
proportion 2749
Ste@@ 2747
55 2746
tree 2746
Santa 2745
Dra@@ 2744
kers 2743
ranging 2743
ished 2742
transmission 2742
Should 2741
dr@@ 2741
imp@@ 2738
saved 2735
Sunday 2734
instructions 2733
diplomatic 2731
trends 2730
Vo@@ 2730
showed 2729
ern@@ 2729
lan@@ 2728
nine 2728
confirmation 2726
internationally 2725
push 2724
RA@@ 2723
A5 2722
pun@@ 2722
Ko@@ 2722
Site 2721
destroyed 2720
cent@@ 2719
remained 2719
ered 2719
tation 2718
deposit 2718
England 2717
Tourism 2715
ences 2715
eh@@ 2715
poses 2714
ger@@ 2714
fa@@ 2714
coherent 2712
pal@@ 2712
subsequent 2711
countryside 2711
Ta@@ 2711
fleet 2708
Ne@@ 2708
xes 2707
birth 2707
logical 2706
struggle 2706
Budgets 2705
Lastly 2704
relates 2701
ban@@ 2700
deb@@ 2700
dead 2700
crises 2697
adapted 2696
50@@ 2695
USB 2693
Bra@@ 2692
Who 2691
Val@@ 2689
skiing 2688
highlighted 2687
roll 2684
ately 2682
wards 2682
AM@@ 2682
lau@@ 2681
Consequently 2680
heading 2680
07 2679
learned 2678
candidates 2677
arising 2676
equivalent 2675
convergence 2674
oning 2673
Cas@@ 2673
clubs 2673
essentially 2672
funded 2671
neighbouring 2671
belief 2670
presenting 2668
tou@@ 2668
Denmark 2667
combine 2667
mistake 2666
phenomenon 2666
9.@@ 2666
War@@ 2666
ada 2666
Protocol 2665
Black 2664
600 2664
kernel 2664
sole 2662
8.@@ 2662
collected 2662
Mac@@ 2662
una 2661
rare 2660
Br@@ 2659
Consumer 2656
quotas 2656
ease 2655
oc@@ 2655
gro@@ 2653
manager 2652
ub@@ 2652
wage 2651
trac@@ 2651
miles 2650
Treaties 2648
Mer@@ 2648
considers 2644
Front 2644
hostel 2644
pat@@ 2643
belong 2642
Culture 2641
pul@@ 2640
briefly 2638
Belgian 2638
looked 2637
Express 2636
reliability 2635
willingness 2634
insist 2634
villages 2634
burg 2634
appeared 2633
stages 2633
ecological 2632
assembly 2632
relative 2631
football 2631
ke@@ 2631
upper 2631
parallel 2630
joining 2630
stat@@ 2630
800 2628
fees 2628
serving 2627
layer 2627
contextual 2627
tend 2626
forth 2625
lin 2625
cultures 2624
eng@@ 2624
cleaning 2624
Notes 2623
len@@ 2622
processed 2620
Constitutional 2620
stars 2620
affects 2619
Plan 2619
sion@@ 2618
referring 2617
aci@@ 2617
ey 2617
ables 2616
Bor@@ 2616
occurred 2615
pure 2615
classes 2614
female 2614
speci@@ 2612
pos@@ 2611
engage 2611
efficiently 2610
ware 2610
ham@@ 2609
ek@@ 2609
Online 2609
consequence 2608
luxurious 2607
widespread 2606
LA@@ 2606
supplied 2606
implications 2605
consulting 2605
drinks 2605
pm 2604
boot 2603
Systems 2603
geographical 2602
37 2601
transferred 2601
SA@@ 2600
honour 2599
mit 2599
characters 2598
engaged 2597
Education 2597
prisoners 2596
art@@ 2595
ona 2595
rel@@ 2594
warning 2594
thermal 2594
Pal@@ 2594
arrived 2593
lovely 2592
massage 2592
ai 2592
missions 2591
ti 2591
PDF 2590
clarify 2588
dy@@ 2588
Festival 2588
Executive 2585
succeeded 2584
chair 2584
revenue 2582
seeks 2582
ba 2581
pressing 2579
mel@@ 2579
computers 2577
recognize 2577
achievement 2575
cked 2574
enti@@ 2574
highlights 2573
hill 2572
portfolio 2571
int 2570
adds 2570
Inn 2570
ect 2569
guided 2569
favourable 2568
spec@@ 2568
lands 2567
Bri@@ 2566
lock 2565
secondly 2562
sounds 2562
causing 2561
originally 2561
satisfy 2561
Wi@@ 2560
integrate 2560
Cooperation 2560
Mu@@ 2560
environmentally 2559
holds 2559
Fundamental 2558
ON 2558
accidents 2555
insi@@ 2554
lived 2554
promises 2554
tively 2553
incentives 2553
ride 2552
non@@ 2552
Fi 2551
shed 2550
Situated 2550
meaningfully 2549
Bre@@ 2548
Wi 2548
vit@@ 2547
encouraged 2547
ome 2547
poorest 2546
AS 2545
operates 2544
Hamburg 2544
ion 2544
wal@@ 2543
multilateral 2541
Prodi 2540
aging 2540
uniform 2539
bers 2539
a.m. 2538
CH@@ 2536
unfair 2535
sou@@ 2535
--@@ 2533
equi@@ 2532
Im@@ 2532
stake 2532
ha 2531
anniversary 2531
tennis 2531
sit 2530
form@@ 2527
harmful 2526
preserve 2526
explanation 2525
aviation 2523
sum@@ 2523
director 2523
scientists 2522
radical 2521
manufacture 2521
regulated 2520
governing 2520
victory 2520
Real 2520
cas@@ 2517
virtually 2515
hopes 2514
symbol 2513
entering 2512
49 2512
execution 2511
Card 2511
resulted 2510
eri@@ 2510
incorporated 2510
grown 2510
Smoking 2510
ratification 2509
compulsory 2508
percentage 2508
III 2508
Island 2508
Hu@@ 2507
heads 2507
Royal 2506
adding 2505
unity 2505
á 2505
legitimacy 2504
ster@@ 2503
contextually 2503
tre@@ 2502
TH@@ 2502
grammatically 2502
enjoyed 2501
enforcement 2501
purely 2501
42 2501
edi@@ 2500
euros 2499
sia 2498
attached 2497
negotiation 2497
printed 2497
amended 2496
produces 2495
compact 2495
cious 2494
dies 2492
hal@@ 2492
addressing 2492
für 2492
gradually 2491
ko 2491
executive 2488
everywhere 2488
unforgettable 2488
aling 2487
chi@@ 2486
bearing 2485
ghts 2485
43 2484
videos 2484
trips 2483
dict@@ 2482
stabili@@ 2482
Indian 2482
lunch 2482
Char@@ 2481
1992 2480
damages 2480
Pri@@ 2479
reserved 2478
User 2478
asset 2477
Beach 2477
individually 2476
iled 2476
zu 2475
Tour 2475
Town 2475
wellness 2475
Fisheries 2474
festival 2474
eli@@ 2473
chairman 2472
ai@@ 2471
sup@@ 2471
ID@@ 2471
suit 2470
dispute 2469
cle@@ 2469
dark 2468
alcohol 2467
Danish 2466
reporting 2466
extending 2465
Kyoto 2464
switch 2463
Nor@@ 2462
utmost 2462
Director 2461
ins@@ 2461
snow 2459
anywhere 2458
strictly 2457
Min@@ 2457
normally 2456
UR@@ 2456
Industry 2455
associations 2454
collect 2454
prison 2453
Tre@@ 2453
DA@@ 2453
stream 2453
Peter 2453
Box 2452
poly@@ 2451
AND 2451
panel 2450
quote 2449
choices 2449
Australia 2449
Venice 2449
Muslim 2448
vis 2446
sex 2446
delicious 2445
with@@ 2444
ment@@ 2443
medicines 2442
troops 2441
dry 2441
Te@@ 2440
whereby 2440
factory 2439
travelling 2439
eat 2439
65 2439
King 2438
Employment 2437
eliminate 2436
agents 2436
makers 2436
emp@@ 2435
surprise 2435
graphic 2435
Tur@@ 2434
fans 2434
Sub@@ 2433
cho@@ 2433
hum@@ 2432
expense 2431
airports 2430
designs 2430
School 2430
schemes 2428
pick 2428
ini@@ 2426
ven 2425
meets 2422
bit@@ 2421
Earth 2421
gers 2418
Paul 2418
24@@ 2417
At@@ 2417
faces 2416
convention 2416
ulate 2415
spite 2415
Common 2415
ata 2415
Among 2414
CA@@ 2414
solar 2414
observed 2412
financed 2412
Saturday 2412
IA 2412
urgency 2411
treatments 2408
index 2407
operated 2407
inadequate 2406
rating 2406
Exchange 2405
satisfactory 2404
servers 2404
arian 2403
cell 2403
liable 2402
Cuba 2402
info 2401
Pas@@ 2401
coun@@ 2400
conciliation 2400
tea 2400
\ 2400
codecision 2399
ang@@ 2399
wireless 2399
min 2398
Nor 2397
violation 2397
participating 2397
38 2396
my@@ 2396
airlines 2396
alongside 2395
amed 2395
evident 2394
25@@ 2394
retain 2393
Christmas 2393
catch 2393
cer@@ 2392
Intergovernmental 2391
ole 2391
Michael 2391
utili@@ 2390
ress 2389
foot@@ 2389
constitutes 2387
narrow 2387
operator 2387
museums 2387
formats 2386
neighbours 2385
plastic 2384
soil 2384
begins 2383
ordered 2383
collapse 2382
debating 2381
Server 2381
acquired 2380
200@@ 2379
zero 2378
cher 2378
ands 2377
las 2376
custom@@ 2375
musical 2375
genuinely 2374
specialists 2374
Fo@@ 2373
twice 2373
zer 2373
ash 2372
Cri@@ 2372
passing 2370
ste 2370
Vol@@ 2370
miss 2369
ex 2367
Family 2367
edited 2367
Federation 2365
marine 2365
ay@@ 2365
restored 2365
mere 2365
economically 2364
PR@@ 2364
Ser@@ 2363
cr@@ 2362
85 2362
producer 2362
tal 2362
surprised 2361
DI@@ 2361
Civil 2360
Sk@@ 2360
repeated 2359
federal 2359
approaches 2359
openness 2357
Authority 2357
accounting 2356
sovereign 2356
fewer 2353
lia 2352
graphics 2352
bal@@ 2351
ato 2351
Internal 2350
Fe@@ 2349
PL@@ 2349
deserves 2348
script 2347
moreover 2345
reputation 2344
02 2344
Islands 2344
actors 2344
OF 2344
capabilities 2344
timetable 2342
ME@@ 2342
edition 2341
considerations 2340
loans 2340
Would 2338
Subject 2338
shot 2337
Er@@ 2337
Good 2337
engines 2337
movie 2337
bel@@ 2336
permit 2336
Valley 2336
Using 2335
s.@@ 2333
LO@@ 2332
alities 2331
inn@@ 2331
guaranteeing 2330
Next 2330
revolution 2329
repeatedly 2329
condemn 2329
Customer 2329
seconds 2328
vice 2328
expand 2327
chapter 2326
SE@@ 2326
Deutsche 2326
relationships 2325
itable 2325
varied 2325
letters 2325
desirable 2324
sand 2324
hospitality 2324
06 2323
mal@@ 2323
teaching 2322
seats 2321
uted 2319
alists 2319
Gro@@ 2319
mit@@ 2318
cell@@ 2318
organise 2317
Ap@@ 2317
03 2317
Forum 2317
teachers 2315
Based 2315
intentions 2314
stic 2314
val 2314
Mr. 2314
foundations 2313
yer 2313
floors 2313
medicine 2312
Slovakia 2311
read@@ 2311
romantic 2311
sh 2310
composition 2310
Palestinians 2309
welcoming 2308
inf@@ 2306
journalists 2306
records 2304
sta 2304
iling 2303
underlying 2303
desk 2302
Resort 2302
inspired 2301
repair 2300
ane 2300
foremost 2299
suggests 2298
commit 2298
gr@@ 2298
campaigns 2297
Lin@@ 2297
Dublin 2296
ie@@ 2296
studio 2296
speeches 2295
usage 2295
External 2294
Dec@@ 2293
tracks 2293
Further 2292
sophisticated 2291
vol@@ 2291
Music 2291
Manager 2291
attend 2290
concentration 2290
mouse 2290
amending 2289
Martin 2288
NL 2287
ON@@ 2287
presidential 2287
songs 2287
broader 2286
ink 2286
Golf 2286
unnecessary 2285
ED 2285
Hi@@ 2284
tragic 2283
pensions 2283
sible 2283
39 2282
ene 2282
phones 2282
lar@@ 2281
Bay 2281
olive 2280
tragedy 2279
scheduled 2277
vely 2276
Acc@@ 2276
kilometres 2276
exposed 2275
electoral 2275
prize 2274
m2 2274
exact 2273
Sec@@ 2273
pace 2273
province 2272
occupation 2272
mine 2272
intelligent 2271
Meeting 2270
blocks 2269
Casino 2269
examined 2268
developers 2268
dol@@ 2267
wild 2267
eded 2266
voters 2266
filter 2266
ises 2264
ball 2264
han@@ 2263
combines 2263
tered 2263
manual 2263
oni@@ 2262
revi@@ 2262
song 2262
hon@@ 2261
Growth 2261
bonus 2260
hiking 2260
arch@@ 2259
begun 2258
Op@@ 2258
conferences 2257
visual 2257
ownership 2256
withdraw 2256
underground 2256
ani 2256
pot@@ 2255
ned 2254
mouth 2254
TO 2254
motor@@ 2252
ran 2252
ol 2252
thorough 2251
Ben@@ 2251
Bel@@ 2251
completion 2250
compete 2249
wh@@ 2249
picturesque 2248
stick 2247
stuff 2247
2012 2247
panoramic 2247
gl@@ 2246
student 2246
ri 2246
respects 2245
Bosnia 2245
Heads 2244
remarkable 2242
ethical 2242
View 2241
IL@@ 2241
examination 2240
dence 2240
ambi@@ 2240
ries 2239
shortly 2239
ultimate 2239
Chairman 2239
bes 2239
off@@ 2238
ung@@ 2238
opens 2238
losing 2237
importantly 2236
ola 2236
ica 2234
signing 2232
1993 2230
.00 2230
Morocco 2230
Ci@@ 2230
clarity 2229
horse 2229
sights 2229
appointment 2228
amenities 2227
hence 2226
dramatic 2226
ship@@ 2226
apparent 2226
sorry 2225
acted 2225
falling 2225
jointly 2225
communicate 2225
pretty 2225
oppose 2222
magazine 2222
empty 2221
prospect 2220
Hall 2220
riding 2219
ot 2219
Fl@@ 2219
inner 2218
44 2217
prec@@ 2217
Pro 2216
initially 2215
Sun@@ 2215
cel@@ 2213
yard 2211
Gal@@ 2211
liked 2210
RO 2210
19th 2209
cm 2209
Java 2209
doubts 2207
girls 2207
hidden 2206
EM@@ 2205
upgrade 2204
Gaza 2203
hur@@ 2201
sees 2201
ination 2201
28@@ 2201
JavaScript 2200
nor@@ 2199
gn@@ 2198
ert 2198
gue 2196
ked 2196
uting 2195
custom 2195
transitional 2194
recording 2194
USD 2193
observe 2191
recall 2191
05 2191
sessions 2191
ath 2191
affecting 2190
kl@@ 2190
lec@@ 2190
describe 2189
Is@@ 2188
checked 2188
sake 2187
speciali@@ 2187
wave 2186
partial 2185
Sur@@ 2185
Castle 2185
Van 2184
references 2183
log@@ 2183
Rotary 2183
bin@@ 2182
dual 2181
permission 2180
smooth 2180
complaints 2180
stores 2180
Terms 2180
camp 2179
logic 2178
pilot 2178
Mc@@ 2178
deficits 2178
PS 2178
comple@@ 2177
sely 2177
bright 2177
Greens 2176
Representative 2175
disc@@ 2174
250 2174
Skype 2174
ni 2170
viable 2170
solved 2170
Partnership 2169
populations 2168
Off@@ 2168
informal 2168
slo@@ 2168
Apart 2167
strike 2166
Bur@@ 2166
uncertainty 2163
representing 2163
stressed 2163
lobby 2163
lab@@ 2163
ulation 2162
ris@@ 2162
boats 2161
Network 2161
constructed 2160
Have 2160
concert 2160
Wednesday 2159
minor 2159
convenience 2159
revised 2159
ello 2159
violent 2158
afford 2158
chan@@ 2158
ist@@ 2157
Be 2157
fan@@ 2156
iting 2155
nation@@ 2155
27@@ 2155
granting 2154
textile 2154
accordingly 2153
tionally 2152
Trans@@ 2150
cker 2148
Cap@@ 2148
specialized 2148
ingredients 2147
Hong 2147
Net@@ 2147
clicking 2147
credible 2146
feet 2145
afraid 2144
Via 2143
03@@ 2142
ction 2141
Kong 2141
Hol@@ 2140
A4 2140
NI 2140
ites 2139
rit@@ 2138
Mat@@ 2138
41 2138
Gentoo 2138
vocational 2137
enn@@ 2137
colors 2137
Three 2136
AG@@ 2135
istic 2135
broken 2135
Player 2135
deaths 2134
adjustment 2134
greenhouse 2134
till 2134
boards 2134
secondary 2133
mixed 2133
Project 2133
Storage 2133
deadline 2132
judge 2131
collabor@@ 2131
declare 2130
taxpayers 2130
ous@@ 2130
navigation 2129
folder 2129
preferred 2128
sle@@ 2128
enjoys 2128
Mag@@ 2126
Set 2126
wers 2125
destroy 2125
believed 2124
ards 2124
ari 2124
alise 2122
subsequently 2121
governmental 2121
coastal 2120
recession 2120
meal 2120
amazing 2119
Ca@@ 2119
ace 2117
Garden 2117
debated 2115
pol@@ 2115
aqu@@ 2115
casino 2114
AB@@ 2113
Presidents 2113
ation@@ 2112
honest 2112
negotiated 2111
instantly 2111
terrible 2110
ef@@ 2110
Gre@@ 2109
conditioned 2109
Life 2107
managers 2107
Games 2107
comparable 2106
keys 2106
deserve 2105
coal 2105
shi@@ 2104
cou@@ 2104
viewed 2103
assurance 2102
Together 2101
Support 2101
Flash 2101
clock 2100
delays 2099
Ob@@ 2099
whatsoever 2098
ignore 2098
integrity 2098
IC 2098
tin 2097
ratified 2097
oldest 2097
Hostelsclub 2097
tivity 2096
ells 2096
surveillance 2095
spectrum 2095
certainty 2094
Single 2093
argue 2092
superior 2092
ts@@ 2092
bing 2090
bet 2090
fifth 2089
alternatives 2089
classical 2089
Pol@@ 2088
SO@@ 2088
civilian 2088
Quality 2088
Don 2088
jurisdiction 2087
Children 2087
TR@@ 2087
noon 2086
ared 2085
promoted 2085
expenses 2085
PO@@ 2085
seemed 2084
atives 2084
Win@@ 2084
trained 2082
healthcare 2082
undertake 2082
David 2082
fax 2082
posed 2079
refused 2078
stories 2078
maybe 2077
Maastricht 2077
renewed 2077
mes 2077
overlooking 2077
devoted 2076
Otherwise 2076
Left 2075
Ha@@ 2075
forgotten 2073
portal 2073
expanded 2072
bonds 2072
Sam@@ 2072
transfers 2071
removal 2071
teen 2070
simultaneously 2070
enting 2069
loading 2069
fer 2069
refuse 2068
ond 2068
villa 2068
basically 2067
justify 2067
didn 2066
ruling 2065
pas@@ 2065
optimal 2065
electrical 2065
nobody 2064
translated 2061
viol@@ 2061
tens 2060
és 2060
ass 2060
preparations 2058
territories 2058
700 2056
expressly 2055
focusing 2055
GNU 2055
indicators 2054
suspended 2054
person@@ 2053
answered 2052
ich@@ 2052
Hel@@ 2052
certified 2052
inspection 2051
listening 2050
Jean 2050
roof 2050
Speci@@ 2050
beneficial 2049
certification 2049
autumn 2049
bureaucracy 2047
akes 2047
beef 2046
bought 2046
mini@@ 2046
04 2045
thanking 2045
exc@@ 2045
ili@@ 2045
explicitly 2044
orientation 2044
Investment 2044
q 2044
false 2043
nit@@ 2043
Airbus 2043
employers 2042
reali@@ 2042
Moscow 2042
beer 2042
ening 2042
Han@@ 2042
Section 2041
ils 2040
ized 2040
newsletter 2040
loaded 2038
ide@@ 2038
audience 2038
nationals 2038
stunning 2038
negotiate 2036
dig@@ 2036
Jewish 2036
tual 2036
theatre 2036
hole 2035
Sol@@ 2035
ading 2035
calm 2035
ization 2033
assigned 2032
emerged 2032
native 2031
rop@@ 2030
frequency 2030
suited 2030
ain 2030
paths 2030
47 2029
Product 2029
indoor 2029
abilities 2028
observation 2027
cope 2027
ish@@ 2026
mas@@ 2026
allocation 2024
distinction 2024
Fu@@ 2024
relief 2023
vis@@ 2022
dge 2022
admit 2021
worrying 2020
ams 2020
studied 2019
formation 2019
oring 2019
Joint 2019
researchers 2019
Lan@@ 2018
publish 2018
necessity 2018
turns 2018
transaction 2017
intervene 2017
ler@@ 2017
principal 2016
dist@@ 2016
dem@@ 2015
arrangement 2014
wise 2014
sizes 2014
Hor@@ 2014
insufficient 2013
lo 2012
spe@@ 2011
escape 2011
51 2011
20th 2011
ney 2011
dance 2011
ero@@ 2009
OR 2009
wooden 2009
č@@ 2009
soldiers 2008
reflection 2007
behavior 2005
gran@@ 2004
prevented 2004
Europol 2004
1991 2004
tar@@ 2004
SI@@ 2004
inter 2003
ye@@ 2003
Finnish 2002
doub@@ 2002
array 2001
Fin@@ 2000
ack 1999
ceiling 1999
adult 1998
alled 1998
technique 1998
Rural 1997
120 1997
bigger 1997
manufactured 1997
closing 1996
telecommunications 1996
dia 1996
focuses 1995
height 1995
SA 1995
dialog 1995
Award 1994
Plaza 1994
splendid 1993
string 1993
soul 1993
achievements 1992
ories 1991
adventure 1991
demonstrates 1990
win@@ 1990
TS 1990
fails 1989
Hour 1989
humanity 1988
Lebanon 1988
hot@@ 1988
chemicals 1987
authors 1986
moments 1986
10.@@ 1985
undermine 1983
Ministry 1982
BSE 1981
1989 1980
accuracy 1980
2nd 1980
amm@@ 1979
bathrooms 1979
threatened 1978
competences 1977
Third 1977
fix 1977
postal 1977
As@@ 1977
citizenship 1976
ase 1976
cy 1975
na@@ 1975
measurement 1975
unanimously 1974
ances 1974
mark@@ 1974
eds 1974
ania 1974
Democratic 1973
modify 1973
installations 1973
rated 1972
bon@@ 1972
potentially 1972
ena 1972
harm 1971
supplementary 1971
MySQL 1971
46 1970
wages 1970
ette 1969
mistakes 1969
inten@@ 1968
Sha@@ 1968
freight 1968
Cup 1968
discount 1968
consistently 1967
terrorists 1967
cam@@ 1967
shor@@ 1966
posts 1966
dimensions 1966
trouble 1966
continuously 1966
Burma 1966
Fer@@ 1966
son@@ 1965
dem 1965
cement 1965
enjoying 1965
dering 1963
judgment 1963
hes 1962
AIDS 1962
Area 1961
quantity 1961
26@@ 1961
boasts 1961
characteristic 1960
tonnes 1960
finds 1960
coordinate 1959
withdrawal 1959
cool 1959
defining 1958
Iranian 1958
Yugoslavia 1957
bug 1956
by@@ 1956
residential 1956
stopped 1955
wars 1954
ental 1954
don@@ 1954
Ter@@ 1953
delete 1953
pools 1953
commerce 1952
buying 1952
George 1952
cancellation 1952
ap 1950
hills 1950
contributing 1948
Pe@@ 1948
agrees 1947
unions 1946
pressed 1945
applicant 1944
meals 1944
timely 1943
protest 1943
Bro@@ 1943
Lithuania 1942
procurement 1941
variable 1941
Studio 1941
Similarly 1940
Maria 1940
Pacific 1940
gross 1939
blame 1939
Several 1939
C. 1939
assi@@ 1939
ly@@ 1939
fell 1938
mechanical 1938
notified 1937
conversion 1936
Department 1935
ita 1934
belongs 1934
catalogue 1933
survey 1933
tom@@ 1933
stones 1932
iron 1931
privileged 1931
fir@@ 1931
earn 1930
evaluate 1930
neighbourhood 1930
conservation 1929
papers 1929
mandatory 1929
charm 1929
branch 1929
Florence 1928
signals 1927
residents 1926
authorised 1925
imported 1925
identification 1924
lively 1924
52 1922
virus 1922
angle 1922
treaties 1921
thri@@ 1921
conventions 1920
patents 1920
Suite 1920
experiencing 1919
imposing 1919
calendar 1919
chairs 1918
sample 1918
elderly 1917
cancelled 1917
pursued 1916
parti@@ 1916
arti@@ 1916
accessories 1916
eding 1915
unemployed 1915
leg@@ 1915
notably 1915
affordable 1915
Taiwan 1914
occupied 1913
breach 1912
arrest 1911
cab@@ 1910
arbitrary 1910
Power@@ 1910
qualifications 1909
hei@@ 1909
react 1908
vary 1908
Holiday 1908
Washington 1906
GB 1906
Ara@@ 1905
returns 1905
blu@@ 1905
Die 1905
whenever 1904
innovations 1904
fran@@ 1904
sleep 1904
fascinating 1904
q@@ 1904
desktop 1904
Fri@@ 1903
Alps 1900
missed 1899
systematic 1899
cli@@ 1899
Read 1899
ind 1898
las@@ 1898
bureaucratic 1897
Until 1897
Up 1897
rou@@ 1897
Make 1897
tigh@@ 1896
ratio 1896
Ku@@ 1896
Socialists 1894
dro@@ 1894
biodiversity 1893
ort 1893
medieval 1892
machinery 1891
IF@@ 1891
fuels 1891
Ban@@ 1891
anda 1891
San@@ 1891
Apartments 1891
stand@@ 1890
contrac@@ 1890
Team 1889
placing 1888
eled 1888
cookies 1888
farms 1887
PA 1886
Multi@@ 1886
quar@@ 1885
transit 1885
contractual 1885
smart 1885
rig@@ 1884
disputes 1884
port@@ 1884
fur@@ 1883
Bureau 1883
arranged 1883
Youth 1881
preserved 1881
ere 1880
automotive 1880
purchased 1878
Ph@@ 1877
ron 1876
indicates 1875
layout 1875
imm@@ 1874
run@@ 1874
conf@@ 1873
pain 1872
DA 1872
emphasised 1871
cro@@ 1871
Fra@@ 1870
Mac 1870
drafting 1869
zones 1869
duration 1869
publishing 1867
officially 1867
BO@@ 1867
ambition 1866
ón 1866
Power 1865
squ@@ 1865
va@@ 1865
rational 1865
visits 1865
knew 1865
wheel 1865
consistency 1864
generous 1864
tis 1864
play@@ 1864
Deposit 1864
throw 1863
Medi@@ 1863
plan@@ 1863
equity 1861
asser@@ 1859
crops 1858
plug 1858
purchasing 1857
fallen 1857
migrants 1857
ll@@ 1857
fan 1857
Des@@ 1857
baby 1856
Palestine 1856
Communist 1855
Prize 1854
realize 1853
alike 1852
precision 1852
intelligence 1852
amb@@ 1852
advise 1851
elec@@ 1851
moves 1849
composed 1849
esc@@ 1849
premium 1849
marquis 1849
threshold 1848
dollars 1848
perspectives 1848
pur@@ 1847
Slovenia 1847
certificate 1846
fications 1846
logistics 1846
initiated 1844
interinstitutional 1844
gift 1844
motorway 1844
undertakings 1843
winner 1843
apparently 1842
Parliamentary 1842
dal 1842
precious 1842
ligh@@ 1841
sor@@ 1840
substantially 1840
cian 1840
rein@@ 1839
Liberal 1839
adi@@ 1839
Mas@@ 1839
My@@ 1839
regulate 1838
finances 1838
Cro@@ 1838
Argentina 1838
Pap@@ 1837
trans 1837
warming 1837
tough 1836
tangible 1836
holder 1836
newspaper 1835
revealed 1835
tened 1835
ky 1835
bel 1834
regimes 1833
ala 1833
rever@@ 1832
St 1832
brands 1832
.org 1832
Obviously 1831
Olympic 1831
tering 1831
04@@ 1831
specially 1830
AT 1830
ac 1829
Robert 1828
yst@@ 1828
Far@@ 1828
yp@@ 1828
vo 1827
Hamas 1826
.de 1825
J 1824
Mil@@ 1824
tech 1823
convince 1823
retail 1822
nur@@ 1821
inclusive 1821
Vil@@ 1821
opt 1820
senior 1819
gate 1819
replacement 1819
1.5 1819
lev@@ 1818
1000 1818
structured 1817
Ger@@ 1817
aus 1817
intensi@@ 1816
dumping 1816
wherever 1816
incentive 1816
expanding 1815
fulfilled 1815
Elevator 1815
Car 1814
academic 1814
IG@@ 1814
confident 1813
warmly 1813
bay 1813
Video 1813
Malta 1812
drives 1812
Download 1812
Society 1811
heavily 1811
declarations 1811
featuring 1811
comprises 1811
publications 1811
nonetheless 1810
Citizens 1810
raises 1810
fol@@ 1810
stor@@ 1808
findings 1808
attended 1808
partnerships 1808
acquisition 1808
flu@@ 1808
globalization 1808
reg@@ 1807
demographic 1807
Nonetheless 1803
schedule 1803
dial 1803
essence 1802
releases 1802
EA 1802
pattern 1802
Mobile 1802
gains 1801
progressive 1801
quest 1801
subscribe 1800
sign@@ 1800
IR@@ 1800
centers 1800
excursions 1800
Luggage 1800
ideally 1799
ate@@ 1799
dated 1798
interactive 1798
Standard 1798
organize 1798
frequent 1797
oth 1797
We@@ 1797
kno@@ 1797
Defence 1796
Web@@ 1796
Tom@@ 1795
lam@@ 1795
kes 1795
cameras 1795
slopes 1795
expressing 1794
worry 1794
wording 1794
Dom@@ 1794
ther 1794
justi@@ 1793
fears 1793
gan@@ 1793
Iraqi 1793
dad 1793
sentence 1792
ick 1792
dan 1791
talked 1790
è@@ 1790
logo 1790
LE 1790
Heating 1790
tribute 1789
spare 1789
inde@@ 1789
specify 1788
ute 1788
68 1788
enlarged 1787
Libya 1787
Plan@@ 1787
shortcomings 1786
outs 1786
sil@@ 1786
transformation 1785
but@@ 1785
emission 1785
controversial 1784
Co 1784
destinations 1784
proc@@ 1783
mar 1782
Full 1781
archive 1781
2,@@ 1781
TO@@ 1781
antly 1780
suggestion 1780
tory 1780
EF@@ 1779
tab@@ 1779
CON@@ 1779
meantime 1778
eted 1778
pair 1778
onic 1777
OT@@ 1777
Islam 1777
SD@@ 1777
wife 1775
SV 1775
progres@@ 1775
measuring 1775
Cologne 1774
unch 1774
handed 1773
atively 1773
borne 1772
restrict 1772
poll@@ 1771
estimate 1771
Labour 1771
para 1771
handled 1770
Del@@ 1769
sho@@ 1769
Dan@@ 1769
exhibitions 1769
Poker 1769
regrettable 1768
ups 1768
parks 1768
IP@@ 1767
performing 1767
condemned 1766
breaking 1766
Out 1766
transatlantic 1766
Por@@ 1766
exchanges 1765
superb 1764
lesson 1764
racism 1764
duc@@ 1764
ny 1764
Macedonia 1764
creature 1764
Clearly 1763
54 1763
assured 1763
tower 1763
fate 1762
dependence 1762
zo@@ 1762
tiz@@ 1762
tension 1761
pursuant 1760
lim@@ 1760
travellers 1760
72 1760
spo@@ 1760
prosec@@ 1759
slowly 1759
Scotland 1759
pays 1759
2.0 1759
ier 1758
creativity 1757
ble@@ 1757
Zurich 1757
ov 1756
consequently 1755
Budgetary 1755
split 1755
ath@@ 1754
lon@@ 1754
ignored 1753
patterns 1753
claimed 1752
airline 1751
power@@ 1750
ques 1750
avoided 1749
Pu@@ 1749
poker 1749
gaining 1748
arrange 1748
intense 1748
disp@@ 1747
eth@@ 1747
occurs 1747
flying 1746
Lam@@ 1746
eth 1746
preliminary 1745
ped 1745
outset 1745
Ms 1745
posi@@ 1745
eve 1744
bol@@ 1743
AM 1743
atri@@ 1742
genetic 1742
allies 1742
diving 1742
integral 1740
victim 1740
notion 1740
SS 1740
Southern 1739
announce 1739
sunny 1739
Marina 1739
practically 1738
rejection 1738
feedback 1738
photographs 1738
C5 1737
Bas@@ 1737
ard@@ 1737
Nordic 1736
Albania 1736
dd@@ 1736
adjust 1736
Pra@@ 1736
biological 1735
ici@@ 1734
The@@ 1734
statistical 1733
AV@@ 1733
lowest 1732
yo@@ 1732
unusual 1732
autonomy 1732
crew 1732
dominant 1731
sustained 1731
codes 1731
emerge 1731
Small 1730
chose 1730
metro 1730
silence 1729
aring 1729
discipline 1728
92 1728
Tro@@ 1728
acknowledged 1727
posted 1727
Met@@ 1727
Main 1727
diver@@ 1726
Shop 1726
drinking 1725
pharmaceutical 1725
tropical 1725
tone 1724
SC@@ 1724
blind 1723
wa 1723
connec@@ 1723
inequality 1722
minim@@ 1722
oni 1722
ession 1722
Declaration 1722
Poli@@ 1722
platforms 1721
160 1721
S.@@ 1721
torture 1720
lights 1720
caught 1720
clothing 1720
elle 1720
CS 1720
Budapest 1719
dog 1719
dor@@ 1719
passion 1718
amend 1717
reinforce 1717
vic@@ 1717
downloaded 1717
Salzburg 1717
chat 1716
fi 1716
unknown 1715
busy 1715
Ren@@ 1715
ton@@ 1715
typically 1714
sively 1714
hab@@ 1714
tw@@ 1714
EX@@ 1714
HTML 1714
marking 1713
Space 1713
Meanwhile 1712
53 1712
simplification 1711
penalties 1710
wake 1710
Digital 1710
Men@@ 1710
drafted 1709
publicly 1709
fare 1709
Website 1709
quota 1708
fitted 1708
BR@@ 1708
Adobe 1708
thy 1707
B5 1707
controlling 1707
contra@@ 1705
observers 1705
failing 1704
survival 1704
estimates 1704
exposure 1702
coverage 1701
rela@@ 1700
Conditions 1700
Academy 1700
differ 1699
eing 1699
,@@ 1699
simplify 1698
monitored 1698
56 1697
explains 1697
dent 1697
program@@ 1697
hoped 1696
refer@@ 1695
86 1694
tips 1694
confusion 1693
Da@@ 1693
indirect 1692
tolerance 1692
cancel 1692
steam 1692
defense 1692
Sil@@ 1691
arity 1690
wer 1690
Direc@@ 1690
headquarters 1690
measured 1689
specifications 1689
Pres@@ 1689
shuttle 1689
rap@@ 1688
keeps 1688
licence 1688
bot@@ 1688
unfortunate 1687
chief 1687
holders 1687
unlike 1686
71 1686
accepting 1686
isolated 1686
ska 1686
ust 1685
reductions 1685
receives 1684
incorporate 1683
lacking 1683
reiterate 1683
indication 1683
ums 1683
premises 1683
ett@@ 1682
ken 1682
arts 1681
keen 1680
hesitate 1680
21st 1679
undertaking 1679
tem@@ 1679
ero 1679
itation 1678
Zimbabwe 1678
pact 1677
Sc@@ 1677
unlikely 1676
IV 1676
SE 1675
fold 1674
painting 1674
e.@@ 1674
Search 1674
&apos;d 1674
centrali@@ 1673
responses 1673
respectively 1673
boxes 1673
settled 1672
West@@ 1672
dating 1672
prestigious 1671
Wei@@ 1671
lic 1671
Indonesia 1670
thoroughly 1670
ony 1670
Uni@@ 1669
Budget 1669
Beijing 1669
Pan@@ 1669
pursuing 1668
Which 1668
consolidation 1668
need@@ 1667
buses 1667
complexity 1667
surprising 1667
ile 1666
belonging 1666
segment 1666
develops 1666
Fre@@ 1666
eting 1665
tt@@ 1665
flag 1665
copies 1664
converted 1664
Place 1664
kan 1663
reverse 1663
oned 1662
temp@@ 1662
yl@@ 1662
ills 1662
deemed 1662
displays 1662
fought 1662
lighting 1662
yn@@ 1662
eries 1661
Sony 1661
exceptions 1660
infringement 1660
indi@@ 1660
tin@@ 1660
Ge@@ 1660
defending 1659
Stockholm 1659
consult 1658
AD 1658
Wa@@ 1658
alo@@ 1658
encies 1657
robust 1657
Al 1657
Tunisia 1657
Camp@@ 1657
owing 1656
economics 1656
convert 1656
Organization 1656
Sou@@ 1655
ean 1655
icon 1655
acquire 1654
Plus 1654
plate 1654
Port 1654
underline 1653
eless 1653
plane 1653
ensured 1652
ples 1652
MB 1652
decent 1651
ential 1651
respecting 1650
tackling 1650
Everyone 1650
PC@@ 1650
hing 1650
mur@@ 1650
Gr@@ 1650
disappointed 1649
radi@@ 1649
ground@@ 1648
tionary 1648
lement 1647
reli@@ 1647
mul@@ 1647
59 1647
ora 1647
motions 1646
closure 1645
stops 1645
zu@@ 1645
Hence 1644
66 1644
lovers 1644
tia 1644
heated 1644
auto@@ 1643
mobili@@ 1643
Sudan 1643
smo@@ 1643
Select 1643
ases 1642
CE 1642
Thomas 1642
concerts 1642
inst@@ 1641
camps 1641
Opera 1641
hospital 1640
dat@@ 1640
mm@@ 1640
sheets 1640
aire 1639
denti@@ 1638
Las 1637
shareholders 1636
micro 1636
belie@@ 1636
cot@@ 1636
unds 1636
allo@@ 1636
architectural 1636
staying 1635
backed 1634
hed 1634
implies 1634
bill 1634
Access 1634
ests 1633
Water 1633
interim 1632
accepts 1632
noticed 1632
executed 1631
telling 1631
badly 1631
interaction 1631
EMU 1631
strange 1631
tries 1631
inquiry 1630
artificial 1629
guard 1629
Gulf 1629
Out@@ 1629
governed 1628
actor 1628
Tibet 1627
Charles 1627
MA 1627
hel@@ 1626
cer 1626
exceed 1626
monuments 1626
unt 1625
nom@@ 1625
founding 1625
0s 1625
Series 1625
continuation 1624
survive 1624
sailing 1624
Sta@@ 1624
whi@@ 1623
stem 1623
stays 1623
Nov@@ 1623
News 1623
Milan 1622
tery 1622
forming 1621
Tuesday 1620
ambitions 1620
trains 1620
Canon 1620
GN@@ 1619
decre@@ 1619
designer 1619
denied 1618
literature 1618
EEC 1618
pack@@ 1618
ros 1618
auf 1618
profound 1617
unstable 1617
AP@@ 1617
silver 1617
describes 1616
grants 1616
dominated 1616
12.@@ 1616
wind@@ 1614
ints 1613
san@@ 1613
Science 1613
maps 1613
magic 1612
Personal 1612
thro@@ 1611
backing 1611
aded 1610
churches 1610
favourite 1610
uring 1608
adjusted 1608
eter 1607
Tu@@ 1607
downloading 1607
holes 1606
rem@@ 1606
Kur@@ 1606
acquis 1605
clearer 1605
listened 1605
tured 1605
Above 1605
snow@@ 1604
Wil@@ 1604
voc@@ 1604
Ka@@ 1604
Guide 1603
Eff@@ 1603
compare 1603
choosing 1603
iti@@ 1603
fires 1603
taxi 1603
characterised 1602
delicate 1602
Peace 1602
relaxed 1602
tening 1601
skilled 1601
conjunction 1600
alliance 1600
ok 1600
unprecedented 1599
circle 1599
inform@@ 1599
gam@@ 1599
collec@@ 1598
Point 1598
fiable 1597
constitu@@ 1597
ark@@ 1597
Master 1597
abolition 1596
Anonymous 1596
degrees 1595
lied 1595
sandy 1595
catering 1594
sem@@ 1593
column 1593
AC 1592
Millennium 1592
hol@@ 1592
adap@@ 1592
capture 1591
refugee 1590
Est@@ 1590
entries 1590
Open@@ 1589
mb@@ 1589
sporting 1589
adher@@ 1588
sk 1588
hear@@ 1587
discrimin@@ 1587
aches 1587
recycling 1587
harmony 1587
shaped 1587
mo 1587
18th 1587
horizontal 1586
93 1586
aming 1586
securities 1586
activated 1585
automation 1585
ner@@ 1584
ED@@ 1584
authorisation 1583
bases 1583
bat@@ 1583
doctors 1582
tailored 1582
accountability 1581
prohibited 1581
sw@@ 1581
watching 1580
foods 1580
alarm 1580
evi@@ 1579
challenging 1579
s. 1579
li 1579
bid 1578
dangers 1578
minds 1577
yers 1577
Em@@ 1577
banned 1577
ama 1577
ut 1577
seekers 1576
App@@ 1576
explo@@ 1575
coinci@@ 1575
invitation 1575
Cat@@ 1575
accommodate 1575
reduces 1575
Industrial 1575
editor 1575
workshop 1574
· 1574
deny 1573
tious 1573
manifest@@ 1573
guidance 1572
homo@@ 1572
58 1572
workshops 1572
temperatures 1571
plain 1571
analy@@ 1571
67 1570
tells 1569
evolution 1569
ily 1569
rubber 1569
battery 1569
requiring 1568
det@@ 1568
fam@@ 1568
Norway 1567
ired 1567
sin 1567
suff@@ 1567
announcement 1567
assessments 1566
Naturally 1565
signature 1565
currencies 1564
parameter 1564
vac@@ 1563
invested 1563
Wall 1563
departments 1562
prev@@ 1561
booked 1561
Go 1561
engineers 1560
Travel 1560
Road 1559
Moldova 1559
favorite 1559
College 1558
analyses 1558
roughly 1558
linguistic 1558
edit 1558
2.5 1557
TI@@ 1557
solving 1556
ample 1556
spots 1556
constraints 1555
sla@@ 1555
stood 1555
aj@@ 1555
damaged 1554
tra 1554
proximity 1554
AR 1553
Lau@@ 1553
laser 1553
demonstration 1552
separately 1552
Na@@ 1552
surplus 1552
oo@@ 1552
unanimous 1551
Apartment 1551
preventive 1550
murder 1550
racing 1550
book@@ 1550
Saudi 1550
visitor 1550
thoughts 1549
hydro@@ 1549
assumed 1549
57 1549
brain 1549
celebrate 1549
tz 1548
concentrated 1548
ail 1547
pack 1547
ened 1546
appreciated 1546
kg 1546
preferences 1546
authentic 1545
ç@@ 1545
accused 1544
investigate 1544
conver@@ 1544
stakeholders 1544
projec@@ 1544
PRO@@ 1544
net@@ 1544
subsidiary 1543
consulted 1543
environments 1543
coherence 1542
tives 1542
circulation 1542
inher@@ 1542
BC 1542
quantities 1541
fli@@ 1541
suddenly 1541
Experience 1541
sy@@ 1541
specialities 1541
Choose 1541
male 1540
Mur@@ 1540
black@@ 1540
ó 1540
Rot@@ 1540
conve@@ 1539
alogue 1539
characterized 1539
adaptation 1538
calculated 1538
enemy 1538
ñ@@ 1538
DC 1538
movies 1538
Wor@@ 1537
branches 1537
abandoned 1536
twin 1536
Sho@@ 1536
S. 1536
congratulations 1535
servi@@ 1535
compatibility 1534
Everything 1534
Blue 1534
eo 1534
Puerto 1534
tape 1533
Right 1533
tain 1533
exec@@ 1532
enthusiasm 1532
pru@@ 1532
birds 1531
attract 1531
mi 1531
ET 1531
lined 1530
investing 1530
railways 1529
revenues 1529
sn@@ 1529
searching 1529
rub@@ 1529
derived 1529
Additionally 1529
izing 1529
modest 1528
fault 1528
explicit 1528
socio 1528
continually 1528
turing 1528
1980 1528
CE@@ 1527
dictatorship 1527
ente 1527
Gold 1527
reconciliation 1526
furthermore 1526
differently 1526
compar@@ 1526
Vietnam 1526
supervisory 1525
exploit 1525
teacher 1525
albeit 1525
damaging 1524
weigh@@ 1524
coalition 1524
aking 1523
sanc@@ 1523
tre 1522
excess 1522
super 1522
investigations 1521
feels 1521
ester 1521
lor@@ 1520
att@@ 1520
Contact 1520
inations 1519
demanded 1519
lig@@ 1519
powered 1519
optical 1519
Live 1519
pending 1518
initi@@ 1518
cooking 1518
evil 1517
secured 1517
stimulate 1517
photography 1517
rose 1516
sus@@ 1516
mining 1516
semi 1516
short@@ 1516
2015 1516
Fac@@ 1515
vor@@ 1515
appreciation 1514
Rather 1514
dar@@ 1513
lending 1513
les@@ 1513
partition 1513
approx 1513
stag@@ 1512
contributes 1512
defects 1512
pione@@ 1512
Cent@@ 1512
agent 1511
tac@@ 1511
knowing 1510
adequately 1510
upcoming 1510
clarification 1509
James 1509
instability 1509
automated 1509
wat@@ 1508
vin@@ 1508
Spe@@ 1508
conviction 1508
realized 1508
identical 1507
habit@@ 1507
ez 1506
incomes 1505
filling 1505
terminal 1505
Sometimes 1504
regi@@ 1504
í 1504
diplom@@ 1504
scre@@ 1504
Kr@@ 1504
chen 1504
BMW 1504
stringent 1503
decentrali@@ 1503
88 1503
3rd 1503
harbour 1502
optional 1502
Pl@@ 1502
justification 1501
infrastructures 1501
terror 1501
alle@@ 1501
modes 1501
Mis@@ 1501
hire 1501
laying 1500
ful@@ 1500
multimedia 1500
Start 1500
Fax 1500
pot 1499
lier 1499
isn 1499
paradise 1499
deser@@ 1498
Fran@@ 1497
intergovernmental 1496
backs 1496
adv@@ 1495
sers 1495
themes 1494
asi@@ 1494
essed 1493
PSE 1492
obtaining 1492
A. 1492
Apple 1492
sincerely 1491
dged 1491
demo@@ 1491
genetically 1491
OM@@ 1491
divide 1490
competitors 1490
tel 1490
alize 1490
AU@@ 1490
AN 1489
fe 1489
prominent 1489
OL@@ 1489
scenario 1488
struck 1488
isolation 1488
pic@@ 1488
rati@@ 1487
illing 1487
ela 1487
bag 1487
62 1486
sharp 1486
admi@@ 1485
direc@@ 1485
Rap@@ 1485
sam@@ 1485
deleted 1485
© 1485
Add 1484
Climate 1484
Super@@ 1483
ée 1482
activ@@ 1482
Tru@@ 1482
humans 1482
Cha@@ 1482
incredible 1481
doctor 1481
hi 1480
directions 1480
dom@@ 1480
enhan@@ 1480
ultra 1480
ico 1480
breaks 1479
grand@@ 1479
household 1479
eller 1479
inated 1478
tun@@ 1478
capacities 1478
removing 1478
interpreted 1478
permanently 1478
Currently 1478
halt 1478
Press 1478
Order 1478
SAP 1478
quot@@ 1477
grade 1477
grand 1477
shel@@ 1477
77 1477
specialised 1476
ideological 1476
Could 1476
ians 1476
newspapers 1476
a.@@ 1476
irre@@ 1475
Regarding 1475
IB@@ 1475
Rental 1475
Mel@@ 1474
motivated 1473
fundamentally 1473
fifteen 1473
checking 1473
performances 1473
History 1473
Sar@@ 1473
physi@@ 1473
connecting 1473
advocate 1472
hard@@ 1472
Edition 1472
Technical 1471
HIV 1471
conditional 1470
opponents 1470
sad 1469
translations 1469
striking 1469
peri@@ 1468
partially 1467
tot@@ 1467
witness 1467
sound@@ 1467
argued 1467
EU@@ 1467
returning 1466
lt 1466
crystal 1466
lakes 1466
ee 1466
Los 1466
ł@@ 1466
lessly 1465
patri@@ 1465
Program 1465
aled 1464
Sem@@ 1464
enz@@ 1464
inevitable 1463
ouring 1463
89 1463
chocolate 1463
aw@@ 1463
eine 1463
mag@@ 1462
Muslims 1462
aching 1461
peak 1461
ishes 1460
dep@@ 1460
transformed 1460
fron@@ 1460
cheese 1460
sement 1459
gence 1459
sensor 1459
rin@@ 1459
explanations 1458
optimum 1458
82 1458
participated 1458
rage 1458
mirror 1458
practi@@ 1458
impetus 1457
91 1457
rid 1457
bone 1457
monthly 1457
vari@@ 1457
Part 1456
crossing 1456
Rom@@ 1456
Estonia 1456
moderate 1455
atten@@ 1455
strive 1455
gradual 1454
promotes 1454
LU@@ 1454
scep@@ 1453
ergy 1453
venture 1453
Doha 1453
deleg@@ 1452
gement 1452
jo 1452
vent 1452
SC 1451
abuses 1451
influ@@ 1451
pan 1451
subscri@@ 1451
taught 1450
combining 1450
Show 1450
hypo@@ 1449
bears 1449
grave 1449
passes 1448
Gen@@ 1448
rescue 1448
winners 1448
Chechnya 1448
gh 1447
ologically 1447
formula 1447
dimin@@ 1446
cop@@ 1446
proliferation 1445
arm 1445
independently 1445
score 1445
Tim@@ 1445
Cra@@ 1445
Modern 1444
ier@@ 1444
94 1443
socially 1443
notification 1443
permits 1443
Dor@@ 1443
leather 1443
iPhone 1443
avoiding 1442
maxim@@ 1441
Thailand 1441
inevitably 1440
abo@@ 1440
ú@@ 1439
nis@@ 1439
aces 1439
dges 1438
fri@@ 1438
ab 1438
retirement 1437
set@@ 1437
Training 1437
Tel@@ 1437
Communication 1436
Gran 1436
dam@@ 1435
bak@@ 1435
distribute 1434
restoration 1434
alising 1434
ater 1434
editing 1433
XP 1433
announ@@ 1432
vegetables 1432
hunger 1431
tensions 1430
colonial 1430
NO@@ 1430
78 1429
outlined 1429
democracies 1429
LA 1429
Che@@ 1429
sten@@ 1428
harmonised 1428
employee 1428
bird 1428
reinforced 1428
Working 1428
Kor@@ 1428
Process 1428
hosts 1428
ems 1427
workforce 1427
bach 1427
Res@@ 1427
Content 1427
excellence 1426
pil@@ 1426
oria 1426
Saddam 1426
advances 1425
openly 1425
globally 1425
neutral 1425
ord 1425
Image 1425
nowadays 1424
translate 1424
Cu@@ 1423
radiation 1423
vil@@ 1423
officers 1423
shore 1423
alive 1423
Golden 1423
login 1423
ori 1422
arrested 1422
Danube 1421
setup 1421
Alpine 1420
mod@@ 1419
origin@@ 1419
eligible 1418
ze@@ 1418
donors 1418
austerity 1418
CHF 1418
dental 1417
ail@@ 1417
seminars 1416
delayed 1415
hide 1415
indispensable 1415
separated 1415
hazardous 1415
eness 1414
11.@@ 1414
SQL 1414
observations 1413
frag@@ 1413
40@@ 1412
minimal 1412
recover 1412
tho@@ 1412
champ@@ 1411
promising 1411
toler@@ 1411
summary 1411
etric 1411
trademarks 1411
Visit 1411
advis@@ 1410
well@@ 1410
lob@@ 1410
arm@@ 1410
DO@@ 1410
su 1410
systematically 1409
activate 1409
unlimited 1409
forums 1409
Cy@@ 1409
configure 1409
tool@@ 1409
salt 1408
tight 1408
mem@@ 1408
twelve 1408
Ol@@ 1408
ham 1408
Work 1407
divi@@ 1407
flowers 1407
tain@@ 1407
HD 1407
Client 1407
threatening 1406
iness 1406
symbolic 1406
pin 1406
rolling 1406
entities 1406
hopefully 1405
separation 1405
Cold 1405
bility 1404
acceler@@ 1404
labels 1404
adverse 1403
stry 1403
spiritual 1403
resolving 1403
cheaper 1403
struc@@ 1402
novel 1402
boo@@ 1402
League 1402
urs 1401
ère 1401
complement 1401
receipt 1401
golden 1401
flash 1401
ich 1401
criterion 1400
simplified 1400
imperative 1400
ords 1400
dé@@ 1400
breathtaking 1400
Ham@@ 1400
Tyrol 1400
resumed 1399
arians 1399
revol@@ 1399
civili@@ 1399
Statute 1399
Sel@@ 1399
blocked 1398
Change 1398
bread 1398
Ltd 1398
quarters 1397
Allow 1397
realised 1397
audit 1397
stating 1397
kit 1397
archi@@ 1397
pleas@@ 1396
ante 1396
judges 1396
ols 1396
gathered 1396
databases 1396
cali@@ 1396
Friendly 1396
dings 1395
capitalism 1395
indigenous 1395
garage 1395
interference 1394
deeper 1394
capability 1394
Finance 1394
invo@@ 1394
ST 1394
ues 1393
repression 1393
discovery 1393
camp@@ 1393
endor@@ 1392
craft 1392
Christians 1392
ack@@ 1391
interview 1391
rupt 1391
wel@@ 1391
controller 1390
mas 1390
uns 1389
bathing 1389
NEW 1389
envisaged 1388
restrictive 1388
reviewed 1388
boundaries 1388
gases 1388
disagree 1388
engagement 1388
toilet 1388
integrating 1387
conscious 1387
par 1387
mailing 1387
Py@@ 1387
ford 1387
sing@@ 1387
hr@@ 1387
warranty 1387
scenery 1387
rigorous 1386
Criminal 1386
Cle@@ 1386
objec@@ 1385
separ@@ 1385
criminals 1384
High@@ 1384
Air@@ 1384
Supervisory 1384
piano 1384
inning 1383
shr@@ 1383
Discover 1383
commission 1382
countless 1382
embedded 1382
fic@@ 1381
Pen@@ 1381
venue 1381
tiv@@ 1381
EP 1381
oms 1381
New@@ 1380
kill 1380
kids 1380
troub@@ 1379
ruled 1379
cen@@ 1379
tial 1379
63 1378
ji 1378
Cathedral 1378
procedural 1377
feelings 1377
orious 1377
wis@@ 1377
cum@@ 1377
fits 1377
scrutiny 1376
CEO 1376
ras 1376
ker@@ 1376
ote 1375
Den@@ 1375
Her 1375
aria 1375
gar 1375
tages 1374
ailed 1373
ography 1373
subjected 1373
ep 1373
amp 1373
Spring 1373
thumbnail 1373
centrally 1372
suspension 1372
Rel@@ 1372
consisting 1372
gel 1372
grew 1371
safely 1371
pride 1371
mines 1371
entrepreneurs 1370
pointing 1370
deep@@ 1370
civilians 1370
complic@@ 1370
SM@@ 1370
celebrated 1369
Annual 1368
alling 1368
indirectly 1368
glob@@ 1368
Fle@@ 1368
Nigeria 1368
IGC 1367
evol@@ 1367
roles 1367
Pat@@ 1367
Petitions 1367
charter 1366
gy@@ 1366
touched 1365
delivering 1365
stimulus 1364
Solidarity 1364
Stuttgart 1364
Region 1363
examining 1363
ea 1363
arises 1363
PP@@ 1363
limitations 1362
bert 1362
Vista 1362
adjustments 1361
installing 1361
finest 1361
compromises 1360
speaks 1360
disastrous 1360
vicinity 1360
regul@@ 1360
synchron@@ 1360
eigh@@ 1359
interventions 1359
sums 1359
perpet@@ 1359
oked 1359
ami 1359
paintings 1359
care@@ 1358
TA 1358
lawyers 1357
congratulating 1357
Mark 1357
PM 1357
implic@@ 1356
ign@@ 1356
OK 1356
alls 1355
elite 1355
infl@@ 1355
Mau@@ 1355
trails 1355
safeguarding 1354
abstained 1354
02@@ 1354
asks 1354
utions 1354
generating 1354
dre@@ 1354
extends 1354
carrier 1354
supporters 1353
Location 1353
await 1352
ey@@ 1352
Newspapers 1352
statute 1351
transmitted 1351
tex@@ 1351
tremendous 1350
weapon 1350
Jews 1350
unanimity 1350
stein 1350
presentations 1349
Wal@@ 1349
Sun 1349
feder@@ 1348
Jerusalem 1348
Rio 1348
ENT 1348
vine 1348
Mari@@ 1348
conveniently 1348
profitable 1347
sensitivity 1347
existed 1347
counts 1347
Bon@@ 1347
gon 1347
pillars 1346
cket 1346
laboratory 1346
Chief 1346
Hans 1346
resistant 1346
voices 1345
influenced 1345
UC@@ 1345
killing 1345
profiles 1345
landscapes 1344
About 1344
founder 1344
Gor@@ 1343
excuse 1343
verse 1343
Four 1343
girl 1343
behold 1343
innocent 1342
monopoly 1342
shock 1342
distinguished 1342
neo 1342
74 1342
Bol@@ 1342
Written 1342
tless 1341
Pla@@ 1341
Don@@ 1341
ci 1341
worker 1340
circuit 1340
Playa 1340
Professor 1339
ital 1339
ool 1339
Trek 1339
69 1338
exclude 1338
enhancing 1338
oting 1338
Caribbean 1338
Chancellor 1338
waves 1338
reads 1337
continental 1337
Rob@@ 1337
determining 1337
eable 1337
render 1337
appe@@ 1337
op 1337
besides 1336
culinary 1336
Empire 1336
Bad 1336
entity 1335
Romanian 1335
mes@@ 1335
SU@@ 1335
81 1334
writer 1334
ght@@ 1333
calculation 1333
Det@@ 1333
admission 1332
trademark 1332
eria 1332
Disabled 1332
annually 1331
Hei@@ 1331
lla 1331
strikes 1330
foster 1330
rows 1330
sch 1329
grass 1329
cos 1329
walks 1329
Star@@ 1329
top@@ 1329
California 1329
eta 1329
73 1328
portra@@ 1328
mers 1328
Reg@@ 1328
sofa 1328
earned 1327
affili@@ 1327
sat@@ 1327
WC 1327
utility 1327
gear 1326
guides 1326
subscription 1326
refusal 1325
Line 1325
Cross 1324
refined 1324
int@@ 1324
affir@@ 1323
anders 1323
gol@@ 1323
gg@@ 1322
districts 1322
illi@@ 1322
clean@@ 1321
cip@@ 1321
Cho@@ 1321
linking 1320
offset 1320
endorsed 1319
yellow 1319
hearts 1319
protests 1319
Latvia 1319
margin 1318
viewing 1318
Professional 1318
communist 1318
ía 1318
homepage 1318
hy@@ 1318
absurd 1317
convincing 1317
abandon 1317
61 1317
tariff 1317
rivers 1316
bloo@@ 1316
lifestyle 1316
corporations 1315
visas 1315
plac@@ 1315
ageing 1315
cans 1315
umb@@ 1314
Mul@@ 1314
ema 1314
lens 1314
incident 1313
attempting 1313
cher@@ 1313
encounter 1313
distributors 1313
UT@@ 1313
harmon@@ 1312
assessed 1312
bles 1312
immunity 1312
reproduction 1312
Radio 1312
ano@@ 1312
Fair 1312
worried 1311
inspiration 1311
chances 1311
autonomous 1311
avi@@ 1311
Unlike 1310
mounted 1310
fal@@ 1310
magnetic 1310
show@@ 1310
Joseph 1310
consultations 1309
delegations 1309
ji@@ 1309
alu@@ 1308
unilateral 1308
Ther@@ 1308
MP3 1308
dest 1307
decrease 1307
fabric 1307
shing 1307
ial 1307
Sport 1307
Corporate 1307
weekly 1307
fes@@ 1306
scra@@ 1306
cements 1306
cooling 1306
16th 1306
formally 1305
enter@@ 1305
lays 1304
emphasi@@ 1304
prop@@ 1304
tains 1304
Tr@@ 1304
cycling 1304
distant 1303
Unless 1303
securing 1303
mon 1303
intern@@ 1303
designers 1303
supplement 1302
Cohesion 1301
omed 1301
fire@@ 1301
Val 1301
prevents 1300
gent 1300
joy 1300
Fil@@ 1300
haven 1299
endeavour 1299
sincere 1299
endless 1299
qualities 1299
Chile 1299
ong@@ 1299
consolidate 1298
tonight 1298
sin@@ 1298
Kal@@ 1298
Korean 1298
tile 1298
HU 1298
attach 1297
pull 1297
day@@ 1297
ices 1297
Reserve 1297
cinema 1297
SS@@ 1297
interfaces 1296
stro@@ 1296
Pack 1296
geo@@ 1296
washing 1296
ules 1296
carries 1295
exploited 1295
maintains 1295
OECD 1295
organiz@@ 1295
moder@@ 1294
Much 1294
oll@@ 1294
Christ 1294
surfing 1294
UNESCO 1294
sympathy 1293
limiting 1293
76 1293
resorts 1293
fertili@@ 1293
younger 1293
insu@@ 1292
aggressive 1292
detention 1292
overwhelming 1292
thin 1292
cit@@ 1292
perf@@ 1292
Alexander 1291
lion 1291
clu@@ 1291
compens@@ 1290
analyse 1290
author@@ 1290
gather 1290
duction 1290
rain 1290
eff@@ 1290
gged 1289
obstacle 1288
enters 1288
Jan@@ 1288
afterwards 1287
Helsinki 1287
designated 1287
reaches 1287
ple 1287
width 1287
gging 1286
reaffir@@ 1286
symp@@ 1286
900 1286
dorf 1286
plugin 1286
domin@@ 1285
Dep@@ 1285
paragraphs 1285
yield 1284
Gui@@ 1284
dreams 1284
liquid 1284
exploring 1284
irs 1283
divisions 1282
Holy 1282
ink@@ 1282
Ak@@ 1281
Hon@@ 1281
workplace 1281
panels 1281
Sor@@ 1281
Gay 1281
ix 1280
finishing 1279
hectares 1279
Natural 1279
deciding 1279
Nature 1279
lying 1278
consist 1278
encomp@@ 1278
electronics 1278
mass@@ 1278
Liber@@ 1278
pop 1278
graphical 1278
Allah 1278
Blair 1277
commonly 1277
clothes 1277
Whilst 1276
thinks 1276
punishment 1276
preservation 1276
nic@@ 1276
Mad@@ 1276
ater@@ 1276
responding 1276
Administration 1276
libraries 1276
ingen 1276
asp@@ 1276
luck 1276
carriers 1276
Products 1276
gym 1276
vacuum 1275
technically 1275
Staff 1275
defeat 1275
married 1275
authorized 1275
circum@@ 1274
demonstrations 1274
filters 1274
Ari@@ 1273
Congo 1273
wan@@ 1273
0.00 1273
5th 1272
Child 1272
tip 1272
Come 1272
Suites 1272
exacerb@@ 1271
anism 1271
ruption 1271
ails 1270
cease 1270
meaningful 1269
anger 1269
consolidated 1269
illa 1269
perceived 1268
Over@@ 1268
discretion 1267
broad@@ 1267
reactions 1267
ood 1267
plates 1267
modernisation 1266
Singapore 1266
energies 1265
clauses 1265
OLAF 1265
somewhere 1265
deployment 1265
macroeconomic 1265
talent 1265
Residence 1265
perception 1265
sweet 1264
Š@@ 1264
facilit@@ 1263
skill 1263
wishing 1262
audiovisual 1262
irrespective 1262
alt 1262
Sy@@ 1262
kilometers 1262
notic@@ 1261
bags 1261
KDE 1261
ratify 1260
character@@ 1260
esses 1260
ele 1260
broadly 1259
incorrect 1259
safer 1258
preference 1258
brother 1258
hau@@ 1258
unified 1257
Basel 1257
max 1257
IV@@ 1257
regre@@ 1256
imbalances 1256
costly 1256
wn@@ 1256
poin@@ 1256
condi@@ 1256
Against 1256
Round 1256
gio 1256
reveal 1256
ideology 1255
Algeria 1255
Big 1255
mus@@ 1255
Simply 1255
outermost 1254
proves 1254
cep@@ 1254
detection 1254
households 1254
Ki@@ 1254
emphasize 1254
Wireless 1254
confirms 1253
mand@@ 1253
rarely 1253
scenes 1253
democratically 1252
guilty 1252
1990s 1252
Mont@@ 1252
safeguards 1251
wisdom 1251
ually 1251
mp 1251
ry@@ 1251
wire 1251
Library 1251
Ocean 1250
styles 1250
deci@@ 1249
group@@ 1249
extrac@@ 1249
dust 1249
spell 1249
hosting 1249
Rem@@ 1248
olo@@ 1247
thereof 1247
predic@@ 1247
hof 1247
Tran@@ 1246
mile 1246
shoes 1246
Fa@@ 1246
downtown 1246
silent 1245
complaint 1244
Between 1244
FOR 1244
Head 1244
Language 1244
Warcraft 1244
Neither 1243
aiming 1243
ft@@ 1243
Aqu@@ 1243
tube 1243
tig@@ 1242
far@@ 1242
selecting 1242
problematic 1242
Cultural 1242
Post@@ 1242
Galileo 1242
loan 1242
Eu@@ 1242
gaming 1242
validity 1241
deadlines 1241
Ky@@ 1241
mal 1241
gres@@ 1241
SP 1241
fulness 1240
cycles 1240
pushed 1240
fragile 1240
macro 1240
thirty 1239
seminar 1239
reasonably 1238
asses 1238
mol@@ 1238
alter 1237
Anti 1237
Jesus 1237
bath@@ 1237
bands 1237
ung 1237
query 1237
oder 1237
breeding 1236
Cab@@ 1236
races 1236
marriage 1236
Colombia 1236
ín 1236
Green@@ 1236
Lat@@ 1236
Test 1236
Innovation 1236
Wikitravel 1236
ghter 1235
impro@@ 1235
spi@@ 1235
60@@ 1235
dramatically 1235
Mail 1235
glo@@ 1234
Islam@@ 1234
tab 1233
disabilities 1233
revolutionary 1233
ME 1233
tendency 1232
USS 1232
differenti@@ 1231
locally 1231
eco 1231
nutri@@ 1231
Privacy 1231
legislat@@ 1230
87 1230
tioning 1230
disciplinary 1230
critique 1230
commodity 1229
bits 1229
teach 1229
Rei@@ 1229
conce@@ 1228
invites 1228
clinical 1228
insight 1228
processor 1228
GPS 1228
Gallery 1228
Objective 1227
assessing 1227
immense 1227
delivers 1227
tracking 1227
oh@@ 1227
Flo@@ 1227
edly 1226
tually 1226
medicinal 1226
Partner 1226
Piazza 1226
feasible 1225
med@@ 1225
DP 1225
diplomacy 1225
coins 1225
collections 1225
Anti@@ 1225
contest 1225
recognises 1224
fic 1224
pushing 1224
ouse 1224
Country 1223
remedy 1223
donor 1223
climbing 1223
Je@@ 1223
Sol 1223
appearing 1222
prot@@ 1222
gel@@ 1222
Decision 1221
fruits 1221
multip@@ 1221
Bat@@ 1221
Prin@@ 1221
ville 1221
fossil 1220
pipeline 1220
Sen@@ 1220
theoretical 1219
stering 1219
herself 1219
identifying 1218
practic@@ 1218
vali@@ 1218
GP 1218
witnessed 1217
xed 1217
Adriatic 1217
debts 1217
cattle 1217
EX 1217
renewal 1216
Ei@@ 1216
symbols 1216
tiny 1216
dioxide 1216
boarding 1216
Hostel 1216
pretext 1215
exceptionally 1215
attempted 1215
forestry 1215
License 1215
enforce 1214
headed 1214
Democracy 1214
desc@@ 1214
pour 1214
belt 1214
Mus@@ 1214
Explorer 1214
trail 1213
mented 1213
cla@@ 1213
Bio@@ 1213
inger 1213
100@@ 1213
FI 1213
multinational 1212
Anyone 1212
ual 1212
ocean 1212
án 1212
sur 1212
ambience 1212
economists 1211
Solana 1211
profession 1211
protective 1211
oper@@ 1210
wished 1210
accompanying 1210
personality 1210
indications 1210
fed 1210
Nero 1210
Arts 1210
praise 1209
simul@@ 1209
bian 1209
ö@@ 1209
lian 1209
fing 1209
Bag@@ 1209
admitted 1208
eating 1208
awards 1208
Reform 1207
ilt 1207
definitions 1207
deli@@ 1207
beat 1207
dos 1207
tness 1206
limitation 1206
colon@@ 1206
escal@@ 1206
loved 1206
glu@@ 1206
vineyards 1206
Net 1205
ects 1205
trials 1205
hop@@ 1205
yang 1205
erial 1204
incidents 1204
ection 1204
aus@@ 1204
Ukrainian 1204
3,@@ 1204
Double 1204
prompt 1203
arriving 1203
Heritage 1203
Sig@@ 1203
XML 1203
rhetoric 1202
Being 1202
Cer@@ 1202
wra@@ 1202
comforts 1202
15th 1202
Ashton 1202
weakness 1201
Annex 1201
stit@@ 1201
understandable 1200
prerequisite 1200
painful 1200
dairy 1200
tage 1200
tz@@ 1200
Casa 1200
Dru@@ 1199
cap 1199
CD@@ 1199
ective 1197
gal@@ 1197
Montenegro 1197
titles 1197
Though 1196
inci@@ 1196
fulfilling 1196
nar@@ 1196
giant 1196
Fed 1196
tioned 1195
disappear 1195
stu@@ 1195
woods 1195
EP@@ 1195
insur@@ 1194
dogs 1194
lifting 1194
adverti@@ 1194
dru@@ 1194
GA 1194
printer 1194
html 1194
persu@@ 1193
17th 1193
blocking 1193
globe 1193
District 1193
rank 1192
Sierra 1192
4th 1192
counting 1191
intim@@ 1191
broadcasting 1191
IM 1191
HO@@ 1191
cargo 1190
oes 1190
Nikon 1190
classification 1189
formul@@ 1189
retri@@ 1189
OSCE 1189
new@@ 1189
preserving 1188
80@@ 1188
execute 1188
Mah@@ 1188
Tower 1187
wanting 1187
verify 1187
lity 1187
clas@@ 1186
var 1186
cross@@ 1186
alpine 1186
Ram@@ 1186
Dresden 1186
certificates 1185
advised 1185
Ay@@ 1185
hyper@@ 1185
Siemens 1185
drew 1184
cotton 1184
universe 1184
cache 1184
Firefox 1184
sco@@ 1183
Again 1183
Provi@@ 1183
mount 1183
rob@@ 1183
liquidity 1183
Ag@@ 1183
QU@@ 1182
encourages 1182
distinguish 1182
psych@@ 1182
matches 1181
ric 1181
complementary 1181
eption 1181
tn@@ 1181
prints 1181
SK 1181
remin@@ 1180
spreading 1180
modification 1180
elli 1180
pt 1180
musicians 1180
wei@@ 1180
Sim@@ 1180
cc@@ 1179
foodstuffs 1178
arri@@ 1178
master@@ 1178
Ö@@ 1178
reb@@ 1178
precautionary 1177
earthquake 1177
concludes 1177
sends 1177
settle 1177
introduces 1177
pressures 1177
concessions 1176
floods 1176
attitudes 1176
genocide 1176
shooting 1176
Tar@@ 1176
eive 1175
emotional 1175
cus 1175
daughter 1175
visibility 1175
Top 1175
Pet@@ 1175
CDs 1175
persecution 1174
lou@@ 1174
mid@@ 1174
continuity 1174
Haiti 1174
warrant 1174
bus@@ 1174
ord@@ 1174
lows 1174
83 1173
initiate 1173
protectionism 1173
distinct 1173
rat@@ 1173
PAR@@ 1173
fs 1173
Arabia 1173
Herzegovina 1173
mineral 1173
law@@ 1173
ranges 1173
Str@@ 1173
booth 1173
improves 1172
Clinton 1172
organs 1172
Bed 1172
oli@@ 1171
activists 1171
ROM 1171
scar@@ 1170
IX 1170
textiles 1170
legacy 1170
84 1170
boy 1170
Mark@@ 1170
Relations 1170
Louis 1170
Terrace 1170
rs 1169
thi@@ 1169
Neu@@ 1169
convic@@ 1169
elegance 1169
inappropriate 1168
aux 1168
break@@ 1168
Riviera 1168
Ed@@ 1168
persi@@ 1167
aving 1167
dered 1167
tons 1167
toxic 1167
Kurdish 1167
customized 1167
quantitative 1166
asting 1166
Political 1166
Freedom 1166
Cl@@ 1166
Indi@@ 1166
Max 1166
coordinating 1165
inspections 1165
SY@@ 1165
Rhine 1165
pricing 1165
brutal 1165
ald 1165
stly 1164
transnational 1164
calcul@@ 1164
uter 1164
draws 1164
ept 1164
penet@@ 1163
credits 1163
advisory 1163
configured 1163
poorer 1162
termin@@ 1162
vessel 1162
Nobel 1162
persuade 1162
theast 1162
loo@@ 1161
reimbur@@ 1161
mad 1161
Likewise 1161
Fortunately 1161
unt@@ 1161
eil 1161
inequalities 1160
carte 1160
Equ@@ 1159
quali@@ 1159
stically 1159
Lag@@ 1159
stroll 1159
Wellness 1159
variables 1158
alty 1158
sibility 1157
responded 1157
posing 1157
seas 1157
stence 1157
intent 1157
stayed 1157
ray 1157
villas 1157
Coast 1156
Mart@@ 1156
Cir@@ 1156
BA 1156
encing 1155
billions 1155
construct 1155
packed 1155
documented 1155
D. 1155
EIB 1154
origins 1154
PE 1154
Les 1154
Dry 1154
Ur@@ 1153
barrier 1153
conservative 1153
psychological 1153
enemies 1153
static 1153
emergence 1152
vable 1152
Patten 1152
num@@ 1152
fasc@@ 1152
Kra@@ 1152
Bridge 1152
camping 1152
Land@@ 1151
shell 1151
Capital 1151
itali@@ 1151
iler 1151
peripheral 1150
Articles 1150
sett@@ 1149
council 1149
correction 1149
gra 1149
margin@@ 1148
essing 1148
valued 1148
conscience 1148
ceremony 1148
seaside 1148
A.@@ 1148
Slovak 1148
tournament 1148
officer 1147
facilitating 1147
chamber 1147
mixture 1147
orian 1147
Especially 1147
palace 1147
legendary 1147
anyway 1146
stresses 1146
protects 1146
fun@@ 1146
List 1146
visu@@ 1146
DR@@ 1146
ret@@ 1145
Michel 1145
newest 1145
Laundry 1145
Hague 1144
pursuit 1144
Roman@@ 1144
ès 1144
uty 1144
bo 1144
lica 1144
privileges 1143
insul@@ 1143
etc. 1143
Lim@@ 1143
insert 1143
DS@@ 1143
menus 1143
eliminating 1142
350 1142
1970 1142
completing 1142
horses 1142
conducting 1141
grid 1141
weaknesses 1140
Whatever 1140
mitig@@ 1140
GMOs 1140
Corporation 1140
CA 1140
cin@@ 1140
reader 1140
tan 1140
RSS 1140
Sie 1140
inland 1139
resol@@ 1139
organising 1139
sav@@ 1139
Village 1139
layers 1138
speculation 1138
irregularities 1138
reminded 1138
ancy 1138
Under@@ 1138
upload 1138
definite 1137
Young 1137
ids 1137
ando 1137
della 1137
withdrawn 1136
relevance 1136
cooperative 1136
rounds 1136
invoice 1136
Revolution 1136
disadvantaged 1135
dossier 1135
repercussions 1135
displaced 1135
Richard 1135
harder 1134
Schulz 1134
samples 1134
Liberals 1133
Post 1133
boom 1133
organisms 1133
bis@@ 1133
main@@ 1132
illness 1132
rup@@ 1131
transported 1130
exemption 1130
topical 1130
ope 1130
successes 1130
preparatory 1130
photo@@ 1130
dive 1130
Ticket 1130
confidentiality 1129
elev@@ 1129
tied 1129
bi 1129
PH@@ 1129
eling 1129
sau@@ 1129
classified 1128
onian 1128
Look 1128
Bulgarian 1128
temporarily 1128
vising 1127
rear 1127
rice 1127
keyboard 1127
Ober@@ 1126
evaluated 1126
Edinburgh 1126
featured 1126
invasion 1126
ALE 1126
complimentary 1126
ski@@ 1126
sightseeing 1126
Easy 1126
elimination 1125
ka@@ 1125
retained 1124
exam@@ 1124
tackled 1124
dress 1124
ume 1124
din 1124
Depending 1124
VIP 1124
aston@@ 1123
launching 1123
bla@@ 1123
diversi@@ 1123
licensed 1123
threaten 1122
turn@@ 1122
с@@ 1122
classi@@ 1121
Syn@@ 1121
LCD 1121
chair@@ 1120
sorts 1120
seed 1120
shots 1120
accountable 1119
crimin@@ 1119
aro@@ 1119
diagnosis 1118
attraction 1118
developer 1118
Russians 1117
deliberately 1117
Cleaning 1117
retro@@ 1116
refurbished 1116
UL@@ 1116
ž@@ 1116
anticipated 1115
eur 1115
dity 1115
listing 1115
warran@@ 1115
Valencia 1115
healing 1115
bal 1115
transform 1115
serial 1115
DS 1115
Inc 1115
bugs 1115
defines 1114
nutrition 1114
broadcast 1114
bin 1114
couples 1114
Environmental 1113
Mountain 1113
ALDE 1113
§ 1113
asts 1112
contradiction 1112
thirds 1112
tag 1112
burning 1112
maker 1112
taining 1111
convey 1111
portion 1111
lum@@ 1111
banana 1111
commands 1111
patch 1111
enshrined 1110
buyer 1110
Ven@@ 1110
Hussein 1110
Sac@@ 1110
liberalization 1110
pine 1110
productions 1110
.net 1110
devi@@ 1109
Sav@@ 1109
fat 1109
Pic@@ 1109
Med@@ 1109
studying 1108
Catholic 1108
и@@ 1108
employ 1107
positively 1107
overnight 1107
buttons 1107
detect 1106
mess@@ 1106
Bru@@ 1106
All@@ 1106
utor 1105
Looking 1105
Verheugen 1105
Organ@@ 1105
liberty 1105
timing 1105
traditionally 1105
acci@@ 1105
objections 1104
bold 1104
modifications 1104
PD@@ 1104
chi 1104
tible 1103
Canary 1103
Cli@@ 1103
Wikicars 1103
counted 1102
pedi@@ 1102
advan@@ 1102
Times 1102
Nokia 1102
batteries 1102
educ@@ 1101
ull 1101
aspirations 1101
volumes 1101
lifelong 1101
tal@@ 1101
baggage 1101
vertical 1100
mption 1100
settlements 1100
inviting 1100
interven@@ 1099
Recently 1099
confidential 1099
Nothing 1099
socialist 1099
alleged 1099
metals 1099
pragmatic 1099
heim 1099
LT 1099
Engineering 1099
ners 1098
aks 1098
79 1098
Cur@@ 1098
comb@@ 1097
diet 1097
Germans 1097
AP 1097
policymakers 1097
bicycle 1097
Building 1096
aluminium 1096
Photocopying 1096
tran@@ 1095
commend 1095
momentum 1095
fut@@ 1095
readers 1095
downloads 1095
priori@@ 1094
rot@@ 1094
shortage 1094
fically 1094
pig@@ 1094
favor 1094
ede 1093
brea@@ 1093
recru@@ 1092
Account 1092
ordering 1092
highway 1092
Supp@@ 1092
hairdryer 1092
mood 1091
ais 1091
imperi@@ 1091
moon 1091
coding 1091
ación 1091
meter 1091
tunnel 1090
midst 1090
ops 1090
Continu@@ 1090
dt 1090
fav@@ 1089
disappeared 1089
Want 1089
fastest 1089
accessibility 1089
gambling 1089
gical 1089
URL 1089
wholly 1088
kar@@ 1088
accessed 1088
On@@ 1088
design@@ 1087
resist 1087
there@@ 1087
Fal@@ 1087
1980s 1087
instant 1087
Close 1087
affair 1086
relie@@ 1086
high@@ 1086
sequence 1086
Class 1086
AK@@ 1086
ckers 1085
sooner 1085
landing 1085
cular 1085
shorter 1085
Conc@@ 1085
purchases 1085
Pack@@ 1085
hunting 1084
terraces 1084
gathering 1083
regulating 1083
devastating 1083
var@@ 1083
bond 1083
Kon@@ 1083
wel 1082
fers 1082
fundament@@ 1082
Army 1082
deck 1082
scripts 1082
admire 1081
sleeping 1081
formerly 1081
complied 1080
Fischler 1080
jum@@ 1080
Users 1080
retention 1080
premi@@ 1080
acknowled@@ 1079
earnings 1079
selec@@ 1079
alogues 1079
otel 1079
compet@@ 1078
thesis 1078
Tampere 1078
instances 1078
mothers 1078
comfortably 1078
Samsung 1078
thou 1077
Pr@@ 1077
Mallorca 1077
educated 1076
matic 1076
lical 1076
statutory 1076
subjec@@ 1076
container 1076
ux 1075
gaps 1075
deterior@@ 1075
grams 1075
ESS 1075
è 1075
Exhibition 1075
propaganda 1074
Zi@@ 1074
ium 1074
ax@@ 1074
stream@@ 1073
capitalist 1073
alarming 1073
Solutions 1073
singer 1073
wedding 1073
110 1072
compiled 1072
Dam@@ 1072
nationalism 1072
smallest 1072
ounce 1072
Oper@@ 1072
resp@@ 1072
tariffs 1071
artic@@ 1071
jet 1071
check@@ 1071
strongest 1070
deployed 1070
disadvantage 1070
contem@@ 1070
Bir@@ 1070
jec@@ 1070
Afghan 1070
Marketing 1070
Leipzig 1070
embargo 1069
institute 1069
prevail 1069
worlds 1069
sheep 1069
nets 1069
EM 1069
Mountains 1069
Chan@@ 1068
ph 1068
literally 1068
partic@@ 1068
NE@@ 1068
9th 1068
industri@@ 1067
qualification 1067
recti@@ 1067
auto 1067
beside 1067
kit@@ 1067
Vel@@ 1067
surgery 1067
optimized 1067
paint 1066
alli@@ 1066
MEP 1066
stricter 1066
GUE 1066
definitive 1066
experiments 1066
surfaces 1066
livestock 1066
directors 1066
pit@@ 1066
diesel 1066
beneficiaries 1065
predictable 1065
cat 1065
economical 1065
class@@ 1065
ades 1065
concent@@ 1065
hat 1065
tiveness 1065
vibrant 1065
lei@@ 1065
Airlines 1065
galleries 1065
ati 1065
pedestrian 1065
installer 1065
shame 1064
AF@@ 1064
Upon 1064
ements 1064
vig@@ 1064
decoration 1064
envis@@ 1063
quoted 1063
forever 1063
inary 1063
viruses 1063
realities 1063
Land 1063
Dol@@ 1063
ambiguous 1062
bic 1062
ref@@ 1062
vulnerability 1062
CR@@ 1062
Taliban 1062
pay@@ 1062
CC 1062
в@@ 1062
ern 1061
compla@@ 1061
concep@@ 1061
entary 1061
depic@@ 1061
Along 1061
smoke 1061
hoping 1060
lap@@ 1060
Globalisation 1060
blan@@ 1060
coach 1060
altitude 1060
Ori@@ 1060
licences 1059
cians 1059
Pin@@ 1059
furnishings 1059
180 1058
virtu@@ 1058
Ref 1058
six@@ 1057
detected 1057
Future 1057
Trump 1057
financially 1056
constituency 1056
eliminated 1056
ticul@@ 1056
detriment 1055
correspond 1055
human@@ 1055
milit@@ 1055
confronted 1055
grain 1055
Additional 1055
yo 1055
road@@ 1055
sty@@ 1055
gon@@ 1055
Consi@@ 1054
issuing 1054
lad@@ 1054
hip 1054
Update 1054
Marco 1054
reveals 1053
shoulder 1053
suits 1053
Resolution 1053
tro 1053
Sarkozy 1053
accommodations 1053
question@@ 1052
orial 1052
tism 1052
assumption 1052
auch 1052
publi@@ 1051
toys 1051
tle 1051
painted 1051
respon@@ 1051
mut@@ 1051
Light 1051
apped 1050
altogether 1050
ears 1050
pris@@ 1050
sustain 1050
dening 1050
Contrac@@ 1050
legitim@@ 1049
transpor@@ 1049
ranks 1049
tender 1049
fitting 1049
incurred 1049
Arti@@ 1049
Still 1048
enfor@@ 1048
routine 1048
thrown 1048
precedent 1048
real@@ 1048
Hom@@ 1048
ace@@ 1048
som@@ 1048
organ 1048
HP 1048
Force 1047
noble 1047
formulated 1047
prin@@ 1047
geared 1046
replacing 1046
outline 1046
parent 1046
pap@@ 1046
gia 1046
gla@@ 1046
compli@@ 1045
utter 1045
Certainly 1045
outer 1045
aders 1045
lateral 1045
Long 1044
lend 1044
Ant@@ 1044
3.5 1044
vel 1044
500@@ 1044
Age 1044
compensate 1043
screening 1043
Warsaw 1043
Guinea 1043
indic@@ 1042
mitting 1042
segments 1042
biotechnology 1042
og@@ 1042
Not@@ 1042
Porto 1042
zy@@ 1042
establishes 1041
Quite 1041
guiding 1041
ckets 1041
crop 1041
eping 1041
aboli@@ 1041
Man 1041
kin@@ 1041
frames 1041
Il 1041
VI 1040
spam 1040
possession 1039
Stra@@ 1039
1988 1039
pho@@ 1039
turnover 1039
tations 1039
popularity 1039
barely 1038
minded 1038
grey 1038
burdens 1038
measurements 1038
beautifully 1038
lifts 1038
Egyptian 1038
sz@@ 1038
varying 1037
Ul@@ 1037
Goals 1037
mounting 1037
stell@@ 1037
Santer 1036
bis 1036
dened 1035
Croatian 1035
duly 1035
130 1035
automobile 1035
chip 1035
Oc@@ 1035
enza 1035
overseas 1034
capita 1034
failures 1034
vals 1034
cure 1034
negoti@@ 1034
municipal 1034
restriction 1034
long@@ 1033
depl@@ 1033
democratisation 1033
negligence 1032
ingu@@ 1032
cultivation 1032
Timor 1032
nearest 1032
vegetable 1032
ein@@ 1032
Docum@@ 1032
shut 1031
buffer 1031
Pool 1031
nbsp 1031
decides 1030
hospitals 1030
osity 1030
aults 1030
slide 1030
dres@@ 1030
tionality 1029
criticisms 1029
Forest 1029
collecting 1029
NOT 1029
humane 1029
fusion 1029
Develop@@ 1029
stan@@ 1029
unter 1029
advocates 1028
forecasts 1028
accoun@@ 1028
tuna 1028
cabin 1028
Film 1028
Incre@@ 1027
dropped 1027
aer@@ 1027
Iceland 1027
ré@@ 1027
bund@@ 1027
anne@@ 1026
verb@@ 1026
clari@@ 1026
lay@@ 1026
Bus@@ 1026
attacked 1026
opera 1026
ruins 1026
imagination 1026
injury 1026
exquisite 1026
prohi@@ 1025
memories 1025
broadband 1025
entation 1025
luggage 1025
Call 1025
stru@@ 1024
treating 1024
pling 1024
destabili@@ 1024
intimate 1024
lan 1024
erup@@ 1023
Mol@@ 1023
Later 1023
algorith@@ 1023
pity 1022
een 1022
sei@@ 1022
journalist 1022
aband@@ 1022
Tour@@ 1022
ppy 1022
Credit 1022
ferred 1021
cation 1021
SI 1021
por 1021
appropriately 1020
lage 1020
severely 1020
slight 1020
Caucasus 1020
defended 1020
hec@@ 1020
recipient 1020
voltage 1020
breast 1020
Börse 1020
aver@@ 1019
Save 1019
electro@@ 1019
baths 1019
deter@@ 1018
random 1018
clarified 1018
isi@@ 1018
circul@@ 1018
punished 1018
fis@@ 1018
signatures 1018
ented 1017
Diam@@ 1017
exotic 1017
Fon@@ 1017
rel 1016
arena 1016
Serbian 1016
astic 1016
accompany 1016
cut@@ 1016
enforced 1015
Ah@@ 1015
judiciary 1015
Bis@@ 1015
discriminatory 1015
demonstrating 1015
ferry 1015
ling@@ 1015
Spirit 1015
â@@ 1014
dear 1014
factories 1014
Athens 1014
passport 1014
manually 1014
materi@@ 1013
confront 1013
sever@@ 1013
goo@@ 1013
experiment 1013
loads 1013
shes 1012
congress 1012
cathedral 1012
nicht 1012
denom@@ 1011
eck 1011
hen@@ 1011
dying 1011
uncertain 1011
ao 1011
uniqu@@ 1011
cost@@ 1011
legisl@@ 1010
distinctive 1010
decor@@ 1010
ali 1010
irresponsible 1009
Monti 1009
dently 1009
hygiene 1009
inser@@ 1009
ura 1009
Elec@@ 1009
injection 1009
nec@@ 1009
donation 1009
ag 1009
secular 1008
thor@@ 1008
Venezuela 1008
portable 1008
End 1008
Dr 1008
ected 1008
sand@@ 1008
Summer 1008
lacks 1007
chains 1007
undermining 1007
escap@@ 1007
Brok 1007
infection 1007
Côte 1007
Instruments 1007
clim@@ 1006
accomplished 1006
chaos 1006
Ret@@ 1006
night@@ 1006
Technologies 1006
Deb@@ 1006
Medical 1006
ax 1006
substitute 1005
tailor 1005
generates 1005
postponed 1005
Initiative 1005
encountered 1005
sus 1005
Tem@@ 1005
Below 1005
vague 1004
weak@@ 1004
contamination 1004
cus@@ 1004
dark@@ 1004
vers@@ 1004
Far 1004
Version 1004
illegally 1004
od 1004
gering 1003
teenth 1003
vian 1003
TE 1003
stret@@ 1002
criticised 1002
expects 1002
chart 1002
optimistic 1002
Liberties 1002
boys 1002
Arena 1002
devote 1001
rehabilitation 1001
ethics 1001
Zealand 1001
tos 1001
Nu@@ 1001
Palma 1001
Madeira 1000
appalling 1000
etri@@ 1000
anim@@ 1000
aul@@ 1000
lining 1000
oured 1000
queries 1000
etry 1000
snacks 1000
successor 999
cream 999
identi@@ 999
tank 999
festivals 999
iPod 999
accommod@@ 998
Questions 998
pesticides 998
Bl@@ 998
spra@@ 998
privati@@ 998
ão 998
Micro@@ 998
einer 998
excluding 997
transposition 997
chers 997
Meas@@ 997
Institu@@ 997
updating 997
Yesterday 997
establishments 997
enjoyable 997
fair@@ 997
Theatre 997
Dolomites 997
haus 997
alistic 996
dev@@ 996
judged 996
locked 996
closest 996
corresponds 996
haz@@ 996
IBM 996
Dri@@ 996
Sales 996
dei 996
recur@@ 995
indul@@ 995
grat@@ 995
reward 995
ue 995
Sri 994
Large 994
mutually 994
flood 994
Vit@@ 994
opp@@ 994
Mount 994
Os@@ 994
modular 994
Gift 994
dryer 994
crash 993
grace 993
commission@@ 993
nationality 993
mot@@ 993
erg@@ 993
remo@@ 993
Arctic 993
iring 992
Ir@@ 992
violated 992
ares 992
dest@@ 992
Cin@@ 992
13th 992
Learning 992
backup 992
verification 991
dable 991
din@@ 991
subsi@@ 991
Universal 991
biofuels 991
Lab@@ 991
autom@@ 991
catalog 991
tanks 990
worthwhile 990
jun@@ 990
Basi@@ 990
blow 990
saf@@ 990
til@@ 990
acute 990
harmonise 990
vent@@ 990
zzo 990
2014 990
ested 989
mild 989
Pur@@ 989
Balkan 989
xi@@ 989
Israelis 989
attending 989
omm@@ 989
tivities 989
solo 989
panorama 989
Comple@@ 989
entails 988
competing 988
block@@ 988
individu@@ 988
CS@@ 988
Tel 988
heav@@ 987
misleading 987
scandal 987
Mir@@ 987
swi@@ 987
Game 987
polis 987
adapting 986
jeopardi@@ 986
coupled 986
wheels 986
somehow 986
auction 986
ecommerce 986
proofed 986
Banquet 986
Airconditioning 986
05@@ 985
coastline 985
occurring 985
abolished 985
FR@@ 985
feeding 985
bio 985
esta 985
locate 985
magazines 985
V. 985
sided 984
Plat@@ 984
Blo@@ 984
stretch 984
rous 984
hosted 984
vi 984
Advanced 984
sixth 983
Competition 983
imag@@ 983
Sin@@ 983
Bot@@ 983
righ@@ 983
Captain 983
M. 983
construc@@ 982
humili@@ 982
uphold 982
alia 982
intensity 982
emphasises 981
suspect 981
oming 981
brilliant 981
enced 981
gency 981
zo 981
Auto@@ 981
coating 981
dev 981
File 981
loud 980
olds 980
designing 980
deterioration 980
archives 980
mail@@ 980
journ@@ 980
ć 980
drag 979
footing 979
blin@@ 979
destroying 979
EG@@ 979
ellers 979
10th 979
CO 979
oasis 979
guitar 979
C4 978
mou@@ 978
Wol@@ 978
mountain@@ 978
rises 978
rum 978
Ear@@ 978
CP 978
metro@@ 978
SDL 978
ament 977
concluding 977
trillion 977
acks 977
assu@@ 977
bulk 977
rations 977
protein 977
discou@@ 977
dish 976
organ@@ 976
competitions 976
verified 976
mac@@ 976
organizing 976
cially 975
persistent 975
architect 975
contribut@@ 975
alter@@ 975
promptly 975
networking 975
placement 975
stal@@ 975
Division 975
gui@@ 974
urged 973
Milosevic 973
zia 973
ř@@ 973
LED 973
balancing 972
hil@@ 972
W. 972
simpler 971
respec@@ 971
ires 971
dom 971
sy 971
chronic 971
Drive 971
privilege 970
wholeheartedly 970
fts 970
exported 970
anno@@ 970
Directors 970
cour@@ 970
thir@@ 970
servatory 970
motivation 970
marble 970
use@@ 969
recommends 969
Tibetan 969
rigid 969
weaker 969
phenomena 969
accurately 969
architects 969
mails 969
Seville 969
pper 969
Darfur 969
Buyer 969
understands 968
fest 968
merit 968
Any@@ 968
Dem@@ 968
consultants 967
neg@@ 967
influences 967
ario 967
nightlife 967
monopolies 966
inability 966
dient 966
resident 966
posting 966
Ski 966
Lounge 966
multiannual 965
disparities 965
inherent 965
likewise 965
Has 965
sons 965
ranking 965
Mand@@ 965
A3@@ 965
sectoral 964
trage@@ 964
exert 964
transl@@ 964
laim@@ 964
thwest 963
6th 963
formali@@ 963
graphy 963
seller 963
Mach@@ 963
submitting 962
civilisation 962
exceeded 962
unite 962
trigger 962
burn 962
radioactive 962
å@@ 962
Rein@@ 962
COD 961
awaiting 961
recep@@ 961
demic 961
bac@@ 961
multitude 961
lling 961
cool@@ 961
stainless 961
vor 961
consul@@ 960
distances 960
notify 960
restoring 960
possess 960
flower 960
onal 960
screens 960
occup@@ 960
birthday 960
forcing 959
gratitude 959
univers@@ 959
tie 959
Ale@@ 959
Fourthly 958
achiev@@ 958
1986 958
folk 958
than@@ 958
handi@@ 958
past@@ 958
Source 958
9001 958
nam@@ 957
adhere 957
tune 957
shaping 957
licensing 957
Sax@@ 957
free@@ 957
Chem@@ 957
FC 957
wonder@@ 956
attracted 956
additives 956
iss@@ 956
sl@@ 956
authoritarian 956
episode 956
merchan@@ 956
Help 956
plot 956
quet 956
unequi@@ 955
logy 955
descriptions 955
ei 955
sciences 955
crus@@ 954
encouragement 954
red@@ 954
ticism 954
tends 954
arities 954
resear@@ 954
Currency 954
ached 953
abortion 953
frozen 953
proph@@ 953
BS 953
weaken 952
recruitment 952
wash@@ 952
contradic@@ 952
cle 952
passive 952
aesthetic 952
reiter@@ 951
lawyer 951
vocal 951
ör@@ 951
desert 951
geable 951
geom@@ 951
ua 951
Pon@@ 950
bridges 950
io 950
density 950
disability 950
internally 950
commissioned 950
xenophobia 950
corrected 950
norms 950
pets 950
Bus 950
tranquil 950
cky 949
undermined 949
condemnation 949
sudden 949
remark 949
lit@@ 949
conceived 949
eda 949
7th 949
varieties 949
spark@@ 949
subsidiaries 949
ineffective 948
exclu@@ 948
Nazi 948
expresses 948
terrain 948
Istanbul 947
anymore 947
1,000 947
matching 947
Mich@@ 947
host@@ 947
sage 947
techn@@ 947
critics 946
submission 946
prof@@ 946
void 946
sensi@@ 946
mig@@ 946
home@@ 946
Bonn 946
TM 946
Play 946
sex@@ 945
Ass@@ 945
horri@@ 945
GM 945
Av@@ 945
live@@ 944
exercises 944
Five 944
esa 944
assemb@@ 944
organis@@ 944
refreshing 944
yea 944
stipul@@ 943
embry@@ 943
Bou@@ 943
pes 943
Mes@@ 943
06@@ 942
Almost 942
mankind 942
forbidden 942
Monte 942
CL@@ 942
tasty 942
theater 942
Level 941
celebration 941
positioned 941
ik 941
critici@@ 941
variations 940
thick 940
cane 940
calculations 940
Back 940
servants 940
Jordan 940
ison 940
stran@@ 940
Nord 940
deliveries 940
Bau@@ 940
Bill 940
alle 940
Enter 940
exhaus@@ 939
utes 939
emplo@@ 939
echo@@ 939
axis 939
fathers 939
Publi@@ 939
Production 939
LAN 939
Intel 939
Canadian 938
Il@@ 938
GR@@ 938
Installation 938
SD 938
sensors 938
adjacent 937
Respon@@ 937
lit 937
reproductive 937
Ke@@ 936
conception 936
diam@@ 936
genic 936
fici@@ 936
speeds 936
gentle 936
Malaysia 936
lush 936
locating 935
confined 935
ulated 935
disappointment 935
bre 935
comitology 934
administrations 934
exagger@@ 934
trau@@ 934
vacc@@ 934
bottle 934
Cuban 934
template 934
shipment 933
distortion 933
hist@@ 933
Accordingly 933
harsh 933
NGL 933
outs@@ 933
motto 933
nick@@ 933
Hand@@ 933
therap@@ 933
SH@@ 933
Esp@@ 933
towels 933
minibar 933
expecting 932
assumes 932
stered 932
wearing 932
incredibly 932
happ@@ 932
salaries 932
trace 932
SL@@ 932
Mar 932
PER@@ 932
robots 932
anch@@ 931
endo@@ 931
ava 931
ATION 931
sich 931
kon@@ 931
fen@@ 930
reflecting 930
casting 930
succ@@ 930
spot@@ 930
£ 930
ames 930
rene@@ 930
illu@@ 930
elli@@ 930
Railway 930
Key@@ 930
kov@@ 930
personalized 930
shores 929
deprived 929
subsidy 929
mani@@ 929
140 929
impressed 929
backdrop 929
pa 929
wins 929
pump 929
tful 928
deta@@ 928
pass@@ 928
experimental 928
Holland 928
moratorium 928
inte@@ 928
eti@@ 928
any@@ 928
ergies 927
insecurity 927
evenings 927
mature 927
VE 927
electorate 927
key@@ 927
seeds 927
Hot@@ 927
Kir@@ 927
EV@@ 927
appropri@@ 926
dependency 926
springs 926
ature 926
eme@@ 926
Nav@@ 926
manu@@ 926
Palacio 925
anybody 925
reformed 925
lav@@ 925
indicating 925
coup 925
arily 925
Ford 925
contracting 925
Type 925
awa@@ 924
approaching 924
incomplete 924
regulators 924
By@@ 924
antique 924
Tuscany 924
appoint 923
Scientific 923
Mit@@ 923
suspend 923
Local 923
fel@@ 923
sentences 923
jk 923
tissue 923
300@@ 923
Baroness 923
dimensional 923
fier 923
Thai 923
interpret 922
Sup@@ 922
foreseen 922
timber 922
nia 922
conven@@ 922
injured 922
defect 922
1945 922
jan 922
Rou@@ 922
DI 922
screen@@ 922
ologies 922
Kno@@ 922
tram 922
varies 921
offences 921
Jan 921
abolish 921
aked 921
defen@@ 921
bom@@ 921
opposing 921
Super 921
1987 921
finger 921
moul@@ 921
Barack 921
matched 920
facto 920
soli@@ 920
serv@@ 920
seaf@@ 920
disc 920
Learn 920
postp@@ 919
orient@@ 919
utable 919
favoured 919
flora 919
purchaser 919
tus 919
courtyard 919
administrator 918
avec 918
Jacques 918
lers 918
emotions 918
phases 918
deregulation 918
1985 918
mill 918
halls 918
Word 918
KG 918
С@@ 918
unclear 917
chapters 917
ssi@@ 917
municipality 917
lifetime 917
leverage 917
CFSP 916
sel 915
confused 915
stimulating 915
Fif@@ 915
threatens 914
foreigners 914
expec@@ 914
fleets 914
zen 914
therapeutic 914
inch 914
Kat@@ 914
distur@@ 913
Syrian 913
termination 913
steady 913
writers 913
studios 913
scop@@ 913
solarium 913
storm 912
14th 912
Scottish 912
arre@@ 912
dian 912
Customs 911
ech@@ 911
unded 911
Rock 911
dealer 911
aren 911
approxim@@ 910
assuming 910
dare 910
trendy 910
likes 910
fabulous 910
photographer 910
boutique 910
IL 909
Sab@@ 909
manipulation 909
Sant 909
Gri@@ 909
realization 909
tier 908
Taking 908
symptoms 908
ector 908
exer@@ 908
captured 908
zy 908
drawings 908
eva 908
seasonal 907
1.2 907
modernis@@ 907
supposedly 907
merits 907
anc@@ 907
Hitler 907
dealers 907
recy@@ 907
basin 907
credi@@ 907
Arch@@ 907
Düsseldorf 907
CAD 907
swift 906
eks 906
straightforward 906
dur@@ 906
Sports 906
fulfill 906
bikes 906
Ironing 906
bookings 906
thly 905
mittedly 905
Father 905
recreational 905
eggs 905
strations 904
Bet@@ 904
path@@ 904
stant 904
lot@@ 904
acid 904
compan@@ 904
.The 904
G20 904
transi@@ 903
ô@@ 903
infected 903
thirdly 903
peac@@ 903
contradictory 903
corrupt 903
refund 903
minors 903
Hin@@ 903
predecessor 902
explanatory 902
disappointing 902
scienti@@ 902
ato@@ 902
recreation 902
ees 902
petition 901
scenarios 901
Maybe 901
ycle 901
ae 901
charging 901
Hou@@ 901
gor@@ 901
RI 901
cken 900
encryption 900
tica 900
inau@@ 899
tongue 899
Kremlin 899
scan 899
simulation 899
interfere 898
populated 898
rus@@ 898
Copyright 898
Ga@@ 898
schol@@ 898
buil@@ 898
destructive 897
sit@@ 897
Main@@ 897
rooted 897
flour@@ 897
Watch 897
immer@@ 897
Commerce 897
Tal@@ 897
API 897
acqu@@ 896
remit 896
gle@@ 896
Es@@ 896
360 896
Gau@@ 896
zoom 896
s.com 896
persec@@ 895
frankly 894
applicants 894
owe 894
deposits 894
diameter 894
Olympus 894
Merkel 894
prosperous 893
fairness 893
resume 893
fines 892
passage 892
dans 892
redundant 891
claiming 891
echo 891
adju@@ 891
oli 891
atics 891
Cast@@ 891
lengthy 890
flags 890
exemplary 890
José 890
fro@@ 889
arisen 889
yards 889
dle 889
qualitative 889
caution 889
Anim@@ 889
Sand@@ 889
Police 889
3.0 889
investor 888
Karl 888
linear 888
murdered 888
coin 888
intermedi@@ 888
peti@@ 888
accelerate 888
sexu@@ 888
Black@@ 888
ino@@ 888
ceful 887
Works 887
rejecting 887
extract 887
fortress 887
particip@@ 887
anian 887
forecast 887
omp@@ 887
lah 887
Auth@@ 887
jazz 887
Gothic 887
accessing 886
anticip@@ 886
func@@ 886
bank@@ 886
nau@@ 886
Computer 886
Prof. 886
occasionally 885
oun@@ 885
earmarked 885
recognising 885
altered 885
veto 885
toll 885
Francisco 885
May@@ 885
benefited 884
specification 884
teeth 884
Fol@@ 884
intermediate 884
masters 884
pluralism 884
sor 884
onia 884
Bavaria 884
len 884
Back@@ 884
rable 883
survi@@ 883
sacrifice 883
picked 883
Smith 883
slave 883
inserted 883
fireplace 883
multinationals 882
CF@@ 882
fet@@ 882
requesting 881
alert 881
prejudice 881
GBP 881
acity 881
excessively 881
nov@@ 881
business@@ 881
finger@@ 881
Shanghai 881
filed 880
refuge 880
Kinnock 880
mixing 880
strip 880
yl 880
expor@@ 880
conversation 880
11@@ 880
chal@@ 880
promotional 880
rocks 880
fabrics 880
virtue 879
stle 879
Brazilian 879
Lou@@ 879
draftsman 879
vocation 879
Tokyo 879
generic 879
enchanting 879
Quark 879
incoming 878
geopolitical 878
pered 878
incompatible 878
pen 878
federation 878
Review 878
credited 877
highlighting 877
obligatory 877
cooperating 877
govern@@ 877
iti 877
ec 877
copper 877
Cour@@ 877
EST 877
LateRooms.com 877
simplifying 876
foreseeable 876
Supreme 876
nat@@ 876
rane 876
Up@@ 876
REACH 876
у@@ 876
Basque 875
codi@@ 875
None 875
smoothly 875
enthusiastic 875
Whenever 875
vegetation 875
licenses 875
honor 875
vention 874
essors 874
Tan@@ 874
investigated 874
risen 874
swiftly 874
infin@@ 874
prevailing 874
participant 874
Verts 874
husband 874
hang 874
UM@@ 874
ech 874
Tarifa 874
brigh@@ 874
fairs 874
optimization 874
broke 873
Countries 873
fast@@ 873
Exc@@ 873
acres 873
rali@@ 873
documentary 873
typ@@ 873
Queen 873
tut@@ 873
Panasonic 873
distortions 872
ext@@ 872
pec@@ 872
politician 872
Official 872
ik@@ 872
translators 872
repe@@ 871
assisted 871
differing 871
dish@@ 871
modi@@ 871
motiv@@ 871
Eurostat 871
Daniel 871
ologists 871
pet 871
bli@@ 871
viewer 871
correc@@ 870
ank 870
Europa 870
methodology 870
sharply 870
prostitution 870
Der 870
Available 870
containers 869
indicator 869
earliest 869
underp@@ 869
thetic 869
Cit@@ 869
cup 869
eric 869
ê@@ 869
Ty@@ 869
aya 869
IR 869
assass@@ 868
refusing 868
reforming 868
adop@@ 868
commodities 868
Adjustment 868
Cou@@ 868
versatile 868
parliamentarians 867
lifted 867
sick 867
Vic@@ 867
William 867
ure@@ 867
Play@@ 867
Metro 867
banning 866
deri@@ 866
anonymous 866
neutrali@@ 866
Excellent 866
gladly 865
unilater@@ 865
prefer@@ 865
traceability 865
offensive 865
plu@@ 865
gur@@ 865
Starting 865
Hal@@ 865
Albanian 864
Cz@@ 864
agreeing 864
sity 864
cow 864
Ali@@ 864
Get@@ 864
harmonization 864
rest@@ 864
animation 864
manages 863
Chair 863
wood@@ 863
rum@@ 863
Sound 863
Price 863
orange 863
Reserv@@ 863
Neighbourhood 863
Bern@@ 863
binary 863
instruction 862
recourse 862
Democrat 862
Fir@@ 862
fting 862
eco@@ 862
learnt 862
Already 862
eses 862
Dur@@ 862
Slovenian 862
shapes 862
Built 862
stipulated 861
rendered 861
let@@ 861
cataly@@ 861
diff@@ 861
positioning 861
supplying 861
Harbour 861
longest 861
proprietary 861
Ok@@ 861
news@@ 861
е@@ 861
substantive 860
Various 860
thread 860
rolled 860
mentioning 859
dynamics 859
postpone 859
cir@@ 859
govern 859
lag@@ 859
py@@ 859
Regions 858
colourful 858
Inclu@@ 858
ions 858
Direct 858
promenade 858
insofar 857
transferring 857
Nowadays 857
steep 857
jump 857
unexpected 857
cocktail 857
Renaissance 857
laundry 857
surveys 856
chips 856
college 856
bananas 856
reconcile 856
ks@@ 856
FA@@ 856
Application 856
alizing 856
catastrophe 855
privatisation 855
advocated 855
weakened 855
ordin@@ 855
outlook 855
oils 855
Tam@@ 855
orph@@ 855
DR 855
Key 854
altern@@ 854
Wel@@ 854
hatred 854
vir@@ 854
mentation 854
biom@@ 854
Boh@@ 854
entirety 853
Throughout 853
judgments 853
wer@@ 853
Len@@ 853
cht 853
bili@@ 852
criticise 852
constra@@ 852
found@@ 852
Es 852
Inv@@ 852
Dar@@ 852
GU@@ 852
protocols 851
recital 851
letting 851
underway 851
duced 851
empire 851
childhood 851
onds 851
Connec@@ 851
icons 851
Relax 851
exercised 850
somebody 850
interrupted 850
isol@@ 850
fund@@ 850
Follow 850
1979 850
GE 850
SL 850
Classic 850
courageous 849
nan@@ 849
Ele@@ 849
monastery 849
stro 849
kan@@ 849
onwards 848
Nuclear 848
ority 848
professionalism 848
adver@@ 848
embar@@ 848
circles 848
embark@@ 848
linen 848
vation 848
ont 848
seating 848
entail 847
hitherto 847
remembered 847
quo 847
ILO 847
ä@@ 847
ig 847
ith 847
appealing 846
warn 846
salary 846
Bul@@ 846
round@@ 846
Patri@@ 846
Bundes@@ 846
Past@@ 846
donations 846
Around 846
berger 846
Frontex 846
bomb 845
ultra@@ 845
ku@@ 845
suspicion 845
scho@@ 845
Eli@@ 845
po 845
Ros@@ 845
Purch@@ 845
tern@@ 844
breaches 844
poorly 844
Wat@@ 844
Kenya 844
Particip@@ 844
и 844
о@@ 844
к@@ 844
Century 843
ekeeping 843
consciousness 843
emph@@ 843
confron@@ 843
gifts 843
rich@@ 843
suicide 843
discounts 843
Adri@@ 843
ados 843
comprising 842
sic 842
insisted 842
reunification 842
Mugabe 842
kingdom 842
Gate 842
spor@@ 842
Prince 842
optimize 842
Apache 842
.ch 842
ront 841
hydraulic 841
149 841
impa@@ 841
age@@ 841
struggling 841
continu@@ 841
cand@@ 841
Motor@@ 841
ENT@@ 841
scann@@ 841
instruc@@ 840
outcomes 840
warned 840
qualify 840
bench@@ 840
HR 840
Initi@@ 840
tiles 840
Ibiza 840
FOR@@ 840
Sound@@ 840
sten 839
time@@ 839
Communities 839
oth@@ 839
princip@@ 839
Conciliation 839
frontier 839
sadly 838
absent 838
refrain 838
deliberate 838
Cambodia 838
mil@@ 838
slot 838
pel@@ 838
nel 838
Prot@@ 838
tv 838
prob@@ 837
abstract 837
tolerate 837
seal 837
dium 837
TC 837
one@@ 837
jury 837
Provence 837
hath 837
gourmet 837
collectively 836
malaria 836
Coun@@ 836
peaks 836
Days 836
B.@@ 836
400@@ 835
reinforcing 835
Oslo 835
wet 835
expressions 835
domains 835
columns 835
Das 835
overla@@ 834
pas 834
Proc@@ 834
wns 834
desires 834
cloning 834
eld 834
agi@@ 834
conduc@@ 834
enta 834
magical 834
Machine 834
imply 833
Little 833
modern@@ 833
proactive 833
premature 833
mechan@@ 833
operative 833
exporting 833
continents 833
Wo@@ 833
Monitoring 833
console 833
fashionable 833
Got@@ 833
stadt 832
Lar@@ 832
twentieth 832
determines 832
HS 832
е 832
Premium 832
prehen@@ 831
detrimental 831
Did 831
happiness 831
ousness 831
chef 831
Studies 831
bets 831
perc@@ 830
stamp@@ 830
suspected 830
inspectors 830
counterparts 830
Sky 830
europ@@ 830
Pul@@ 830
Bla@@ 829
fat@@ 829
mercury 829
brown 829
synthetic 829
Lev@@ 829
Mod@@ 829
RS 829
fridge 829
ago@@ 829
Garda 829
tec 829
harmonious 828
Beyond 828
presum@@ 828
hops 828
breakthrough 828
incorporating 828
ctions 828
exhibitors 828
rebuild 827
margins 827
hoc 827
predict 827
prem@@ 827
sequ@@ 827
jack@@ 827
CAR@@ 827
dispat@@ 827
Governments 827
pupils 827
fifty 826
spices 826
traders 826
stries 826
1970s 826
pumps 826
rac@@ 826
Concerning 825
Surely 825
realisation 825
consultancy 825
recordings 825
intellec@@ 825
delightful 825
Santiago 825
uli@@ 825
surf 825
elles 825
share@@ 825
DNA 825
hereby 824
prosecution 824
constituents 824
usable 824
mentions 824
fruitful 824
DG 824
Naples 824
cel 824
Ker@@ 824
hoods 823
employer 823
connects 823
elect 823
cosmetic 823
valleys 823
tub 823
exemp@@ 822
embrace 822
petrol 822
withstanding 822
questionable 822
normali@@ 822
chen@@ 822
pop@@ 822
iny 822
rez 822
obstruc@@ 821
publicity 821
delight 821
unification 821
yours 821
friendship 821
sty 821
Beg@@ 821
Mexican 821
Tex@@ 821
Kirk 821
diversification 820
Steel 820
ministerial 820
derivatives 820
pensioners 820
grows 820
Regi@@ 820
tt 820
gent@@ 820
Audio 820
influential 819
successive 819
Antonio 819
rul@@ 819
enda 819
cratic 819
ssa 819
slaughter 819
ttably 819
aten 819
laptop 819
EGF 819
Stock 818
amaz@@ 818
sional 818
evaluating 818
holdings 818
Assi@@ 818
outbreak 818
wasn 818
triple 818
engineer 817
ow@@ 817
ologist 817
scores 817
wellbeing 817
dict 817
werden 817
exceeds 817
CM@@ 817
HT@@ 817
underlined 816
relatives 816
trium@@ 816
readily 816
plastics 816
behave 816
obe@@ 816
molec@@ 816
intuitive 816
DIN 816
german 816
attentive 815
utely 815
strengths 815
fauna 815
four@@ 815
anded 815
pts 815
PRO 815
EB@@ 815
SW@@ 815
informing 814
acqui@@ 814
Freedoms 814
dozens 814
frontiers 814
manipul@@ 814
triggered 814
historically 814
copying 814
ane@@ 814
traces 814
ria 814
Hop@@ 813
Gender 813
attributed 813
neighbour 813
G8 813
administ@@ 813
etch 813
prizes 813
temple 813
patience 812
wealthy 812
SIS 812
interoperability 812
.com. 812
tones 811
professions 811
cautious 811
ring@@ 811
sens@@ 811
Cop@@ 811
playground 811
Date 811
suggesting 810
forefront 810
CNS 810
stabilisation 810
ambigu@@ 810
mediation 810
explaining 810
bow 810
450 810
tap 810
ASEAN 810
bil@@ 809
absor@@ 809
fr@@ 809
ceilings 809
disarmament 809
5,@@ 809
bow@@ 809
S.A. 809
10,000 809
oven 809
GO 809
neighbors 809
subordin@@ 808
Rad@@ 808
dismantling 808
gle 808
institutes 808
Phot@@ 808
Managing 808
occupational 808
Berlusconi 808
anding 808
accesses 808
Cubase 808
odds 807
allocate 807
san 807
signat@@ 807
stimul@@ 807
bes@@ 807
tired 807
adhe@@ 807
kne@@ 807
part@@ 807
Ly@@ 807
phi@@ 807
ě@@ 807
optimism 806
simpli@@ 806
anticipate 806
sson 806
Ful@@ 806
egoti@@ 806
powder 806
chas@@ 806
hop 806
cellar 806
FREE 806
manship 805
dentally 805
drop@@ 805
laundering 805
sister 805
reck@@ 805
neglected 805
unchanged 805
tag@@ 805
chron@@ 805
lov@@ 805
demo 805
deepening 804
strengthens 804
disproportionate 804
sof@@ 804
aters 804
RAM 804
ratings 803
ender 803
nationalist 803
thei@@ 803
confrontation 803
discre@@ 803
mies 803
rant 803
seam@@ 803
nowhere 802
ush@@ 802
Sir 802
Peru 802
copy@@ 802
Alber@@ 802
itiner@@ 802
abide 801
lea@@ 801
desperate 801
imprisoned 801
Cairo 801
ough 801
paraly@@ 801
12th 801
TION 801
drastic 800
Ecofin 800
incapable 800
forti@@ 800
Jacuzzi 800
objection 799
approving 799
enthusiasts 799
p.@@ 799
forge 799
aph@@ 799
Mak@@ 799
Upper 799
outlin@@ 798
Bed@@ 798
dou@@ 798
precondition 798
patented 798
venues 798
bei 798
HD@@ 798
ret 798
Collection 798
Meg@@ 798
Tools 798
Gold@@ 798
Photo 798
Directorate 797
awaits 797
eleven 797
Chernobyl 797
seriousness 797
Companies 797
multilingual 797
aboard 797
Eurex 797
renovation 796
infringements 796
beg@@ 796
packing 796
lucky 796
Try 796
delic@@ 796
writes 796
ever@@ 796
cio 796
Cala 796
enligh@@ 795
thematic 795
disturbing 795
pet@@ 795
illustrate 795
beliefs 795
mali@@ 795
derogation 795
priced 795
cave 795
Aires 795
Kin@@ 795
yacht 795
strasse 795
intolerable 794
Chapter 794
organisational 794
mobilisation 794
holy 794
trucks 794
edges 794
Andreas 794
shoe 794
php 794
LAN@@ 794
sentenced 793
Aid 793
pron@@ 793
stup@@ 793
agen@@ 793
revise 793
acies 793
idyllic 793
1984 793
Buenos 793
sat 793
switching 793
Hill 793
enrich@@ 792
champion 792
gher 792
chant 792
deple@@ 792
steadily 792
celebrations 792
Championship 792
68@@ 792
Conservative 791
Others 791
reas@@ 791
Cav@@ 791
Gran@@ 791
immune 791
curious 791
assy 791
breath 791
Hum@@ 791
Techn@@ 791
Near 791
feld 791
oping 791
Kit@@ 791
attributes 791
anna 791
Frattini 791
SSL 791
hypocrisy 790
Maritime 790
rally 790
atro@@ 790
Limited 790
rus 790
carriage 790
tori@@ 790
pipe 790
os@@ 790
blend 790
precarious 789
consequ@@ 789
mortality 789
tch 789
logos 789
CIA 789
combinations 789
zi 789
FS 789
turally 788
judgement 788
Shar@@ 788
Van@@ 788
Perspective 788
Recent 788
coloured 788
offence 788
depression 788
impor@@ 788
Bell@@ 788
radically 787
gues 787
conformity 787
gates 787
prisons 787
vil 787
J. 787
Lanzarote 787
Gam@@ 787
Consulting 787
Premier 786
inventory 786
worn 786
metre 786
creatures 786
religions 786
Abu 786
encrypted 786
declining 786
SMS 786
ima@@ 786
ALL 786
challenged 785
pit 785
reminds 785
lean 785
tancy 785
MD@@ 785
Lei@@ 785
Laeken 785
scenic 785
understand@@ 784
evalu@@ 784
unsatisfactory 784
frustr@@ 784
peninsula 784
remuneration 784
realm 784
horny 784
consuming 783
liter@@ 783
ration@@ 783
thrust 783
discrepan@@ 783
notable 783
0.5 783
brothers 783
Basic 783
Fat@@ 783
Winter 783
font 783
beginners 783
YOU 783
worsen@@ 782
communicated 782
disadvantages 782
Sit@@ 782
peculi@@ 782
ored 782
fishery 782
ket 782
loose 781
accu@@ 781
populist 781
winds 780
engaging 780
stock@@ 780
young@@ 780
copied 780
els@@ 780
tabling 779
benefiting 779
comprehen@@ 779
Water@@ 779
reflec@@ 779
clearing 779
rability 779
loyalty 779
juice 779
MM@@ 779
pixels 779
exercising 778
thou@@ 778
inate 778
vens 778
ho 778
Sahara 778
Yugoslav 778
isons 778
mari@@ 778
tee 777
warnings 777
sym@@ 777
Property 777
ampli@@ 777
honey 777
emails 777
bedding 777
RES@@ 777
FAQ 777
eman@@ 776
habits 776
alysts 776
nominated 776
urity 776
calculate 776
truck 776
recei@@ 776
iner 776
conductor 776
snack 776
terri@@ 775
reassure 775
Journal 775
xing 775
oling 775
deposi@@ 775
lis 775
bration 775
odi@@ 774
grasp 774
profitability 774
inciner@@ 774
1960 774
Speed 774
Prices 774
0.0 774
asi 774
brochure 774
was@@ 774
IO 774
gesture 773
Paragraph 773
devast@@ 773
Pierre 773
Rus@@ 773
refin@@ 773
ICE 773
glance 773
scape 773
woo@@ 773
you@@ 773
Love 773
Lido 773
completeness 773
Euros 773
boosting 772
impacts 772
abstain 772
envel@@ 772
dissemin@@ 772
innov@@ 772
depar@@ 772
petitions 772
Hau@@ 772
excav@@ 772
junior 772
enth@@ 772
ATA 772
С 772
exemptions 771
weakening 771
gestion 771
violate 771
Commun@@ 771
embo@@ 771
accum@@ 771
coa 771
Mary 771
frequ@@ 771
ý 771
obli@@ 770
milestone 770
spar@@ 770
lesser 770
wasted 770
onder@@ 770
Equality 770
aired 770
racist 770
observer 770
boy@@ 770
dot@@ 770
retreat 770
shoot 770
counters 770
rier 770
ind@@ 770
4,@@ 770
sie 770
biking 770
swim 769
builds 769
distingu@@ 769
attack@@ 769
Bak@@ 769
ja@@ 769
hybrid 769
GM@@ 769
millennium 768
Jackson 768
famili@@ 768
extensions 768
monument 768
accredi@@ 768
kin 768
idity 768
L. 768
Cube 768
kitchenette 768
informations 768
menting 767
ake 767
Personally 767
otic 767
ika 767
jer@@ 767
neck 767
slope 767
frameworks 766
worries 766
restricting 766
explosion 766
cluster 766
Itali@@ 766
guest@@ 766
redundancies 765
overlook 765
celebrating 765
corners 765
foo@@ 765
assembled 765
gic 765
grass@@ 765
royal 765
Self 765
0.000 765
vot@@ 764
ailing 764
dedication 764
buyers 764
atically 764
IK@@ 764
relocation 764
tastes 764
sar@@ 764
preview 764
d.@@ 764
Tool 764
xx 764
analysed 763
Ps 763
steering 763
Dun@@ 763
fresh@@ 763
brush 763
iger 763
striving 763
cription 763
deduc@@ 763
tioners 763
amo 763
Poly@@ 763
Stay 763
Wales 762
forgetting 762
rests 762
haul 762
INTER@@ 762
ager 762
associate 762
invented 762
Senate 762
Anna 762
targeting 762
complain 762
Fun@@ 762
tif 762
composer 762
architec@@ 762
orts 761
peripher@@ 761
ECHO 761
liberties 761
cham@@ 761
sul@@ 761
expan@@ 761
Run@@ 761
tuals 761
Juan 761
Inst@@ 761
Magic 761
endeav@@ 760
grip 760
Oil 760
compile 760
Sici@@ 760
acre 760
2.2 760
Beauty 760
ilers 760
VER@@ 760
En 760
bor 760
ITY 760
allowances 759
transmit 759
seize 759
extraction 759
culmin@@ 759
tural 759
castles 759
Hy@@ 759
Sul@@ 759
Stu@@ 759
Son@@ 759
Customers 759
sky@@ 759
analyze 759
ignor@@ 758
assisting 758
monitors 758
Ethiopia 758
fru@@ 758
empt 758
distri@@ 758
Belar@@ 758
Kol@@ 758
recogni@@ 758
LateRooms 758
Store 758
illustrated 757
supranational 757
Nobody 757
disregard 757
tail 757
exhaust 757
durable 757
ped@@ 757
cone 757
bree@@ 757
vors 757
prescri@@ 756
balances 756
breakdown 756
lamps 756
geographic 756
atoes 756
lun@@ 756
lingu@@ 756
curi@@ 756
Pit@@ 756
wan 755
arest 755
Sustainable 755
arch 755
performs 755
cam 755
vigilant 754
contaminated 754
similarly 754
imbalance 754
sos 754
recipe 754
employs 754
TB 754
Var@@ 754
advisable 753
1967 753
Gol@@ 753
crats 753
cens@@ 753
beverages 753
Clo@@ 753
cocktails 753
veri@@ 752
volunteers 752
aric 752
tali@@ 752
strain 752
tournaments 752
cz@@ 752
welding 752
aids 751
touches 751
pin@@ 751
EURO@@ 751
Avi@@ 751
bon 751
unk 751
aforementioned 751
ecting 751
Mercedes 751
couldn 751
viability 750
spheres 750
sponsored 750
depri@@ 750
reminder 750
assign 750
has@@ 750
climb 750
roll@@ 750
mortgage 750
11th 750
assert 749
Watson 749
scour@@ 749
bollah 749
towers 749
beta 749
Kam@@ 749
Sz@@ 749
cookie 749
utterly 748
Barnier 748
disgu@@ 748
Tourist 748
Prix 748
Wine 748
sind 748
Regulations 747
arose 747
lug@@ 747
compression 747
pp 747
Erika 746
Mess@@ 746
upgrading 746
misuse 746
emin@@ 746
aments 746
yourselves 746
1978 746
Leg@@ 746
emer@@ 746
Emer@@ 746
Gy@@ 746
workable 745
proceeding 745
eag@@ 745
galax@@ 745
liqui@@ 745
196 745
sacred 745
enjoyment 745
receiver 745
Jer@@ 745
zur 745
ject 744
vy 744
stres@@ 744
..... 744
complying 744
auer 744
heaven 744
Sus@@ 744
casts 744
1975 744
rape 744
stuck 744
egg 744
ges@@ 744
Print 744
inflic@@ 743
cial 743
crowd 743
PCs 743
Orchestra 743
partitions 743
rentals 743
attaches 742
tting 742
1950 742
iser 742
Ji@@ 742
Course 742
ION 742
templates 742
brake 741
seventh 741
disclosure 741
farmer 741
oppression 741
stopping 741
1.1 741
fec@@ 741
urable 741
beginn@@ 741
hit@@ 741
interviews 741
OP@@ 741
fen 741
Excel 741
AKVIS 741
Reader 741
sid 741
Alternatively 740
inquiries 740
apo@@ 740
Turning 740
readiness 740
nominal 740
vous 740
Often 740
eira 740
disrup@@ 740
associ@@ 740
valuation 740
creditors 740
grapes 740
mir 740
plant@@ 740
Mass@@ 740
compressed 740
IF 740
Outlook 740
shifting 739
observ@@ 739
bombs 739
bubble 739
selective 739
rain@@ 739
epidemic 739
injuries 739
Cape 739
Klaus 739
Active 739
fixes 739
tastefully 739
emphasized 739
sail 738
perpetrators 738
attendance 738
reconc@@ 738
traded 738
mir@@ 738
inters 738
Major 738
Azerbaijan 738
summits 738
iles 738
rative 738
crafts 738
cann@@ 738
az 738
coat 738
Swoboda 737
cofinancing 737
plying 737
Overall 737
laun@@ 737
leng@@ 737
pocket 737
senses 737
slogan 737
femin@@ 737
ken@@ 737
cture 736
Bolkestein 736
child@@ 736
precau@@ 736
upgraded 736
geni@@ 736
disorders 736
fa 736
35@@ 736
esti@@ 736
memorable 736
Bali 736
authorization 736
sacrific@@ 735
formulate 735
Leonardo 735
panic 735
opponent 735
appliances 735
injustice 735
eph@@ 735
discovering 735
Fab@@ 735
kas@@ 735
Cash 735
massages 735
focal 734
spokes@@ 734
assurances 734
entrusted 734
Kre@@ 734
accusations 734
correctness 734
schi@@ 734
paramount 734
archaeological 734
ishment 734
aggregate 734
consi@@ 734
Channel 734
bankruptcy 734
8th 734
&apos;E@@ 734
buff@@ 734
vivi@@ 733
precedence 733
occupying 733
underlines 733
cheap@@ 733
dio@@ 733
exhau@@ 733
Viol@@ 733
edy 733
5,000 733
betting 733
ceramic 733
UPS 733
cozy 733
protectionist 732
totalitarian 732
forwarded 732
Platform 732
Mercosur 732
Pope 732
gas@@ 732
bra 732
uranium 731
communic@@ 731
comparative 731
rough 731
clou@@ 731
spatial 731
zen@@ 731
showers 731
mistaken 730
ety 730
3000 730
vaccination 730
hub 730
Att@@ 730
illnesses 730
basi@@ 730
Panel 730
Alpha 730
Name 730
Create 730
prohibition 729
mainstream 729
consumed 729
iel@@ 729
mare 729
Republi@@ 729
Tob@@ 728
restraint 728
cake 728
accelerated 728
eval 728
unrealistic 728
aggression 728
borrowing 728
terminals 728
umes 728
ston 728
Sciences 728
Avenue 728
stepping 727
watch@@ 727
mask 727
Rwand@@ 727
laboratories 727
CC@@ 727
Fire 727
Musi@@ 727
6,@@ 727
shipped 726
derogations 726
appeals 726
discourse 726
condemning 726
palm 726
Adam 726
tox@@ 726
Pil@@ 726
sunshine 726
gene 726
queu@@ 726
Night 726
platz 726
corporation 725
illustrates 725
Soci@@ 725
chem@@ 725
horizon 725
drama 725
Algarve 725
invention 725
Every@@ 725
atis@@ 725
volunte@@ 725
Exclu@@ 725
singing 725
Georgian 725
п@@ 725
,00 725
Mid@@ 724
dless 724
Bavarian 724
retailers 724
berry 724
Send 724
dead@@ 723
tar 723
Independent 723
appointments 723
Cham@@ 723
impul@@ 723
simplicity 723
Sky@@ 723
deficiencies 722
tended 722
DF 722
opted 722
preferential 722
cry 722
surprisingly 722
Design@@ 722
Victoria 722
representations 721
dation 721
interpre@@ 721
emble 721
ça 721
cha@@ 721
dynamism 721
Cs 721
ancest@@ 721
low@@ 721
loop 721
adjustable 721
Kim 721
travel@@ 721
disagreement 720
seemingly 720
perform@@ 720
impunity 720
depend@@ 720
recipes 720
informative 720
assortment 720
Tor 720
suspi@@ 719
aca 719
repressive 719
amper 719
appreci@@ 719
kindly 719
incomprehensible 719
overwhel@@ 719
ih@@ 719
Us 719
Deep 719
folders 719
Maison 719
д@@ 719
Tuscan 719
proving 718
professor 718
anxiety 718
Collec@@ 718
Low 718
inu@@ 718
kat@@ 718
ento 718
Venetian 718
DL@@ 718
Starfleet 718
odic 717
umbrella 717
symboli@@ 717
teen@@ 717
take@@ 717
warmth 717
commemor@@ 717
sey 717
onn@@ 717
fixing 716
tained 716
disclose 716
reciproc@@ 716
cereals 716
journeys 716
visi@@ 716
Seventh 716
politan 716
Fur@@ 716
browsing 716
allowance 715
feeds 715
emo@@ 715
risky 715
scrip@@ 715
Vladimir 715
Typ@@ 715
seasons 715
True 715
Australian 715
Manhattan 715
demon@@ 714
controversy 714
veterinary 714
speedy 714
promotions 714
bankers 714
dancing 714
gy 714
36@@ 714
Belgrade 714
Granada 714
trap 714
etta 714
ova 714
cryp@@ 714
commerci@@ 714
Tat@@ 714
agne 713
wrong@@ 713
ear 713
terminate 713
ICT 713
pipes 713
Baden 713
ción 713
tum@@ 713
PS@@ 713
publisher 713
bass 713
proxy 713
balconies 713
straße 713
Too 712
sighted 712
harvest 712
asion 712
editorial 712
hero@@ 712
shocks 712
prim@@ 712
ade@@ 712
scanner 712
lowering 711
appro@@ 711
loop@@ 711
overcoming 711
marvellous 711
airspace 711
prompted 711
MAR@@ 711
cited 711
span 711
issu@@ 711
DH@@ 711
Vis@@ 711
Solar 711
Republican 711
deliberations 710
fulfilment 710
tax@@ 710
mercy 710
pilgri@@ 710
eful 710
denial 710
café 710
vern@@ 710
anton 710
decor 710
disman@@ 709
testi@@ 709
preci@@ 709
reactors 709
unresolved 709
disciplines 709
cers 709
declined 709
astronom@@ 709
Lic@@ 709
motors 709
nik 709
BE 709
jects 708
floating 708
dissemination 708
literary 708
spirits 708
Cel@@ 708
ï@@ 708
faithful 708
Aviation 708
resses 708
Christ@@ 708
station@@ 707
regain 707
Beh@@ 707
planted 707
Produc@@ 707
describing 707
chy 707
infections 707
Ama@@ 707
alog@@ 707
aga 707
cod 707
Consul@@ 707
ported 707
specialties 707
FO@@ 706
pled 706
basket 706
Cotonou 706
Tyrolean 706
.000 706
BM@@ 706
passwords 706
FTP 706
entrepreneurship 705
Jon@@ 705
tactics 705
wned 705
cleaner 705
Wolfgang 705
Vision 705
weekends 705
Log@@ 705
MAN@@ 705
vised 704
rush 704
Agricultural 704
extrem@@ 704
pression 704
And@@ 704
gene@@ 704
Partners 704
Points 704
zip 704
manoeuvre 703
dging 703
Oli@@ 703
particles 703
oxi@@ 703
bou@@ 703
Frank 703
Editor 703
ML 703
climatic 702
este@@ 702
ø@@ 702
rewards 702
dubious 702
iz 702
dirty 702
esse 702
pockets 702
simultaneous 702
inal 702
ér@@ 702
ans@@ 702
handy 702
ebook 702
wick@@ 701
assent 701
radic@@ 701
assistants 701
illum@@ 701
graduate 701
Making 701
Top@@ 701
Tab@@ 701
ARE 701
Majorca 701
attain 700
rance 700
communism 700
ras@@ 700
conceivable 700
strust 700
occupy 700
sulph@@ 700
tes@@ 700
sponsor@@ 700
Dre@@ 700
modernization 700
Bluetooth 700
enlar@@ 699
decommission@@ 699
Gothenburg 699
view@@ 699
extremists 699
Americ@@ 699
twi@@ 699
000@@ 699
photographic 699
Deutschland 699
volcanic 699
compress@@ 699
approached 698
provo@@ 698
Easter 698
hair@@ 698
narro@@ 698
actu@@ 698
Base 698
Hz 698
neighbor@@ 698
fairer 697
guardian 697
trusted 697
gay 697
controllers 697
bills 697
mili@@ 697
practise 697
peer 697
additionally 697
Person@@ 697
hike 697
Officer 697
Red@@ 696
rendering 696
lectures 696
Better 696
recovered 696
cils 696
intact 696
repository 696
predicted 696
lie@@ 696
Fel@@ 696
2.1 696
missile 696
quiet@@ 696
Classi@@ 696
CH 696
flexi@@ 695
1982 695
1976 695
Tom 695
physically 695
iners 695
TEN@@ 695
mobilise 695
photograph 695
lends 695
ase@@ 695
mond 695
advertisements 695
genes 695
aly@@ 695
org@@ 695
Soft 695
Men 694
Lama 694
applaud 694
Presiden@@ 694
intoler@@ 694
rings 694
ulsion 694
spiral 694
repeti@@ 694
WHO 694
ren 694
etal 694
planes 694
rt 694
obsolete 694
IA@@ 694
Vor@@ 694
porting 693
stepped 693
applause 693
vitally 693
Keep 693
exempt 693
energe@@ 693
Ten 693
recipients 693
tories 693
vaccines 693
Ce@@ 693
amen@@ 693
Johannesburg 693
omas 693
witnessing 692
honoured 692
pav@@ 692
catches 692
1960s 692
Pau@@ 692
legs 692
essi@@ 692
tter 692
interiors 692
Lanka 691
corro@@ 691
accord 691
evolved 691
volatility 691
infring@@ 691
dictator 691
B. 691
cosmetics 691
crossed 691
Stri@@ 691
feit 691
FF@@ 691
TE@@ 691
Son 691
GT@@ 691
vente 691
Submitted 691
Ast@@ 690
tant 690
doctrine 690
doubled 690
duplication 690
aker 690
fest@@ 690
Economy 690
activation 690
zzle 690
Province 690
Camp 690
sto 690
Km 690
ст@@ 690
Groups 689
intervals 689
Uz@@ 689
leap 689
Pop@@ 689
ld 689
90@@ 689
Terminal 689
organizational 689
Marbella 689
Parking 689
YORK 689
Poettering 688
inspire 688
differs 688
displaying 688
Remember 688
streams 688
Former 688
Head@@ 688
Patent 688
athletes 688
borro@@ 688
alla 688
Lamanites 688
supplemented 687
acknowledges 687
ridiculous 687
lessness 687
assignment 687
urely 687
elaborate 687
prov@@ 687
arguing 687
degra@@ 687
Pir@@ 687
hits 687
growers 687
diagno@@ 687
Bay@@ 687
stairs 687
guys 687
useless 686
summar@@ 686
staff@@ 686
hanging 686
bies 686
dose 686
cled 686
ete 686
wich 686
polls 686
maternity 686
accompli@@ 686
70@@ 686
BL@@ 686
browse 686
Hav@@ 685
anxious 685
censure 685
Associ@@ 685
ignoring 685
Intel@@ 685
Fine 685
goodwill 685
cultivated 685
ander 685
privately 685
Temple 685
nach 685
travelers 685
omis@@ 684
forty 684
effec@@ 684
percep@@ 684
hearings 684
pornography 684
solvency 684
statistic 684
Six 684
responsibly 684
pitch 684
implied 684
EE@@ 684
rays 684
scandalous 683
Frank@@ 683
gely 683
extremism 683
provinces 683
disputed 683
glory 683
brave 683
conflic@@ 683
midnight 683
Der@@ 683
green@@ 683
gan 683
fabri@@ 683
photographers 683
т@@ 683
Lower 682
attri@@ 682
stamp 682
incorporation 682
coexistence 682
ideals 682
mati@@ 682
Money 682
Boo@@ 682
tubes 682
unspo@@ 682
charts 682
thickness 682
Oracle 682
Visual 682
Mozilla 682
saves 681
fragmentation 681
ree 681
Ry@@ 681
Mun@@ 681
thee 681
sqm 681
municipalities 680
dus 680
merger 680
proportions 680
endeavours 680
stric@@ 680
nineteenth 680
CFP 680
add@@ 680
cycli@@ 680
workflow 680
Euratom 679
eradication 679
easing 679
Trans 679
atorial 679
Boli@@ 679
Awards 679
Tech 679
Free@@ 679
TER@@ 679
а@@ 679
No. 678
han 678
strings 678
kil@@ 678
custo@@ 678
Armenia 678
puri@@ 678
Ten@@ 678
revel@@ 678
Philippines 678
shirt 678
thic 678
directories 678
sq@@ 678
adidas 678
Radi@@ 677
urban@@ 677
Bremen 677
resu@@ 677
arrogan@@ 677
relies 677
institution@@ 677
contractors 677
adi 677
Sau@@ 677
I.@@ 677
backwards 676
intensify 676
distributing 676
swing 676
1983 676
authentic@@ 676
orship 676
adapter 676
Conservatives 675
Generally 675
proportionality 675
avoidable 675
bey 675
Succ@@ 675
secrecy 675
Ages 675
1.3 675
presses 675
Share 675
Qui@@ 675
ING@@ 675
revitali@@ 674
Vall@@ 674
TA@@ 674
nut 674
olls 674
after@@ 674
passionate 674
lac@@ 674
Som@@ 674
128 674
atar 674
Ent@@ 674
clinic 674
machining 674
Newsletter 674
scru@@ 673
sures 673
enormously 673
mono@@ 673
Franz 673
tices 673
chap@@ 673
insulation 673
mirrors 673
Bei@@ 673
plasma 673
ourcing 672
hostile 672
counterfeiting 672
Siena 672
ats@@ 672
internation@@ 672
Trading 672
helicopter 672
Movement 672
gun 672
Histor@@ 672
theatres 672
zum 672
neighborhood 672
repa@@ 671
dozen 671
cryst@@ 671
shelter 671
ulty 671
weg 671
Superior 671
referendums 671
Lun@@ 671
Café 671
Recomm@@ 670
slip 670
PVC 670
deeds 670
tely 670
neglect 670
illusion 670
unsustainable 670
Knowledge 670
Essen 670
excursion 670
brochures 670
Rol@@ 670
ku 670
Arrival 670
Guaran@@ 669
bitter 669
compounds 669
overlooked 669
bap@@ 669
pole 669
ulations 669
kidn@@ 669
contradictions 669
Natura 669
Nat@@ 669
meas@@ 669
predominantly 669
eu 669
systemic 669
But@@ 669
hedge 668
Progress 668
cables 668
spectac@@ 668
Andalu@@ 668
realism 668
unter@@ 668
allo 668
Number 668
mix@@ 668
reign 667
inspec@@ 667
nose 667
extensively 667
nai@@ 667
invisible 667
delines 667
facilitates 667
Let@@ 667
tico 667
sequences 667
fired 667
moist@@ 667
Cru@@ 667
Sard@@ 667
Canal 667
0,@@ 667
NOR@@ 667
cornerstone 666
restra@@ 666
timet@@ 666
legislators 666
succe@@ 666
pubs 666
ition 666
shire 666
Important 666
24th 666
142 666
Coordin@@ 666
graph@@ 666
bans 666
cinem@@ 666
legend 666
mins 666
attacking 665
assistant 665
unders 665
slow@@ 665
accomplish 665
gencies 665
roman@@ 665
Castell@@ 665
USE 665
refuses 664
Never 664
chann@@ 664
defeated 664
Marine 664
ured 664
Blan@@ 664
Karel 664
lamp 664
inn 664
allet 664
marina 664
chie@@ 663
persist 663
destined 663
belts 663
Fifth 663
aculture 663
Swi@@ 663
Chicago 663
capitali@@ 663
C6 663
rad 663
ACE 663
printers 663
boutiques 663
Text 663
robot 663
pdf 663
aton 662
170 662
resur@@ 662
immigrant 662
het 662
storing 662
incorporates 662
cast@@ 662
diagra@@ 662
fon@@ 662
UM 662
CPU 662
repeating 661
logging 661
wheel@@ 661
Serbs 661
democrats 661
fatal 661
alcoholic 661
asymm@@ 661
beam 661
1968 661
Ben 661
olo 661
ovi@@ 661
locals 661
1930 661
analog 661
з@@ 661
ı@@ 661
efully 660
abor@@ 660
replied 660
unci@@ 660
ophi@@ 660
card@@ 660
Refu@@ 660
excise 660
waiver 660
Tax 660
Verona 660
Tony 660
ü@@ 660
UV 660
м@@ 660
upheld 659
gements 659
heart@@ 659
Performance 659
safeguarded 659
rede@@ 659
nt 659
Sat@@ 659
dic 659
diagnostic 659
Visa 659
tasting 659
Either 658
viewpoint 658
pronounced 658
provisional 658
atta@@ 658
integr@@ 658
lobby@@ 658
fiction 658
winding 658
terminology 658
harv@@ 658
Pakist@@ 658
ign 658
Pass 658
fibre 658
Virtual 658
best@@ 658
newer 658
DJ 658
catastrophic 657
undermines 657
fortune 657
hierarchy 657
wil@@ 657
benchmark 657
banner 657
pollut@@ 657
acious 657
Sakharov 657
odd 657
protec@@ 657
caves 657
brut@@ 657
processors 657
Gl@@ 657
Ash@@ 657
Electronic 657
Palazzo 657
ń@@ 657
adjour@@ 656
Tau@@ 656
tative 656
mainland 656
interpreters 656
prescribed 656
stim@@ 656
Workers 656
versal 656
categor@@ 656
1973 656
keywords 656
ña 656
acoustic 656
relying 655
coff@@ 655
outdated 655
bud@@ 655
frustration 655
agers 655
versa 655
SPA 655
physics 655
semi@@ 655
hate 655
bell 655
recognizes 655
microph@@ 655
dice 655
za@@ 655
Ideal 655
Edit 655
username 655
Entertainment 655
english 655
renew 654
rejects 654
lag 654
infra@@ 654
Equal 654
apparatus 654
Posselt 654
Auto 654
SV@@ 654
Fire@@ 654
Certi@@ 654
treasures 654
Sant@@ 654
undergoing 653
apologise 653
allegations 653
jeopardis@@ 653
antibiotics 653
pregnant 653
13.@@ 653
irrit@@ 653
addic@@ 653
dden 653
BE@@ 653
arc@@ 653
UT 653
traveling 653
Rimini 653
juris@@ 652
imminent 652
reciprocity 652
Early 652
Sum@@ 652
surpluses 652
Edi@@ 652
yn 652
unk@@ 652
Clar@@ 652
bottles 652
brethren 652
civilization 652
bour@@ 651
frigh@@ 651
legality 651
Lor@@ 651
fix@@ 651
reviewing 651
wholesale 651
bered 651
IE 651
disorder 651
manus@@ 651
gi 651
cz 651
Photo@@ 651
patio 651
ghtful 650
forcement 650
ament@@ 650
emerges 650
tops 650
orities 650
Monte@@ 650
gin 650
ache 650
sail@@ 650
Bangladesh 650
conv@@ 650
dition 650
sounding 649
maturity 649
beforehand 649
prerog@@ 649
PR 649
aftermath 649
Moroccan 649
Sto@@ 649
Somalia 649
Doctor 649
unbe@@ 649
Lodge 649
éri@@ 649
ather 649
Zu@@ 649
Made 649
incidentally 648
coordinator 648
undeni@@ 648
lics 648
gru@@ 648
dele@@ 648
distorted 648
eager 648
iev@@ 648
Vir@@ 648
Fischer 648
zers 648
Cont@@ 648
inia 648
â 648
Om@@ 648
standardisation 647
protagon@@ 647
think@@ 647
laim 647
orchest@@ 647
infec@@ 647
quanti@@ 647
edo 647
Events 647
recover@@ 647
Ran@@ 647
elem@@ 647
slavery 647
bet@@ 647
beneath 647
exceeding 647
Translation 647
talented 647
Colom@@ 647
prote@@ 647
parish 647
guy 647
Mini 647
tera 647
Champ@@ 646
rulers 646
vei@@ 646
ecosystems 646
cultiv@@ 646
analysing 646
5.00 646
formulation 646
quer@@ 646
overlooks 646
advent@@ 646
dio 646
wald 646
Quartet 646
dread@@ 645
desperately 645
entrepreneurial 645
decreased 645
1.4 645
interpreting 645
loyal 645
eradicate 645
abri@@ 645
loses 645
ISA 645
battle@@ 645
tent 645
Tak@@ 645
slots 645
loung@@ 645
cca 645
temptation 644
undergo 644
mind@@ 644
collapsed 644
deploy 644
concerted 644
Bab@@ 644
perio@@ 644
T. 644
alties 644
parall@@ 644
bear@@ 644
mathemati@@ 644
balls 644
scal@@ 644
Facebook 644
vigorously 643
get@@ 643
interpretations 643
Mei@@ 643
publishers 643
advertisement 643
Carlos 643
enni@@ 643
hero 643
ographic 643
tsch@@ 643
cafes 643
Sty@@ 643
TU@@ 643
musi@@ 643
sarge 643
alleviate 642
missible 642
consolidating 642
afflic@@ 642
spin 642
expectation 642
conten@@ 642
125 642
bombing 642
ander@@ 642
yearly 642
differ@@ 642
Petersburg 642
Bec@@ 642
mos@@ 642
hausen 642
Ltd. 642
afford@@ 641
umin@@ 641
adequ@@ 641
thumb 641
march 641
220 641
kt@@ 641
22@@ 641
sert 641
yields 641
Identi@@ 641
consecutive 641
extradition 641
Maj@@ 641
orchestra 641
Iron 641
Leh@@ 641
DVDs 641
FL@@ 641
Event 641
izes 641
Gardens 641
IRC 641
retaining 640
Roth 640
impressions 640
bureau@@ 640
los@@ 640
imprisonment 640
emia 640
treas@@ 639
harmonising 639
taxpayer 639
Sixth 639
critically 639
pir@@ 639
bying 639
cated 639
questioned 639
investigating 639
Stre@@ 639
bab@@ 639
Gil@@ 639
ationary 639
Benjamin 639
exterior 639
Castro 638
Greater 638
oted 638
shame@@ 638
inhabited 638
subsidi@@ 638
erable 638
fundamentalism 638
cruise 638
verti@@ 638
cha 638
2,000 638
alig@@ 638
Emb@@ 638
Sharon 638
slides 638
repairs 637
sorted 637
administered 637
honesty 637
preval@@ 637
acking 637
Unit 637
butter 637
Govern@@ 637
tist 637
PP 637
Brun@@ 637
wid@@ 637
UR 637
HOTEL 637
lasted 636
richest 636
richer 636
VI@@ 636
I. 636
veness 636
cart 636
Numerous 636
contexts 636
county 636
secretariat 636
maj@@ 636
redress 636
homeland 636
numer@@ 636
yar@@ 636
2.4 636
variant 636
Municip@@ 636
ef 636
ark 636
Angeles 636
wen@@ 636
ml 636
tutorial 636
browsers 636
assing 635
migratory 635
Henry 635
tention 635
Nich@@ 635
circu@@ 635
coupling 635
rides 635
Que@@ 635
Volkswagen 635
ATE 635
Desktop 635
н@@ 635
fertile 634
Certain 634
Total 634
mainstreaming 634
stre@@ 634
favou@@ 634
open@@ 634
awak@@ 634
abundance 634
flooding 634
Impro@@ 634
Living 634
Cul@@ 634
1981 634
arom@@ 634
wi 634
converting 634
ota 634
aka 634
Canaria 634
CAN 634
elabor@@ 633
lem@@ 633
freeze 633
dam 633
dischar@@ 633
lasts 633
suppose 633
MI@@ 633
MEDA 633
Stat@@ 633
Armen@@ 633
Emperor 633
avia 633
searches 633
flowing 633
Dubai 633
debut 633
speculative 632
enty 632
entit@@ 632
rotation 632
sponsors 632
tom 632
liberalism 632
essly 632
pos 632
arance 632
squares 632
committing 632
î@@ 632
slaugh@@ 632
tale 632
distributor 632
Strategi@@ 632
RT@@ 632
Model 632
aler 632
Plas@@ 632
Camping 632
admissible 631
reconsider 631
fortunately 631
Galicia 631
lane 631
condu@@ 631
commun@@ 631
Approval 631
byp@@ 631
bury 631
squee@@ 631
negli@@ 631
Conver@@ 631
Lum@@ 631
Buil@@ 631
chemistry 631
Stan@@ 631
Buy 631
Behold 631
supplements 630
certainties 630
offen@@ 630
imagin@@ 630
assuring 630
fluid 630
interfer@@ 630
milli@@ 630
kes@@ 630
wheat 630
constructions 630
ASA 630
housed 630
Ethernet 630
strategically 629
argues 629
meanwhile 629
harassment 629
industrialised 629
solic@@ 629
amounting 629
conform 629
destiny 629
fled 629
Saharan 629
marketplace 629
divor@@ 629
Prop@@ 629
mont 629
zer@@ 629
Creative 629
Guantánamo 629
lish 628
pledge 628
manufactures 628
tract 628
observing 628
Crete 628
adventures 628
Burmese 628
brick 628
Airways 628
Estate 628
annex 627
Ultimately 627
Kh@@ 627
responds 627
dows 627
toy 627
illed 627
Whereas 627
generator 627
CP@@ 627
Manufac@@ 627
translator 627
7,@@ 627
tsun@@ 627
ju 627
Messenger 627
Color 627
transposed 626
logi@@ 626
Kazakhstan 626
complies 626
bizarre 626
à@@ 626
EDF 626
absorb 626
Telec@@ 626
outlets 626
detained 626
ozone 626
Commercial 626
vendors 626
Automatic 626
Converter 626
frank 625
reluctant 625
Councils 625
quicker 625
ebo@@ 625
yen 625
Mou@@ 625
Was 625
Mayor 625
smuggling 625
earning 625
handles 625
neuro@@ 625
stadium 625
riders 625
ANY 625
blat@@ 624
shoul@@ 624
crazy 624
populi@@ 624
lady 624
ener 624
servant 624
priv@@ 624
battles 624
constituted 624
icing 624
dividing 624
gravity 624
technicians 624
leg 624
Sti@@ 624
Link 624
NA 624
PXI 624
uphol@@ 623
standardis@@ 623
andum 623
drought 623
motives 623
ann 623
flag@@ 623
NT 623
Lady 623
pregnancy 623
theories 623
iel 623
Shuttle 623
tivirus 623
advocating 622
transp@@ 622
norm 622
proclaimed 622
suffers 622
racial 622
converter 622
testimony 622
identities 622
mighty 622
Category 622
otypes 622
1974 622
Occ@@ 622
dial@@ 622
Walter 622
Dev@@ 622
Mann 622
utilization 622
ovo 622
PCI 622
presidents 621
mergers 621
Treasury 621
FP@@ 621
apologi@@ 621
marginal 621
inspiring 621
trig@@ 621
aps 621
ghs 621
absorption 621
acquain@@ 621
25th 621
delights 621
Twitter 621
oric 620
transc@@ 620
whis@@ 620
Human@@ 620
democrati@@ 620
Junior 620
Military 620
Norwegian 620
Mario 620
Buch@@ 620
SK@@ 620
TP 620
woody 620
det 620
Tool@@ 620
HTTP 620
aligned 619
feasibility 619
Gener@@ 619
Sadly 619
may@@ 619
secrets 619
misery 619
supportive 619
Vac@@ 619
clin@@ 619
unge@@ 619
Pay@@ 619
Eur@@ 619
migrant 619
excitement 619
COM@@ 619
decisively 618
07@@ 618
rey 618
furnis@@ 618
struction 618
Fourth 618
warehouse 618
aves 618
dically 618
ore@@ 618
Cypriot 618
oman 618
ologi@@ 618
Kan@@ 618
Spi@@ 618
zione 618
WiFi 618
Comfort 618
tide 617
Stor@@ 617
colli@@ 617
propri@@ 617
jar@@ 617
Medina 617
Set@@ 617
hydrogen 617
eins 617
brie@@ 617
gens 617
meadows 617
Yemen 617
Tenerife 617
authentication 617
Innsbruck 617
MIDI 617
mach@@ 616
SR 616
weigh 616
misunderstanding 616
confirming 616
concentrating 616
UEN 616
hosti@@ 616
myst@@ 616
Swe@@ 616
ican 616
payable 616
unwilling 616
inventions 616
lls 616
Malaga 616
Map 616
favor@@ 616
opport@@ 615
cite 615
constructing 615
aspi@@ 615
eventual 615
ila 615
telep@@ 615
Cannes 615
Integration 615
consume 615
cot 615
scanning 615
cas 615
STE@@ 615
Zone 615
Qaeda 615
Princ@@ 615
firewall 615
л@@ 615
ensu@@ 614
streaming 614
switched 614
dominate 614
DO 614
flats 614
travels 614
catching 614
cyc@@ 614
scored 614
spel 614
ado@@ 614
Loc@@ 614
HI 614
skiers 614
underwater 613
fashi@@ 613
downturn 613
extraordinarily 613
bub@@ 613
eternal 613
Bangkok 613
25.@@ 613
2050 613
Invest@@ 613
Scho@@ 613
oo 613
boot@@ 613
fonts 613
shifted 612
command@@ 612
exchanged 612
shocking 612
magnitude 612
bun@@ 612
kings 612
seized 612
enriched 612
originating 612
betra@@ 612
biomass 612
plen@@ 612
OM 612
ris 612
baroque 612
Beautiful 612
Phar@@ 612
Join 612
Terra@@ 612
Silver 612
TER 612
utting 611
equilibrium 611
dense 611
shocked 611
Construction 611
embark 611
Pom@@ 611
conqu@@ 611
inos 611
buried 611
chro@@ 611
Brown 611
Something 611
Mechan@@ 611
imposition 611
Catalan 611
polar 611
Grande 611
swap 611
Visitors 611
Blizzard 611
Essen@@ 610
ug@@ 610
Continental 610
replies 610
focus@@ 610
therhood 610
14.@@ 610
consci@@ 610
estim@@ 610
animated 610
nasty 610
drain 610
Consider 610
Kl@@ 610
surprises 610
slower 610
memb@@ 610
Wher@@ 610
Azur 610
dine 610
ingo 610
SLR 610
orable 609
hall@@ 609
wonders 609
wai@@ 609
rewarded 609
Economics 609
Chirac 609
will@@ 609
Ré@@ 609
aman@@ 609
gnment 609
sortium 609
doc@@ 609
CN@@ 609
anten@@ 609
Secure 609
memor@@ 608
spontane@@ 608
Expl@@ 608
intri@@ 608
simil@@ 608
indu@@ 608
exhi@@ 608
Smart 608
Different 608
addiction 608
tags 608
oph@@ 608
favorable 608
urging 607
blank 607
Gibraltar 607
exploiting 607
mentary 607
Agreements 607
funny 607
ART 607
liabilities 607
Mozart 607
follo@@ 607
gateway 607
enquiry 607
Müller 607
1500 607
Crus@@ 607
Split 607
hell 606
congratul@@ 606
Consumers 606
jud@@ 606
prolonged 606
fluctuations 606
professionally 606
boast 606
Franco 606
Register 606
Manchester 606
cabinet 606
treats 606
hegemon@@ 606
kni@@ 606
cruel 606
prohibit 606
etto 606
ush 606
angel@@ 606
rian 606
governor 606
digi@@ 606
radar 606
arium 606
Players 606
Optim@@ 606
Oxford 606
ault 606
FT 606
kill@@ 605
torate 605
aggrav@@ 605
imple@@ 605
eligibility 605
Arafat 605
landmark 605
fres@@ 605
angered 605
defici@@ 605
reacted 605
Wit@@ 605
Opening 605
hr 605
Nepal 605
PA@@ 605
Combin@@ 605
dell 605
Arc@@ 605
accomodation 605
Hat 605
Seven 604
1977 604
amateur 604
stroke 604
Added 604
racle 604
recomm@@ 604
peacefully 604
ptions 604
Friedrich 604
rol 604
drum 604
Zap@@ 604
deline 603
compromising 603
infan@@ 603
succession 603
licit 603
phra@@ 603
Ambassador 603
tedly 603
theft 603
moun@@ 603
Intro@@ 603
tuberculosis 603
Vin@@ 603
tana 603
Eurocopter 603
Blog 603
abused 602
introduc@@ 602
Spec@@ 602
cyn@@ 602
imperial 602
rail@@ 602
gastronomy 602
situ@@ 602
essen 602
picking 602
Pot@@ 602
laimed 602
addle 602
Files 602
souven@@ 602
entertaining 602
Bahn 602
Sofia 602
LabVIEW 602
Simp@@ 601
aug@@ 601
ball@@ 601
corrections 601
stretches 601
voluntarily 601
capitals 601
denying 601
easiest 601
Albert 601
survived 601
Gaz@@ 601
poultry 601
stling 601
Hen@@ 601
Portal 601
Saf@@ 600
scarcely 600
guards 600
cleared 600
attracts 600
emit@@ 600
ingers 600
Andalusia 600
duplicate 600
casinos 600
Alger@@ 600
dul@@ 600
wag@@ 600
DE@@ 600
exhibits 600
butions 600
pist@@ 600
Memory 600
IND 600
modem 600
Seller 600
inned 599
sponsor 599
questioning 599
graduated 599
projected 599
1.6 599
Tou@@ 599
siveness 599
ego 599
championship 599
oak 599
Yu@@ 599
DM@@ 599
vigorous 598
arran@@ 598
piracy 598
RA 598
vod@@ 598
etz@@ 598
eters 598
Things 598
wilderness 598
Lithu@@ 598
subway 598
jacuzzi 598
Current 597
affiliated 597
choo@@ 597
Care 597
answering 597
derive 597
kick 597
Particularly 597
devised 597
scratch 597
horn 597
Cards 597
Port@@ 597
Pass@@ 597
Texas 596
transplan@@ 596
FF 596
Angola 596
ct 596
hony 596
folding 596
communicating 596
Payment 596
executives 596
Fitness 596
SCH@@ 596
dent@@ 596
reasoning 595
talents 595
reproduce 595
lest 595
Taj@@ 595
proceeds 595
ardo 595
onies 595
advantageous 595
hardt 595
aerospace 595
reliably 595
Rub@@ 595
SEO 595
evolving 594
probability 594
tled 594
attribute 594
travelled 594
merged 594
nuts 594
hormon@@ 594
cles 594
Chad 594
Rab@@ 594
bonuses 594
antes 594
unic@@ 594
cogni@@ 594
disks 594
model@@ 594
pover@@ 593
floo@@ 593
Guatemala 593
Thessaloniki 593
demonstr@@ 593
County 593
ograph@@ 593
geneous 593
economist 593
sad@@ 593
watched 593
Form 593
Recovery 593
logged 593
Bran@@ 593
fried 593
а 593
Seattle 592
Azo@@ 592
jungle 592
identifies 592
courtesy 592
neoliberal 592
lightweight 592
Hab@@ 592
SME 592
aden 591
differentiated 591
obsc@@ 591
Corbett 591
analytical 591
Bologna 591
lle 591
possesses 591
likelihood 591
restart 591
sear@@ 591
esh 591
BAE 591
offerings 591
Tw@@ 590
juven@@ 590
tendencies 590
unwanted 590
Stephen 590
Pension 590
supermarket 590
Books 590
dal@@ 590
Eng@@ 590
HE@@ 590
Realty 590
dispar@@ 589
unlawful 589
anony@@ 589
militar@@ 589
mysterious 589
subtle 589
fittings 589
throu@@ 589
rhythm 589
Defense 589
ranes 589
GI 589
install@@ 589
bei@@ 588
compliant 588
Put 588
interact 588
alis@@ 588
offshore 588
Formula 588
E. 588
lanes 588
Communications 588
editions 588
Tit@@ 588
carto@@ 588
G. 588
Perfect 588
Imperial 588
efore 588
Unix 588
accumulation 587
egu@@ 587
vul@@ 587
illustration 587
signi@@ 587
agu@@ 587
fei@@ 587
minerals 587
MIN@@ 587
bad@@ 587
Zak@@ 587
matt@@ 587
Stefan 587
Alm@@ 587
sculp@@ 587
Theater 587
comprise 586
Transpar@@ 586
philosophical 586
consultant 586
region@@ 586
confusing 586
Assad 586
teous 586
transfer@@ 586
som 586
Statement 586
Cardiff 586
bn 586
750 586
cook 586
Erasmus 586
Cot@@ 586
minimize 586
utilisation 585
voiced 585
nin@@ 585
acquiring 585
extern@@ 585
Ideally 585
fraudul@@ 585
mayor 585
wed@@ 585
cigarettes 585
prestige 585
Mini@@ 585
atings 585
hyp@@ 585
Bene@@ 585
ader 585
es.@@ 585
Cancún 585
unwind 585
sculptures 585
SilverFast 585
enny 584
tano 584
bloc 584
RE 584
episodes 584
flation 584
degradation 584
flavour 584
invalid 584
pilots 584
routing 584
enco@@ 584
Inc. 584
reluct@@ 583
oods 583
unused 583
Dell 583
Indonesian 583
uous 583
Pent@@ 583
crafts@@ 583
fills 583
gest@@ 583
aro 583
smile 583
Berg@@ 583
pelago 583
validation 583
Package 583
aki 583
here@@ 583
Turn 583
ula 583
TU 583
wie 583
signation 582
Leban@@ 582
Ala@@ 582
medication 582
allegedly 582
Heb@@ 582
invent@@ 582
wash 582
sunset 582
Sign@@ 582
microwave 582
Messe 582
Hôtel 582
Deluxe 582
ense 581
complemented 581
dealings 581
explosive 581
ulating 581
hob@@ 581
lecture 581
transforming 581
exploration 581
Prestige 581
premier 581
rotating 581
pum@@ 581
Argent@@ 581
yan 581
Arabic 581
clips 581
unauthorized 581
feared 580
visions 580
wondering 580
occurrence 580
flat@@ 580
sits 580
INI 580
rat 580
erosion 580
tare 580
orn 580
Nar@@ 580
WAR@@ 580
dedic@@ 579
insights 579
itations 579
variation 579
shade 579
canal 579
Statisti@@ 579
cerem@@ 579
BI@@ 579
dilemma 578
nen 578
Prosec@@ 578
noti@@ 578
candi@@ 578
wning 578
contacted 578
Way 578
fighters 578
paradig@@ 578
gastronomic 578
Lud@@ 578
potato 578
Florida 578
OL 578
ë@@ 578
gt 578
glacier 578
Visi@@ 578
mana 578
smell 577
Eurojust 577
Establi@@ 577
Opportunities 577
traffi@@ 577
token 577
who@@ 577
struggles 577
dressing 577
Afri@@ 577
crowded 577
filtration 577
compelling 577
10.00 577
henko 577
journal 577
Instrument 577
patches 577
wall@@ 577
volatile 576
ashed 576
honest@@ 576
Confederal 576
Fore@@ 576
Prec@@ 576
dynam@@ 576
circular 576
dock 576
kits 576
m. 576
graph 576
disable 576
Table 576
decorative 576
Born 576
Photoshop 576
Settings 576
competi@@ 575
acade@@ 575
CI@@ 575
supermarkets 575
labelled 575
drying 575
administrators 575
tian 575
hiding 575
liberation 575
thr@@ 575
Neg@@ 575
Marx 575
PG 575
presiden@@ 574
thre@@ 574
Hollywood 574
accumulated 574
harm@@ 574
importing 574
Jam@@ 574
spic@@ 574
emotion 574
myth 574
tenth 574
aesthe@@ 574
Remo@@ 574
Func@@ 574
painter 574
investig@@ 573
Rac@@ 573
uss 573
apping 573
combustion 573
Aut@@ 573
rout@@ 573
ware@@ 573
Holding 573
chic 573
Clin@@ 573
computing 573
Magazine 573
Steinberg 573
IMO 572
Gas@@ 572
cosmopolitan 572
Socrates 572
wis 572
arbit@@ 572
masses 572
ducing 572
tas 572
Pel@@ 572
Donald 572
cafés 572
vulner@@ 572
Lucerne 572
Hot 572
ose 571
08@@ 571
outskirts 571
obs@@ 571
distill@@ 571
wings 571
rech@@ 571
poster 571
uan 571
Info 571
Punta 571
uba 571
tet 571
standardized 571
Stand@@ 570
half@@ 570
Fru@@ 570
Reding 570
Commons 570
XI 570
ille 570
sper@@ 570
Uganda 570
charity 570
chat@@ 570
versus 570
utilities 570
clip 570
R. 570
eno 570
treasure 570
Chap@@ 570
refrigerator 570
Shopping 570
thin@@ 569
dis 569
correspondence 569
caps 569
disper@@ 569
rav@@ 569
aly 569
Jarzembowski 569
defensive 569
Ds 569
ae@@ 569
Links 569
personalised 569
über 569
enz 569
l. 569
gau 569
Alp@@ 569
Princip@@ 568
Poverty 568
ferences 568
junction 568
emble@@ 568
cats 568
shifts 568
tem 568
Friends 568
fantasy 568
teles@@ 568
Sing@@ 568
spect@@ 568
refriger@@ 568
them@@ 568
TW@@ 568
ben 568
Transfer 568
Sli@@ 568
ThyssenKrupp 568
renew@@ 567
satisfying 567
remot@@ 567
2.6 567
cleaned 567
Lomé 567
holistic 567
Mongo@@ 567
nich@@ 567
existent 567
hungry 567
appren@@ 567
Origin@@ 567
wski 567
plat@@ 567
lenses 567
Bath 567
registering 566
upgra@@ 566
condem@@ 566
ury 566
beaten 566
lled 566
desi@@ 566
anta 566
reproduced 566
Peninsula 566
gible 566
Individual 566
traveller 566
side@@ 566
oxygen 566
ò 566
Baroque 566
Fr@@ 566
visor 566
moderni@@ 566
Summary 566
oma 566
explored 565
suit@@ 565
Montreal 565
Cau@@ 565
Annan 565
small@@ 565
deplo@@ 565
guess 565
correspon@@ 565
ities 565
PK@@ 565
emis@@ 565
prayer 565
tron@@ 565
soccer 565
trop@@ 565
eg 565
rels 565
dys@@ 565
rounded 565
Provider 565
Ramblas 565
campsite 565
~ 565
Bic@@ 565
change@@ 564
jacket 564
iry 564
reform@@ 564
instrumental 564
injec@@ 564
etti 564
Prior 564
Bern 564
freezing 564
Hospital 564
Fro@@ 564
header 564
Lab 564
benefici@@ 563
timent 563
civi@@ 563
gently 563
gram@@ 563
Jac@@ 563
Ann@@ 563
Crist@@ 563
Consu@@ 563
Engine 563
Quali@@ 563
sea@@ 562
Short 562
apar@@ 562
preceding 562
reme@@ 562
LL@@ 562
After@@ 562
zio 562
CAN@@ 562
D.@@ 562
Original 562
TRA@@ 562
commented 561
scrut@@ 561
voy 561
nomination 561
Multi 561
even@@ 561
embles 561
É@@ 561
sheer 561
certi@@ 561
sses 561
witnesses 561
breed 561
3,000 561
elegantly 561
grin@@ 561
16.@@ 561
Mira@@ 561
cript 561
imaging 561
Shine 561
Recon@@ 560
attachment 560
navig@@ 560
boundary 560
impres@@ 560
tuning 560
Marie 560
sensu@@ 560
sag@@ 560
rebuilt 560
oll 560
Real@@ 560
hetero@@ 560
Ny@@ 560
amid 560
cav@@ 560
xy 560
Return 560
Residen@@ 560
POR@@ 560
sanitary 559
reti@@ 559
ouses 559
otage 559
bias 559
intake 559
forwarding 559
Kri@@ 559
Rica 559
NT@@ 559
Clean 559
ott 559
Alpes 558
extinc@@ 558
terly 558
designation 558
Fort@@ 558
Dest@@ 558
cloud 558
MP 558
Az@@ 558
Alzheimer 558
lago@@ 558
3.2 558
Applications 558
ION@@ 558
Infineon 558
б@@ 558
wered 557
tari@@ 557
tending 557
spreads 557
cooked 557
Retur@@ 557
dant 557
amidst 557
Equipment 557
й 557
undergone 556
Standards 556
Iber@@ 556
poet 556
gauge 556
hesi@@ 556
draw@@ 556
curricul@@ 556
colony 556
voucher 556
Mission 556
tras 556
lio 556
lich 556
e. 556
originated 555
paradox@@ 555
attracting 555
stolen 555
budge@@ 555
edt 555
ego@@ 555
sac@@ 555
Tribunal 555
oter 555
commer@@ 555
switches 555
offline 555
Hil@@ 555
atable 555
ces@@ 555
malware 555
albums 555
critic@@ 554
electronically 554
additions 554
Sep@@ 554
Wallström 554
Buddhist 554
Scandinavian 554
oration 554
bres 554
ide 554
Wind@@ 554
scattered 554
Blu@@ 554
Fern@@ 554
inas 554
rev@@ 554
Dy@@ 554
Membership 554
attor@@ 554
chs 554
Manuel 554
Aar@@ 554
aser 554
Kas@@ 554
Zürich 554
Porsche 554
.NET 554
lodge 553
preferably 553
illary 553
ITS 553
tta 553
modernity 553
coordinates 553
1.0 553
Cruz 553
YouTube 553
City@@ 553
EOS 553
addi@@ 552
vise 552
Gs 552
AF 552
onymous 552
4.5 552
geograph@@ 552
ony@@ 552
dise 552
diabetes 552
configurations 552
Complete 552
Core 552
SN@@ 552
uta 552
dor 552
Gast@@ 552
stair@@ 551
nels 551
Cadiz 551
horror 551
worship 551
retains 551
mud 551
abundant 551
cock 551
Dau@@ 551
Integrated 551
Lis@@ 551
P. 551
г@@ 551
Gott 551
uminum 551
greg@@ 550
rele@@ 550
Dalai 550
pink 550
satellites 550
Liechtenstein 550
vic 550
transform@@ 550
registry 550
lab 550
vibration 550
Ner@@ 550
Bonus 550
requi@@ 549
popul@@ 549
tricks 549
fai@@ 549
0.1 549
nicely 549
eland 549
cigarette 549
noisy 549
sliding 549
rocky 549
terra@@ 549
BER@@ 549
gulf 548
derly 548
mits 548
joins 548
chise 548
athle@@ 548
eng 548
Options 548
ason 548
muscles 548
Governance 548
ettes 548
Move 548
rustic 548
enlarge 547
babies 547
Inci@@ 547
okes 547
vity 547
evacu@@ 547
conversations 547
Sv@@ 547
atmospheric 547
Half 547
rolls 547
iri@@ 547
Sydney 547
cons 547
Ach@@ 547
modal 547
sives 547
ONE 547
ambiance 547
communal 546
dues 546
gry 546
Coming 546
inging 546
Prac@@ 546
Exam@@ 546
Chris 546
atomic 546
fort 546
qui 546
coated 546
Pay 546
shirts 546
ett 546
Chianti 546
distra@@ 545
VII 545
wr@@ 545
Insurance 545
broadcast@@ 545
Cameron 545
zin@@ 545
Harry 545
Virgin 545
sculpture 545
Dalmati@@ 545
Accommodation 545
Babysi@@ 545
irrelevant 544
clever 544
faction 544
100,000 544
Myanmar 544
domination 544
occupies 544
cater 544
Dum@@ 544
aster 544
Traditional 544
PO 544
uk 544
ethanol 544
Fis@@ 544
cliffs 544
NO 544
Delta 544
pixel 544
drome 543
guil@@ 543
bishop 543
2.3 543
crafted 543
lighter 543
call@@ 543
Bit@@ 543
eps 543
lumin@@ 543
wouldn 543
LIN@@ 543
Brand 543
WW@@ 543
Iz@@ 542
reson@@ 542
mistak@@ 542
Martini 542
epide@@ 542
LIFE 542
bited 542
helicopters 542
patron@@ 542
ckey 542
AV 542
locking 542
Heidelberg 542
Dat@@ 542
OS@@ 542
Ski@@ 542
ра@@ 542
o. 542
Europe@@ 541
shield 541
ulary 541
eux 541
PHARE 541
Pad@@ 541
stere@@ 541
Genoa 541
hikes 541
tuous 541
entran@@ 541
eme 541
stom@@ 541
Train 541
paste 541
Hi 541
salon 541
pol 540
TACIS 540
Gom@@ 540
corridors 540
æ@@ 540
quer 540
appearances 540
Ferr@@ 540
Mé@@ 540
vine@@ 540
prototype 540
ASE 540
clay 540
akis 539
Regar@@ 539
oneself 539
Bendit 539
cros@@ 539
lib@@ 539
portrait 539
eh 539
HC 539
Luxury 539
101 538
Ankara 538
amoun@@ 538
Atlan@@ 538
proportionate 538
dding 538
fia 538
surround 538
curve 538
Cohn 538
compilation 538
Lee 538
bir@@ 538
Mec@@ 538
jan@@ 538
Me 538
U.@@ 538
Monaco 538
Physi@@ 538
farmhouse 538
Swimming 538
ELDR 537
nez 537
Stalin 537
birth@@ 537
posters 537
CV@@ 537
muscle 537
ismo 537
oved 537
polio 537
F. 537
blogs 537
fiber 537
QuarkXPress 537
paradox 536
Fas@@ 536
acon 536
experim@@ 536
rival 536
FT@@ 536
Thir@@ 536
Tai@@ 536
Delivery 536
reach@@ 536
Quick@@ 536
rega@@ 535
myth@@ 535
remainder 535
propag@@ 535
plum@@ 535
etary 535
foam 535
akan 535
herbs 535
ANT@@ 535
trekking 535
105 534
ancho@@ 534
Liikanen 534
provincial 534
valu@@ 534
Bible 534
prospective 534
distinc@@ 534
Christian@@ 534
guer@@ 534
chil@@ 534
Trop@@ 534
Inside 534
bicycles 534
Included 534
touristic 534
α@@ 534
authorit@@ 533
sevent@@ 533
conci@@ 533
leaf@@ 533
inhi@@ 533
legi@@ 533
Stop 533
editors 533
ECT 533
ador 533
logs 533
Exp@@ 533
OC@@ 533
FS@@ 533
Beau@@ 533
BB@@ 533
dec 533
Hannover 533
Experts 532
epi@@ 532
assault 532
Conduc@@ 532
Title 532
glasses 532
Kash@@ 532
graduates 532
lodging 532
fiers 532
ketball 532
kel@@ 532
Quarter 532
Band 532
flair 532
mware 532
reve@@ 531
RC 531
Brit@@ 531
Ali 531
Fam@@ 531
Def@@ 531
Dear 531
Football 531
Usually 531
Sle@@ 531
Tennis 531
declar@@ 530
belonged 530
gmati@@ 530
dow 530
8,@@ 530
Terror@@ 530
synthesis 530
standardi@@ 530
chens 530
Oomen 530
mia 530
Commander 530
Colum@@ 530
hill@@ 530
zn@@ 530
Č@@ 530
KO@@ 530
Oliver 530
Feel 530
TNG 530
Need@@ 529
fortunate 529
Program@@ 529
alien@@ 529
whit@@ 529
ere@@ 529
Á@@ 529
magi@@ 529
tioner 529
exhibit 529
Ze@@ 529
Television 529
ee@@ 529
gs@@ 529
rad@@ 529
Jazz 529
DEN@@ 529
e.V. 529
heed 528
adly 528
Lamy 528
MS@@ 528
yiel@@ 528
absorbed 528
Bud@@ 528
amin 528
Always 528
ahn 528
aller@@ 528
rented 528
ranked 528
ouldn 528
Markets 528
anytime 528
MB@@ 528
majestic 528
HER@@ 528
Gardena 528
Mercure 528
pulled 527
SOL@@ 527
cide 527
secretary 527
lip 527
LI@@ 527
packs 527
kha@@ 527
Founded 527
bandwidth 527
como 527
Radisson 527
CMS 527
Palm 527
scand@@ 526
NGO 526
ommis@@ 526
tainment 526
navigate 526
Econom@@ 526
Index 526
Banks 526
backgrounds 526
casual 526
eline 526
tempor@@ 526
alto 526
skep@@ 526
sligh@@ 525
nes 525
wildlife 525
vez 525
asive 525
owns 525
Nag@@ 525
Emplo@@ 525
Tuni@@ 525
expl@@ 525
ICC 525
oro 525
celeb@@ 525
cylinder 525
Ron@@ 525
ERP 525
Rotterdam 524
1969 524
Ec@@ 524
115 524
sab@@ 524
refresh@@ 524
15.@@ 524
Parties 524
Catalonia 524
remark@@ 524
Giovanni 524
Scott 524
Universi@@ 524
bacteria 524
t.@@ 524
vigor@@ 523
Hung@@ 523
Jen@@ 523
pub 523
plateau 523
vas 523
scholars 523
ionships 523
wery 523
groves 523
genre 523
rais@@ 522
Assistance 522
bekistan 522
carpet 522
vendor 522
gregation 522
Imp@@ 522
nos 522
ington 522
sica 522
Rail 522
Test@@ 522
viewers 522
apple 522
Soli@@ 522
Sili@@ 522
clicks 522
socket 522
RI@@ 522
Surrounded 522
GNOME 522
ambots 522
hesit@@ 521
accord@@ 521
awar@@ 521
disturbed 521
opho@@ 521
Leone 521
seafood 521
pairs 521
Contr@@ 521
sports@@ 521
Ask 521
Ein@@ 521
storey 521
är@@ 521
Graphi@@ 521
CSS 521
-B4 521
php@@ 521
XX@@ 520
Vitorino 520
stan 520
Ander@@ 520
Soon 520
cracy 520
kets 520
roller 520
fascin@@ 520
dunes 520
endi@@ 520
Guard 520
Glob@@ 520
friendliness 520
Catalunya 520
mage 520
Dark 520
01.@@ 520
Script 520
ior 519
preme 519
ficial 519
vies 519
promin@@ 519
reserv@@ 519
pots 519
cau@@ 519
erc@@ 519
subur@@ 519
til 519
Ruijten 519
aw 519
discover@@ 519
Ple@@ 519
Banking 519
implants 519
sep@@ 519
narrative 519
Orthodo@@ 519
Angel@@ 519
quiries 518
Dé@@ 518
trivi@@ 518
Conven@@ 518
republic 518
shar@@ 518
Re 518
3.1 518
aba 518
Vie@@ 518
Week@@ 518
Orange 518
AA 518
Sign 518
Domin@@ 518
añ@@ 518
ş@@ 518
cafe 518
fulfil@@ 517
hem@@ 517
scri@@ 517
restruc@@ 517
H. 517
eder 517
locks 517
turbul@@ 517
docum@@ 517
fur 517
ius 517
zza 517
30th 517
Vegas 517
ICA 517
ICEcat 517
orrow 516
bb@@ 516
cardi@@ 516
nervous 516
beverage 516
Moder@@ 516
vet 516
Imagine 516
glia 516
1950s 516
riad 516
Motion 516
Istri@@ 516
ller 516
beau@@ 516
Them@@ 516
AB 516
Pum@@ 516
unpleasant 515
igno@@ 515
techno@@ 515
sau 515
1972 515
Registration 515
UP 515
wird 515
INE 515
format@@ 515
PayPal 515
mills 514
elo@@ 514
sig@@ 514
sent@@ 514
Reference 514
merge 514
adol@@ 514
hood 514
lava 514
bee 514
banqu@@ 514
tise 513
eves 513
Hilton 513
Turin 513
secre@@ 513
tranquillity 513
drops 513
Lig@@ 513
Moh@@ 513
WE 513
ę@@ 513
Voyager 513
Emp@@ 512
mathematical 512
chn@@ 512
dictator@@ 512
Ferrero 512
Veri@@ 512
mira@@ 512
multilater@@ 512
fit@@ 512
38@@ 512
ev 512
faç@@ 512
DV@@ 512
cant@@ 512
unia 512
Mode 512
τ@@ 512
determin@@ 511
EPP 511
Sei@@ 511
she@@ 511
perfection 511
crow@@ 511
Lyon 511
bare 511
cient 511
tat 511
orous 511
veter@@ 511
psycho@@ 511
eper 511
Stone 511
portals 511
Details 511
cc 511
MPEG 511
plugins 511
Nephi 511
shop@@ 510
Stream 510
tees 510
mega 510
petro@@ 510
lash 510
brus@@ 510
scientist 510
VA 510
rhyth@@ 510
Kiev 510
glaci@@ 510
niture 510
descri@@ 509
Leader 509
mort@@ 509
compound 509
hus@@ 509
Tanz@@ 509
trusion 509
001 509
FTA 509
ssi 509
Share@@ 509
ergonom@@ 509
Sach@@ 509
ceram@@ 509
Designed 509
thouse 509
Jet 509
Rose 509
9,@@ 509
WordPress 509
hierarch@@ 508
mos 508
rigi@@ 508
Lav@@ 508
donated 508
pulse 508
32@@ 508
tu 508
naval 508
Rep@@ 508
allen 508
tner 508
A6 508
comprehensible 507
raft 507
trick 507
damp@@ 507
wled@@ 507
DB 507
creations 507
stur@@ 507
E.ON 507
Benz 507
loader 507
league 506
Cypri@@ 506
captain 506
ARC 506
Europ@@ 506
dinners 506
instructors 506
E.@@ 506
carb@@ 505
Dou@@ 505
liers 505
She@@ 505
cottage 505
ow 505
Metal 505
Wes@@ 505
Mail@@ 505
tite 504
cohe@@ 504
stitutes 504
opath@@ 504
Moz@@ 504
ographi@@ 504
stack 504
rag@@ 504
Solution 504
tol@@ 504
BG 504
SERV@@ 504
Klingon 504
Barón 503
onents 503
Alicante 503
pseu@@ 503
spac@@ 503
sticks 503
tuary 503
oul@@ 503
A1 503
aco 503
K. 503
ön@@ 503
commanded 503
liv@@ 503
Astrium 503
mation 502
dup@@ 502
uro 502
metallic 502
pad 502
Davi@@ 502
tionist 502
doorstep 502
erie 502
Langu@@ 502
Vati@@ 502
Feli@@ 502
behavi@@ 502
Brand@@ 502
Rent 502
einen 502
Waldner 502
Torre 502
vou@@ 501
eradic@@ 501
Kyi 501
Di 501
Claude 501
rites 501
Analysis 501
sealed 501
sterili@@ 501
stra 501
Analy@@ 501
CI 501
Fan@@ 501
pear@@ 501
Ligh@@ 501
Picard 501
ounced 500
Strip 500
gery 500
9.00 500
Angela 500
Administ@@ 500
Lehne 500
Coll@@ 500
Progressive 500
1971 500
Fair@@ 500
Eiffel 500
Metro@@ 500
Quick 500
wher@@ 499
pessimis@@ 499
5000 499
pause 499
expendi@@ 499
mosa@@ 499
Lom@@ 499
Simon 499
vegetarian 499
Wolf 499
que@@ 499
Twin 499
AVI 499
tima 499
Conveni@@ 499
Walking 499
Copy 499
stron@@ 498
rea 498
unas 498
effic@@ 498
Eth@@ 498
Final 498
Bour@@ 498
tice 498
billi@@ 498
roy@@ 498
Simple 498
1. 498
Gh@@ 498
boots 498
olin 498
TY 498
IVE 498
Crespo 497
communautaire 497
voir 497
ongside 497
excited 497
Simil@@ 497
utop@@ 497
kal@@ 497
thers 497
Zagreb 497
kilomet@@ 497
mic 497
enclosed 497
Aero@@ 497
avian 497
Expo 497
pon@@ 496
alien 496
retired 496
lover 496
ATM 496
ées 496
Phil@@ 496
Week 496
mmer 496
rooftop 496
Milano 496
Copy@@ 496
susta@@ 495
dau@@ 495
erly 495
imper@@ 495
ses@@ 495
Gene@@ 495
massi@@ 495
attrac@@ 495
voy@@ 495
ende 495
vio 495
Olympics 495
Daily 495
tels 494
Alban@@ 494
dispos@@ 494
neys 494
aine 494
Years 494
ii 494
inum 494
CNC 494
NH 494
barbecue 494
colored 494
Acrobat 494
ghters 493
retariat 493
Resources 493
xide 493
missi@@ 493
esting 493
Interior 493
B4 493
till@@ 493
Battle 493
Aus@@ 493
sili@@ 493
Wri@@ 493
aber 493
occasional 492
utt@@ 492
Isa@@ 492
xen@@ 492
god 492
hosp@@ 492
Ric@@ 492
Böge 492
rogen 492
Prote@@ 492
Farm 492
Ep@@ 492
Infra@@ 492
aman 492
loves 492
compositions 492
Ster@@ 492
án@@ 492
CRM 492
event@@ 491
Amon@@ 490
slu@@ 490
zh@@ 490
cover@@ 490
fem@@ 490
gram 490
GO@@ 490
chest@@ 490
öl@@ 490
bag@@ 490
Electric 490
Everest 490
SIM@@ 490
gst 489
sympath@@ 489
crown 489
Represent@@ 489
suppor@@ 489
Juncker 489
thresh@@ 489
unication 489
Fixed 489
Polo 489
45@@ 489
ś@@ 489
tude 488
elt 488
beck 488
Tut@@ 488
Flexi@@ 488
Bah@@ 488
Fron@@ 488
Mare 488
Málaga 488
residen@@ 488
Nuremberg 488
Route 488
facade 488
Miles 488
103 487
corn 487
musician 487
Master@@ 487
partment 487
³ 487
Ech@@ 486
ofs 486
vintage 486
135 486
dena 486
DEM 486
Carl@@ 486
ardi@@ 486
Nord@@ 486
Mist@@ 486
Shops 486
MAN 486
sehr 486
fore 485
histori@@ 485
mist@@ 485
Jack 485
17.@@ 485
glam@@ 485
pod@@ 485
Pun@@ 485
actress 485
stav@@ 485
Module 485
fif@@ 484
lear@@ 484
erce 484
coast@@ 484
hydr@@ 484
garten 484
accom@@ 484
Posi@@ 484
Suu 484
PI 484
agn@@ 484
gir@@ 484
sender 484
Pisa 484
aran@@ 484
cached 484
Poker@@ 484
LT@@ 483
sink 483
anom@@ 483
monumental 483
24.@@ 483
stes 483
agra@@ 483
Romans 483
Care@@ 483
sacrifi@@ 483
dents 483
lash@@ 483
NE 483
WA 483
Ferrari 483
node 483
colorful 483
ype 482
Bil@@ 482
Tun@@ 482
styli@@ 482
Linz 482
durch 482
Governor 481
Delors 481
inee 481
assador 481
Famili@@ 481
dictionary 481
vin 481
tte 481
Ken@@ 481
rope 481
ventilation 481
este 481
Lufthansa 481
ów 481
GUI 481
app 481
Evans 480
aan 480
Day@@ 480
spr@@ 480
Students 480
arks 480
dinal 480
Sub 480
aux@@ 480
sans 480
pupp@@ 480
FIFA 480
conveni@@ 480
Abbas 480
tranquili@@ 480
einem 480
visory 479
Berg 479
Seri@@ 479
ude 479
vision@@ 479
contin@@ 479
dali@@ 479
frau@@ 479
thos 479
Shor@@ 479
Alexand@@ 479
oi 479
lar 479
mina 479
noch 479
ERS 479
pon 478
develop@@ 478
pedition 478
Are@@ 478
phot@@ 478
azi@@ 478
Mr@@ 478
Yan@@ 478
más 478
Cox 477
thering 477
proportional 477
fort@@ 477
forec@@ 477
Bangemann 477
prou@@ 477
gun@@ 477
1965 477
inver@@ 477
Asi@@ 477
Work@@ 477
sync 477
melo@@ 477
Tours 477
wir 477
ophobia 476
volcano 476
band@@ 476
ESA 476
García 476
Sci@@ 476
tail@@ 476
Document 476
Liby@@ 476
elevator 476
Dal@@ 475
help@@ 475
Schi@@ 475
Pen 475
Raf@@ 475
Salvador 475
Regul@@ 475
kov 475
20,000 475
Fres@@ 475
Rehn 475
Images 475
PNR 475
bine 475
HA@@ 475
predec@@ 474
Naz@@ 474
dg@@ 474
lung 474
ligent 474
Am 474
Release 474
poss@@ 474
Adverti@@ 474
premiere 474
fountain 474
Walk 474
mysq@@ 474
prerequi@@ 473
Urban 473
12.00 473
monster 473
philos@@ 473
Step 473
Stein@@ 473
composite 473
lli@@ 473
Traveller 473
о 473
debian 473
import@@ 472
genous 472
dot 472
dil@@ 472
Subscri@@ 472
Operation 472
amins 472
aroma 472
Run 472
Circle 472
r.@@ 472
vigil@@ 471
neighbour@@ 471
geb@@ 471
Teh@@ 471
assign@@ 471
spy@@ 471
inings 471
González 470
pus@@ 470
São 470
athy 470
rence 470
illon 470
raid 470
alternate 470
Lon@@ 470
TVs 470
Amazon 470
Champs 470
Challenge 470
Email 470
kms 470
Wall@@ 469
curr@@ 469
150@@ 469
ETA 469
Ev@@ 469
Clau@@ 469
TEC 469
kus@@ 469
vom 469
ALL@@ 469
Terme 469
eler@@ 468
reser@@ 468
hat@@ 468
entu@@ 468
izz@@ 468
Carmen 468
health@@ 468
ira 468
ssen 468
Ray 468
Wars 468
kW 468
xis 468
ο@@ 468
TCP 468
COS 467
magni@@ 467
computer@@ 467
ffs 467
Mother 467
190 467
175 467
MAS 467
excell@@ 467
celebri@@ 467
seg@@ 467
nific@@ 467
Leave 467
Zar@@ 467
23rd 467
ICS 467
amente 467
Lite 467
sidi@@ 466
onom@@ 466
trailer 466
meth@@ 466
Autom@@ 466
Italia 466
Schu@@ 466
asis 466
poetry 466
Um@@ 466
B6 466
bronze 466
120@@ 466
mei@@ 466
och 466
Coffee 466
gano 466
flavours 466
Dubrovnik 466
BugTraq 466
Deci@@ 465
Delegation 465
Who@@ 465
Atom@@ 465
ould 465
Guil@@ 465
proxim@@ 465
Pé@@ 465
scap@@ 465
Malmström 465
Nic@@ 465
yachts 465
19.@@ 465
occ@@ 465
C.@@ 465
Carl 465
skis 465
finder 465
leges 464
Oh 464
Satur@@ 464
avant 464
bann@@ 464
PE@@ 464
Manual 464
medic@@ 464
Bristol 464
ZF 464
ASPs 464
Conil 464
Elba 464
aler@@ 463
stem@@ 463
quiry 463
Sett@@ 463
dafi 463
IB 463
teach@@ 463
Bahrain 463
1957 462
Alba 462
folios 462
Span@@ 462
rescu@@ 462
Mill@@ 462
jen@@ 462
town@@ 462
access@@ 462
chio 462
INC@@ 462
Rh@@ 461
lige 461
republi@@ 461
gem@@ 461
oure 461
uli 461
SR@@ 461
anne 461
pep@@ 461
Securities 461
Risk 461
IK 461
gem 461
freshly 461
otechn@@ 460
ventures 460
itar@@ 460
gans 460
VO@@ 460
porte@@ 460
Com 460
ror 460
IDE 460
wo 460
Depression 460
delle 460
avenue 459
spl@@ 459
matrix 459
Ivoire 459
presso 459
cion 459
Rober@@ 459
ons@@ 459
50,000 459
...... 459
bahn 459
Lux@@ 459
HT 459
veau 459
Swiss@@ 459
discus@@ 458
kn@@ 458
transpar@@ 458
berries 458
grades 458
anic 458
dow@@ 458
aero@@ 458
ussy 458
Racing 458
conf 458
public@@ 457
rigor@@ 457
gma 457
trin@@ 457
ister 457
Heav@@ 457
Gaulle 457
Ott@@ 457
arded 457
Dimension 457
4.1 457
af 457
gger 457
Ring 457
Fast 457
Ernst 457
Target 457
teleph@@ 456
dire 456
Legislative 456
parag@@ 456
mg 456
replac@@ 456
Leon@@ 456
800@@ 456
Race 456
inian 456
Archi@@ 456
ont@@ 456
y.@@ 456
Wogau 455
lick 455
dend 455
rot 455
riv@@ 455
figu@@ 455
wering 455
Doc@@ 455
pharmac@@ 455
Cali@@ 455
eck@@ 455
ensemble 455
Ces@@ 455
eras 455
poli 455
two@@ 454
Brandenburg 454
arbitr@@ 454
Schmidt 454
lux@@ 454
sched@@ 454
rack 454
Esc@@ 454
Gates 454
Weber 454
acher 454
DS9 454
starship 454
bed@@ 453
Holocaust 453
satisfac@@ 453
vocab@@ 453
Across 453
Slo@@ 453
Gab@@ 453
tall 453
18.@@ 453
Flor@@ 453
Pati@@ 453
aciones 453
CET 453
guesthouse 453
ا@@ 453
skir@@ 452
COR@@ 452
vels 452
240 452
Scandin@@ 452
exce@@ 452
lid 452
polite 452
Aff@@ 452
ave 452
Vari@@ 452
Stars 452
Nicolas 452
og 452
F1 452
Wide 451
Fontaine 451
lack@@ 451
ativity 451
recre@@ 451
Norm@@ 451
fighter 451
Mars 451
bru@@ 451
sko 451
Columbia 451
eri 451
Kel@@ 451
Ve@@ 451
dere 451
JPEG 451
o.@@ 451
stituted 450
servation 450
rog@@ 450
Valle 450
Status 450
Miguel 450
Mün@@ 450
Export 450
Sw@@ 450
bia 450
Factory 450
CF 450
Nou@@ 450
ANT 450
touring 450
porteur 449
dema@@ 449
mile@@ 449
bau@@ 449
aven@@ 449
112 449
Senior 449
Networks 449
650 449
vices 449
Study 449
cho 449
Kil@@ 449
asy 449
meg@@ 449
Records 449
deluxe 449
MAS@@ 449
fin 448
Francis 448
thal 448
nostal@@ 448
video@@ 448
Four@@ 448
rupted 448
Trust 448
Wilhelm 448
DB@@ 448
MHz 448
décor 448
GOL@@ 448
dass 448
exo@@ 447
BI 447
meaning@@ 447
gos 447
ritual 447
volta@@ 447
patent@@ 447
kow 447
uble 447
Team@@ 447
McCar@@ 446
pursu@@ 446
chrome 446
nas@@ 446
Mont 446
Nest@@ 446
sidents 446
NA@@ 446
lik@@ 446
ecks 446
Winter@@ 446
aller 446
Interface 446
Plant 446
Marc 446
rench 446
cil 446
queen 446
sec 446
assimil@@ 445
rewar@@ 445
ggen@@ 445
Å@@ 445
Schum@@ 445
porary 445
rin 445
Burundi 445
pasta 445
Rosa 445
1956 445
MT 445
pam@@ 445
Woo@@ 445
Electronics 445
pis@@ 445
method@@ 444
Think 444
diox@@ 444
stuffs 444
té 444
Wu@@ 444
nic 444
Enhan@@ 444
stun@@ 444
SO 444
farm@@ 444
suffici@@ 444
zel@@ 444
Leon 444
Kn@@ 444
Prophet 444
rank@@ 444
Tickets 444
Blu 444
plurali@@ 443
bum@@ 443
refra@@ 443
BBC 443
derer 443
Geb@@ 443
consum@@ 443
Johann 443
shine 443
pneum@@ 443
Geo@@ 443
Palais 443
Materials 443
Basilica 443
я 443
ко@@ 443
Lyn@@ 442
Lap@@ 442
Hat@@ 442
aison 442
antum 442
incre@@ 442
Milli@@ 442
mming 442
OP 442
Rav@@ 442
rebel@@ 442
teau 442
PD 442
PT@@ 442
RAW 442
108 441
Morgan 441
iner@@ 441
VIII 441
stir@@ 441
smu@@ 441
produc@@ 441
toral 441
emy 441
Value 441
Agent 441
Affiliate 441
Jacob 440
dela@@ 440
promp@@ 440
racy 440
Wen@@ 440
cides 440
potenti@@ 440
Fox 440
Mos@@ 440
sol 440
ciano 440
Style 440
Peri@@ 439
1948 439
jer 439
altar 439
lings 439
gg 439
ancies 439
pha@@ 439
NET 439
2D 439
Champion 439
thal@@ 438
glo 438
urred 438
Aung 438
chim@@ 438
tissu@@ 438
corrid@@ 438
Connect 438
Spre@@ 438
Var 438
Roo@@ 438
authori@@ 438
Pad 438
ч@@ 438
KUKA 438
Ans@@ 437
ernity 437
tability 437
Carlo 437
Ras@@ 437
flan@@ 437
quad@@ 437
Broad@@ 437
Mitchell 437
FIN@@ 437
Mik@@ 437
lyrics 437
x.@@ 437
SEL@@ 437
LY 437
ACK@@ 437
config 437
LONDON 437
bure@@ 436
Herman 436
Territ@@ 436
bat 436
Hamp@@ 436
toilets 436
sump@@ 436
Enter@@ 436
Stadium 436
Sla@@ 436
Andrea 436
Utili@@ 436
config@@ 436
Photos 436
Platz 436
Aparthotel 436
tment 435
prosp@@ 435
extra@@ 435
servatives 435
11.30 435
Bun@@ 435
Vinci 435
plann@@ 435
eman 435
nant 435
jug@@ 435
Andrew 435
Satellite 435
decla@@ 435
lock@@ 435
orials 435
izer 435
ondo 434
oos 434
Inform@@ 434
Ortega 434
Carol@@ 434
herein 434
Bonino 434
Fit@@ 434
garde 434
Generation 434
1200 434
Mike 434
Studios 434
Cookies 434
DSLR 434
.jpg 434
Frequ@@ 433
Mulder 433
111 433
alp@@ 433
soap 433
Renault 433
aga@@ 433
rison 433
1944 433
Graz 433
uno 433
rlpool 433
Dro@@ 432
Harmon@@ 432
Had 432
Davos 432
Markus 432
Phili@@ 432
Glo@@ 432
pertoire 432
AI 432
M.@@ 432
MI 432
ISS 432
München 432
Pocket 432
DivX 432
enne 431
Pre 431
neces@@ 431
Alan 431
aggres@@ 431
Lec@@ 431
lips 431
Ja@@ 431
1920 431
haben 431
configu@@ 431
Hotel@@ 431
Schro@@ 430
prejudi@@ 430
Some@@ 430
otti 430
plau@@ 430
pragmati@@ 430
inspi@@ 430
Rothley 430
tagon@@ 430
5.1 430
Metho@@ 430
cris@@ 430
Yahoo 430
ε@@ 430
č 430
rand@@ 429
client@@ 429
ás 429
Cum@@ 429
21.@@ 429
Rate 429
asa 429
pi 429
gradu@@ 429
Automati@@ 429
Masters 429
Certificate 429
Automation 429
Seg@@ 428
allevi@@ 428
wolf 428
avoi@@ 428
1900 428
apt 428
Independence 428
oblig@@ 428
wholes@@ 428
Planet 428
trainer 428
Alt@@ 428
GS 428
Logistics 428
ECR 428
Glacier 428
arding 427
aise 427
Audit 427
Need 427
Mai@@ 427
esp@@ 427
Stabili@@ 427
FY@@ 427
iss 427
Ecuador 427
ange@@ 427
Worldwide 427
Eden 427
Patrick 427
statue 427
gorgeous 427
AST 427
sti 427
Hit@@ 427
Reading 426
Fei@@ 426
posium 426
Rit@@ 426
anto 426
agre@@ 426
Install@@ 426
[...]
