, 5869549
. 3925847
die 2865496
der 2744438
und 2594508
in 1392265
zu 1056614
den 988474
von 954886
ist 825652
für 803209
@-@ 771753
das 684317
mit 673334
auf 657078
des 644246
eine 590496
nicht 530321
im 524460
werden 503237
Sie 499543
dass 497976
- 472404
es 466702
ein 459256
dem 458295
wir 456383
&quot; 450591
sich 445629
Die 434095
auch 398751
sind 364322
wird 349802
an 334142
( 321306
) 318875
ich 315717
als 314032
um 302792
oder 288368
haben 284919
: 281415
über 279736
hat 262090
einer 259316
sie 258674
wie 256276
zur 240976
einen 232883
bei 224144
Ich 223203
aus 216953
Das 213767
können 206352
einem 184157
diese 183226
nach 178346
Wir 177571
uns 174744
zum 174370
nur 172598
durch 167620
kann 165521
er 163382
dieser 162503
Kommission 160020
daß 159589
Der 155505
so 149661
vor 149152
Es 147521
noch 146483
! 144464
Herr 141860
wenn 140126
aber 138060
müssen 137587
wurde 135895
sein 133110
/ 128285
? 124908
sehr 124145
Union 122776
Europäischen 121605
diesem 121475
am 120872
In 117407
mehr 111772
alle 111183
möchte 109770
was 108936
man 108822
eines 101578
ihre 97742
Präsident 97604
bis 96982
EU 95609
war 94800
ver@@ 94626
dieses 93660
vom 91395
sowie 89541
gibt 89495
unter 88773
Bericht 87709
Parlament 86135
muss 85801
zwischen 85435
er@@ 84141
hier 83683
Mitgliedstaaten 83519
an@@ 82421
keine 80893
Hotel 80502
unsere 80217
Europa 78488
a 77269
anderen 76663
; 75286
Ihnen 74420
&apos; 73543
Wenn 72918
immer 71065
... 71023
diesen 70785
ten 70679
dies 70507
dann 70466
gegen 70454
damit 70317
te 70032
un@@ 69464
de 69426
Frau 69139
wurden 66753
da 66742
Europäische 66317
en 65165
habe 64908
Diese 64816
sondern 64440
Im 64254
ge@@ 63426
Zeit 63414
unserer 63106
ab@@ 61788
jedoch 61688
Menschen 61121
seine 60481
heute 59933
europäischen 59680
Ihre 59295
neue 59271
s 58842
bereits 57580
en@@ 57170
% 57038
mich 57014
Rat 56889
sollte 56800
Jahr 56733
ihrer 56394
be@@ 55642
denen 55425
neuen 55085
Ver@@ 54828
aus@@ 54705
ein@@ 54664
Frage 54611
Entwicklung 54520
sollten 54243
Jahren 54227
andere 54168
ohne 53971
k@@ 53473
machen 51003
ganz 50600
zwei 50294
t 50282
finden 50120
allen 49921
weil 49804
geht 49157
K@@ 49152
An@@ 48595
2 48366
dazu 47971
Maßnahmen 47835
denn 47775
Welt 47768
Unternehmen 47697
viele 47523
jetzt 47180
e 46962
S@@ 46570
darauf 46540
t@@ 46364
Herrn 45543
Mit 45369
sch@@ 45312
Bereich 44981
dafür 44898
the 44837
bietet 44729
Ein 44636
liegt 44426
i 44347
P@@ 44230
Ab@@ 43993
1 43991
einige 43973
B@@ 43970
seiner 43841
wieder 43593
selbst 43435
ter 43161
T@@ 43064
auf@@ 42981
würde 42561
Informationen 42532
s@@ 42378
ung 42279
Arbeit 42047
bin 42044
sagen 42005
schon 41995
ihren 41970
meine 41968
Lage 41400
allem 41220
Dies 41105
ihr 41009
mir 40990
Länder 40901
wollen 40774
o 40630
F@@ 40424
viel 40415
ob 40389
Land 40383
zu@@ 40027
Jahre 39873
f@@ 39544
über@@ 39421
and 39411
Und 39123
3 39041
geben 38936
insbesondere 38909
unseren 38846
Eine 38462
G@@ 38225
doch 38132
Parlaments 38117
H@@ 38055
während 37954
D@@ 37919
stehen 37915
Wie 37795
nun 37605
z@@ 37343
Unterstützung 37224
Ländern 37036
Ein@@ 36996
d@@ 36927
etwas 36866
vor@@ 36832
gen 36734
in@@ 36662
&#91; 36651
M@@ 36637
Rahmen 36551
&#93; 36541
möglich 36538
wo 36324
Vorschlag 36314
stellen 36310
lassen 36269
ent@@ 36246
Zusammenarbeit 36151
politischen 35847
Für 35692
Bürger 35688
A@@ 35668
kommen 35638
gut 35511
ab 35436
ungs@@ 35339
seit 35291
waren 35198
Sch@@ 35094
E@@ 35027
of 35022
Aus@@ 34967
ungen 34963
tun 34416
N@@ 34350
Fall 34251
m 34236
wichtig 34151
L@@ 34151
ch@@ 34112
also 34102
erhalten 34076
besteht 34012
wäre 34001
steht 34001
Namen 33884
Teil 33683
soll 33642
Problem 33596
st@@ 33577
Ziel 33498
g@@ 33312
n@@ 33291
ersten 33281
al@@ 33270
Kollegen 33120
Fragen 32933
letzten 32858
einmal 32725
Recht 32500
W@@ 32113
Fraktion 32088
ern 32003
deren 31990
sten 31979
beim 31853
Vor@@ 31788
Regierung 31722
C@@ 31711
Sicherheit 31695
sehen 31647
Bedeutung 31641
drei 31533
R@@ 31484
tes 31478
Staaten 31463
4 31330
to 31200
dabei 31114
worden 31050
Art 30926
einfach 30873
seinen 30796
große 30751
Was 30706
großen 30583
Aber 30551
Seite 30542
muß 30536
könnte 30318
b@@ 30297
m@@ 30167
weiter 30133
Politik 29897
Zimmer 29801
Probleme 29758
Kommissar 29729
Bei 29587
bringen 29574
Daten 29560
Thema 29532
welche 29441
darüber 29333
-@@ 29311
Möglichkeit 29275
wissen 29199
davon 29124
el@@ 28950
daher 28832
Weise 28697
Verfügung 28662
Richtlinie 28628
führen 28621
meiner 28615
ischen 28592
Z@@ 28538
eigenen 28533
5 28504
ge 28335
Zukunft 28242
Auf 28157
Auch 28131
aller 28061
unterstützen 28033
um@@ 27966
liche 27960
e@@ 27947
sowohl 27833
enden 27807
re@@ 27792
System 27780
kein 27748
wirklich 27618
Nach 27557
eren 27454
Ihr 27440
politische 27410
o@@ 27395
ihnen 27385
USA 27347
Als 27315
Er 27278
gegenüber 27215
O@@ 27215
Rolle 27176
weitere 27134
stellt 27056
Beispiel 27033
natürlich 26975
alles 26917
10 26896
Stadt 26878
Er@@ 26862
du 26836
Frauen 26815
europäische 26808
Ende 26784
zwar 26728
Euro 26715
ende 26690
erreichen 26682
innerhalb 26625
besonders 26543
ische 26509
V@@ 26442
internationalen 26416
ja 26408
bieten 26173
on 26169
Weg 26009
hatte 25954
Ihrer 25835
&amp; 25792
Seiten 25788
verschiedenen 25699
unser 25687
Kunden 25583
vielen 25518
d 25403
möchten 25194
Meinung 25089
u@@ 25046
gehen 24962
lich 24773
kommt 24653
i@@ 24650
as 24604
Artikel 24504
Situation 24384
Zusammenhang 24372
le 24316
l@@ 24306
E 24225
befindet 24187
Lösung 24106
lichen 23969
dort 23885
Mittel 23824
ens 23808
gesagt 23735
entfernt 23732
J@@ 23658
chen 23436
Programm 23385
weniger 23313
Präsidentin 23279
r@@ 23275
erste 23235
ste 23121
Tag 23100
beiden 23086
nehmen 23083
is 23053
Um 23032
arbeiten 23011
daran 22943
Rates 22923
Ihren 22890
nämlich 22869
Re@@ 22793
Hilfe 22766
di@@ 22758
n 22747
Un@@ 22713
de@@ 22677
Europas 22531
I@@ 22515
&#124; 22485
Deshalb 22453
Schutz 22378
Millionen 22372
Alle 22255
ts 22233
g 22188
2009 22146
indem 22142
li@@ 22096
l 22093
direkt 22077
Grund 21974
pro 21913
bar 21873
In@@ 21867
h@@ 21846
v@@ 21834
all 21779
Auf@@ 21751
sogar 21747
Hier 21720
dessen 21705
Be@@ 21660
unserem 21633
Region 21626
Uhr 21596
Ebene 21583
Dieses 21571
ins 21554
Aussprache 21517
ar@@ 21479
unter@@ 21437
Leben 21418
ale 21407
jeder 21392
a@@ 21368
p@@ 21339
st 21338
ert 21332
gemacht 21268
hinaus 21252
schaffen 21234
gilt 21205
Produkte 21114
end 21105
Punkt 21046
darin 21024
glaube 20987
einigen 20950
nationalen 20947
20 20852
brauchen 20814
etwa 20805
Gemeinschaft 20800
sen 20718
macht 20712
halten 20655
Wirtschaft 20632
öffentlichen 20620
unterstützt 20602
darf 20590
k 20586
bitte 20577
So 20561
Rechte 20518
si@@ 20485
or@@ 20461
es@@ 20415
el 20410
Kinder 20370
ter@@ 20263
Haus 20252
Abstimmung 20229
bzw. 20191
ebenfalls 20179
ti@@ 20169
Dieser 20095
will 20077
erten 20040
betrifft 19993
sicher 19986
30 19965
dürfen 19960
gerade 19878
weiterhin 19824
erte 19799
at 19669
sollen 19667
ihn 19659
Bezug 19656
St@@ 19640
ger 19521
würden 19498
ihm 19438
on@@ 19438
.@@ 19406
6 19400
keinen 19322
genau 19307
nichts 19249
Strategie 19204
ihrem 19195
seinem 19190
Form 19176
Menschenrechte 19170
Über@@ 19147
meisten 19101
wichtige 19072
Qualität 18991
gute 18982
y@@ 18978
klar 18968
Personen 18966
u 18932
Unsere 18924
ere 18891
deutlich 18875
solche 18866
sei 18720
bedeutet 18710
handelt 18708
Ansicht 18654
der@@ 18643
Deutschland 18642
aufgrund 18635
Umsetzung 18603
Kosten 18581
deshalb 18575
Internet 18566
Zugang 18534
z 18495
besser 18464
em 18397
Da 18347
setzen 18344
schen 18293
se 18289
jeden 18261
hoffe 18203
Ziele 18198
Demokratie 18191
le@@ 18162
Software 18130
Gesellschaft 18128
weit 18128
Hotels 18092
7 18058
gemeinsamen 18051
nutzen 18050
Vertrag 18014
nächsten 18006
Arbeits@@ 17954
China 17954
wirtschaftlichen 17924
beispielsweise 17862
Verantwortung 17846
Vorschläge 17821
sozialen 17800
Verfahren 17770
A 17742
� 17740
j@@ 17699
Website 17698
Grundlage 17688
ri@@ 17665
Finanz@@ 17656
zusammen 17653
2010 17646
Bedingungen 17589
vielleicht 17585
w@@ 17529
Richtung 17517
la 17516
alen 17505
Rechts@@ 17494
Zu@@ 17486
Institutionen 17458
at@@ 17440
Aus 17431
notwendig 17418
Debatte 17395
könnten 17340
Markt 17313
Um@@ 17300
Dank 17269
hin 17243
gen@@ 17214
Anwendung 17195
allerdings 17177
Herren 17161
ers 17161
15 17143
Interesse 17128
schnell 17116
2008 17084
Ort 17079
recht 17075
8 17059
Daher 17035
führt 17032
ler 17031
besten 17008
erst 17005
politik 16999
Doch 16971
U@@ 16962
be 16914
Auswirkungen 16865
sprechen 16861
Hinblick 16837
findet 16837
Reihe 16817
werde 16811
Abkommen 16791
gehört 16783
statt 16754
fen 16699
system 16652
lange 16561
gemeinsame 16559
Berichterstatter 16550
bleiben 16545
ä@@ 16537
Gebiet 16480
ro@@ 16478
Haupt@@ 16408
erreicht 16401
Verhandlungen 16384
Tatsache 16376
et 16364
elle 16348
gestellt 16311
Möglichkeiten 16304
ra@@ 16251
b 16244
US 16238
Regionen 16197
sk@@ 16151
Damen 16119
r 16109
bereich 16085
isch 16060
danken 16046
erung 16000
ch 15945
zeigt 15922
bekannt 15908
licher 15888
ger@@ 15887
denke 15876
verwendet 15834
nach@@ 15831
The 15825
Von 15792
ie 15779
y 15774
Al@@ 15736
wenig 15725
erforderlich 15705
Geschichte 15668
50 15651
Dienstleistungen 15644
or 15615
Vereinigten 15604
kleinen 15590
3@@ 15576
ei@@ 15572
Service 15525
Ihrem 15514
Änderungsanträge 15469
I 15460
darum 15457
Entscheidung 15455
ten@@ 15450
Mitglieder 15431
Kolleginnen 15425
ken 15417
Unter@@ 15404
Krise 15374
am@@ 15358
Durch 15342
voll 15314
Schritt 15308
Änderungsantrag 15296
Beziehungen 15278
al 15233
zurück@@ 15223
bereit 15218
hätte 15208
gesamten 15200
Abgeordneten 15195
ebenso 15157
ne 15109
2007 15092
oft 15071
ü@@ 15069
Ergebnis 15055
Bereichen 15038
2000 15000
Türkei 15000
ermöglicht 14992
liegen 14990
gegeben 14990
Verordnung 14988
hatten 14976
Antwort 14919
Nähe 14915
einzelnen 14899
unternehmen 14891
Version 14841
te@@ 14825
th@@ 14810
c@@ 14798
weltweit 14792
ser@@ 14778
alten 14777
durch@@ 14773
Bevölkerung 14763
Ausdruck 14747
Wirtschafts@@ 14735
Förderung 14731
Liste 14712
internationale 14703
verschiedene 14677
dar 14674
spielen 14644
fragen 14639
eln 14628
x@@ 14605
leben 14603
wichtigen 14580
weiß 14561
geführt 14527
tragen 14521
helfen 14466
x 14461
f 14453
fast 14418
gestimmt 14409
Ausschusses 14386
weiteren 14344
gel@@ 14333
Grund@@ 14329
ange@@ 14327
Zu 14322
gemeinsam 14321
Man 14311
verfügt 14309
sp@@ 14303
Außerdem 14280
vier 14273
et@@ 14267
Am 14255
Aufgabe 14217
Kontrolle 14215
Gruppe 14210
heißt 14209
los 14160
Geld 14130
Behörden 14123
gleichzeitig 14100
Erfolg 14081
bleibt 14066
entwickelt 14037
Entschließung 14026
gleichen 13990
enen 13984
meinen 13984
Forschung 13967
ellen 13945
nen 13937
jedem 13932
Ausschuss 13920
km 13912
wegen 13892
Rück@@ 13889
C 13882
Erweiterung 13811
ar 13795
Jahres 13794
gebracht 13794
kon@@ 13759
mit@@ 13757
4@@ 13752
ges 13714
Russland 13703
hinsichtlich 13700
che 13690
verbunden 13684
Ge@@ 13648
12 13647
100 13632
je 13600
os 13574
se@@ 13560
Minuten 13542
Beitrag 13527
Neu@@ 13516
Sicherheits@@ 13505
_ 13497
per 13493
zen 13484
Schaffung 13465
gab 13444
zeigen 13417
jede 13412
ischer 13409
ziehen 13401
unseres 13392
Regierungen 13388
zi@@ 13387
Preis 13379
Verbesserung 13374
ben 13364
men 13353
Projekt 13272
konnte 13247
bekommen 13236
enthalten 13228
Mal 13217
ko@@ 13213
sche 13202
em@@ 13178
au@@ 13139
Einsatz 13138
Verbindung 13122
befinden 13120
lässt 13112
derzeit 13111
Notwendigkeit 13085
Verbraucher 13073
wirtschaftliche 13068
Landes 13059
ermöglichen 13021
ber@@ 13017
besch@@ 13014
Lösungen 12971
wohl 12962
ene 12959
fördern 12950
18@@ 12942
ur@@ 12935
richtig 12931
Nach@@ 12929
gt 12910
Blick 12907
EN 12896
cht 12876
it@@ 12875
wichtigsten 12859
* 12843
wobei 12842
jedes 12829
Interessen 12820
Lissabon 12812
soziale 12811
Restaurant 12809
Zum 12790
us 12788
Nutzung 12751
Gelegenheit 12735
Seit 12684
verbessern 12683
legen 12674
h 12662
genommen 12659
Geschäfts@@ 12658
Ergebnisse 12642
den@@ 12619
Zentrum 12593
Bau@@ 12572
2006 12565
Vor 12557
Wasser@@ 12556
is@@ 12555
S 12522
neu 12520
enthält 12516
Damit 12498
Ent@@ 12493
25 12465
ö@@ 12446
kleine 12439
tatsächlich 12353
Wort 12339
Platz 12331
X@@ 12328
ung@@ 12319
völlig 12312
00 12293
liches 12290
angenommen 12243
gern 12229
for 12223
Gesundheit 12219
ke 12218
9 12209
meinem 12183
Kon@@ 12182
Mar@@ 12168
+ 12154
dern 12132
B 12124
Text 12116
bestehen 12098
Verwendung 12082
D 12077
mehrere 12074
ber 12073
Unser 12069
zusammen@@ 12065
ganzen 12064
großer 12044
us@@ 12040
Wachstum 12038
Themen 12038
Ar@@ 12037
Zeitpunkt 12024
T 12000
Einführung 11972
la@@ 11954
Darüber 11949
Frankreich 11925
eigene 11920
hin@@ 11917
Änderungen 11906
schriftlich 11901
tige 11875
Bekämpfung 11834
Initiative 11832
Umwelt 11821
gerne 11817
ganze 11813
sorgen 11812
ak@@ 11797
Woche 11795
gewährleisten 11794
baren 11747
fünf 11731
ck@@ 11725
Kampf 11704
verwenden 11702
Bitte 11692
entwickeln 11664
tischen 11663
Prozess 11654
Di@@ 11652
Fortschritte 11650
lediglich 11635
äußerst 11634
verstehen 11629
zurück 11625
bei@@ 11624
2@@ 11623
z.B. 11593
verfügen 11586
gesch@@ 11575
guten 11569
wei@@ 11557
bi@@ 11549
Partner 11549
Erachtens 11525
obwohl 11524
rund 11523
anderer 11521
gehören 11520
zunächst 11518
bisher 11502
fest 11499
Kultur 11488
halte 11465
Kommissarin 11457
tern 11452
treffen 11444
Wert 11433
Stunden 11402
scheint 11399
meines 11399
ationen 11396
bestimmte 11394
versuchen 11378
Steuer@@ 11375
einschließlich 11350
5@@ 11343
Umwelt@@ 11326
Person 11318
c 11283
gemäß 11272
gleich 11268
Investitionen 11248
Mehrheit 11246
neben 11220
Mail 11219
her@@ 11210
Industrie 11204
ändern 11195
len 11181
bare 11178
sen@@ 11159
Mitglied 11149
Ro@@ 11149
ation 11147
ek@@ 11140
Zahl 11130
p 11126
as@@ 11126
Dinge 11118
Erklärung 11105
Bestimmungen 11099
gung 11064
stand 11064
40 11060
Gewalt 11059
Integration 11047
ag@@ 11039
Juni 11034
Programme 11019
ausge@@ 11012
Aktivitäten 11005
Entscheidungen 10995
ß@@ 10990
sagte 10987
zweite 10985
gesamte 10977
Anzahl 10975
24 10963
zeit 10962
Anfang 10961
aten 10961
maßnahmen 10958
O 10944
bestimmten 10933
hohen 10929
vergangenen 10907
bringt 10897
Dialog 10884
Während 10884
gesetzt 10878
Vorschriften 10877
gi@@ 10854
2005 10852
Handel 10849
solchen 10840
tigen 10827
Erfahrung 10825
fordern 10808
stark 10801
ieren 10798
Tage 10790
Par@@ 10781
ta@@ 10771
nimmt 10766
gar 10765
är@@ 10750
Wahl 10741
erster 10726
Beschäftigung 10718
anzu@@ 10717
geb@@ 10712
nie 10706
land 10700
ot@@ 10700
somit 10699
Dabei 10693
me 10689
it 10670
000 10668
Gefahr 10665
Produktion 10642
chten 10633
isches 10627
ges@@ 10620
systeme 10620
Familie 10618
Macht 10615
Standpunkt 10610
Y@@ 10610
Angebot 10606
später 10593
tische 10593
sti@@ 10592
Punkte 10591
Mai 10586
mein 10581
Aufmerksamkeit 10580
Herzen 10578
tet 10552
6@@ 10549
einzu@@ 10526
Raum 10519
Sprache 10513
angesichts 10511
Freiheit 10510
Energie 10507
ff@@ 10507
suchen 10484
leisten 10484
aufgenommen 10478
Grenzen 10472
Haushalts@@ 10467
ster 10454
Nationen 10454
Hand 10445
europäischer 10445
Folgen 10443
dadurch 10434
einzige 10411
2004 10406
Position 10393
® 10381
außerdem 10363
Landwirtschaft 10362
op@@ 10362
Mitarbeiter 10362
Bild 10357
are 10350
tung 10350
Funktion 10342
Präsidenten 10328
Regeln 10327
Dezember 10323
größten 10297
Berichts 10296
é@@ 10296
all@@ 10296
Bereiche 10292
schließlich 10289
Stelle 10275
geschlossen 10268
insgesamt 10264
programm 10258
fahren 10245
Bildung 10244
mal 10239
ma@@ 10228
hohe 10224
setzt 10222
ul@@ 10210
Sp@@ 10205
iert 10201
Transparenz 10195
Wettbewerb 10183
zweiten 10172
Diskussion 10169
Markt@@ 10155
eb@@ 10145
September 10132
Bo@@ 10117
Präsidentschaft 10115
Bemühungen 10115
getan 10106
ell 10106
sieht 10102
Preise 10085
ed@@ 10073
tiger 10072
Gemeinschafts@@ 10058
lichkeit 10051
Auswahl 10041
zahlreiche 10036
neuer 10026
wichtiger 10016
Spiel 10011
ad@@ 10003
Anforderungen 10002
Auffassung 9984
leider 9971
Schlusselwortern 9969
innen 9966
Projekte 9958
Wasser 9955
Ansatz 9942
ender 9941
weder 9933
2003 9933
Online 9904
Pro@@ 9893
Meine 9891
begrüße 9889
Umgebung 9884
frei 9881
öffentliche 9878
Tagesordnung 9875
1. 9869
0@@ 9866
beitragen 9864
ts@@ 9839
leicht 9833
zehn 9831
Öffentlichkeit 9803
ze 9802
eigentlich 9799
En@@ 9798
bevor 9786
Natur 9779
Gründen 9774
versch@@ 9769
ali@@ 9750
lang 9746
Kraft 9738
Bürgern 9733
allein 9727
fer@@ 9727
diejenigen 9715
führung 9714
2001 9708
Nur 9694
Meer 9694
Anfrage 9693
ihres 9691
ker 9687
März 9678
bezüglich 9671
genannten 9659
ol@@ 9658
morgen 9641
by 9634
eingesetzt 9632
Sache 9595
aktuellen 9585
Änderung 9572
G 9561
konnten 9558
durchgeführt 9556
hätten 9547
Fehler 9535
Sinne 9531
Linie 9529
verfahren 9526
Bürgerinnen 9526
Bar@@ 9510
verhindern 9489
erwarten 9483
hoch@@ 9476
Druck 9474
benötigen 9468
sch 9457
Benutzer 9456
lei@@ 9452
lo@@ 9442
teilen 9438
Mo@@ 9435
kannst 9435
Ma@@ 9434
erneut 9415
Fällen 9410
ru@@ 9405
di 9405
ne@@ 9396
stimmen 9378
del 9374
ations@@ 9367
Monaten 9357
weisen 9330
berücksichtigt 9329
Man@@ 9310
eh@@ 9292
gelten 9288
Höhe 9285
Rechtsvorschriften 9276
Tat 9270
om@@ 9267
Gäste 9265
Finanzierung 9260
K 9259
geworden 9257
möglichkeiten 9251
tungs@@ 9250
größte 9238
Entwicklungs@@ 9237
Januar 9232
behandelt 9225
18 9211
eben 9206
Reform 9204
Ressourcen 9194
eher 9177
kurz 9172
Ex@@ 9166
freien 9165
weise 9161
entsprechenden 9150
genießen 9150
wenige 9143
Heute 9140
det 9139
gefunden 9134
Jahrhundert 9129
Natürlich 9121
Design 9119
Sozial@@ 9118
Server 9115
warum 9113
11 9108
weiter@@ 9103
ausgestattet 9089
ens@@ 9077
Nr. 9072
7@@ 9056
Zweitens 9043
hei@@ 9037
wer@@ 9036
2002 8997
Republik 8997
Oktober 8990
Konferenz 8988
folgt 8984
lage 8979
vergessen 8969
tieren 8961
8@@ 8949
Bi@@ 8946
tungen 8934
TV 8933
vertreten 8931
zumindest 8930
Arbeitnehmer 8919
Insel 8913
Bar 8896
Aspekte 8889
Sicht 8886
tliche 8881
versucht 8879
P 8862
eg@@ 8860
demokratischen 8852
fallen 8848
Lebens@@ 8842
vi@@ 8840
kosten 8839
Behandlung 8839
ka 8837
lösen 8833
richtige 8831
ut@@ 8831
einge@@ 8830
tan@@ 8813
ner 8807
M 8804
Herausforderungen 8800
14 8798
Organisation 8797
Se@@ 8791
ing@@ 8788
Berichterstatterin 8787
Parteien 8786
überhaupt 8776
Basis 8773
one 8773
Italien 8770
Angelegenheit 8767
Angelegenheiten 8764
Ch@@ 8756
Team 8755
gende 8754
Vertrauen 8750
schützen 8743
ap@@ 8727
mittel 8723
Welt@@ 8722
Werte 8716
Milliarden 8715
16 8702
geschaffen 8689
entsprechend 8681
Vergangenheit 8675
9@@ 8671
il@@ 8667
zahlen 8665
erklärt 8661
Spanien 8653
erfüllen 8652
Zur 8649
est@@ 8646
gewesen 8639
Schwierigkeiten 8634
Fach@@ 8632
Lassen 8622
heit 8621
gesehen 8612
Arbeitsplätze 8610
Solidarität 8606
technischen 8600
endlich 8595
aufge@@ 8593
&gt; 8580
bessere 8570
.com 8565
Strand 8562
Beginn 8549
hinter 8547
nahe 8536
Staat 8531
Tagen 8528
0 8527
Spiel@@ 8525
tig 8523
Hinsicht 8522
besondere 8518
verantwortlich 8511
Windows 8507
sh@@ 8503
mo@@ 8494
Annahme 8489
verpflichtet 8488
Musik 8488
hoch 8483
Handels@@ 8483
frage 8479
genug 8472
F 8472
Dateien 8470
IT 8468
Vertreter 8460
Küche 8456
Gruppen 8455
anderem 8452
Juli 8449
fe 8438
EUR 8437
Datei 8437
Mit@@ 8436
Schritte 8431
häufig 8428
Frieden 8425
Armut 8419
sofort 8415
fest@@ 8414
paar 8408
Verkehrs@@ 8395
falls 8391
her 8390
erinnern 8388
Opfer 8383
vollständig 8381
kennen 8380
Wochen 8380
November 8379
privaten 8376
lesen 8373
Systems 8363
AG 8361
reichen 8357
Technologie 8350
Land@@ 8349
treten 8348
Forschungs@@ 8339
heutigen 8335
ach@@ 8331
amerikanischen 8330
erfolgreich 8329
Hoch@@ 8325
GmbH 8325
Bilder 8323
Erfahrungen 8320
Firma 8314
60 8312
ca. 8312
L 8311
genden 8304
Daten@@ 8304
cken 8300
Verpflichtungen 8290
außerhalb 8285
wählen 8285
da@@ 8281
ine 8277
vorgeschlagen 8269
Erstens 8264
end@@ 8264
hören 8252
Nicht 8252
Staats@@ 8251
Verfassung 8247
darstellt 8230
trotz 8221
Inhalt 8213
Obwohl 8210
B. 8204
bewusst 8198
jeweiligen 8193
begrüßen 8187
erfolgt 8185
Anstrengungen 8181
Allerdings 8168
Reformen 8168
Krieg 8162
stärker 8161
ben@@ 8157
allgemeinen 8157
Viele 8157
globalen 8157
Du 8156
Gästebewertungen 8156
Unter 8145
Organisationen 8144
ran@@ 8144
kan@@ 8142
with 8141
Information 8140
ft 8137
eindeutig 8133
stets 8129
ären 8127
letzte 8124
R 8119
Terrorismus 8119
aufzu@@ 8117
beste 8117
entscheiden 8116
Praxis 8115
Gra@@ 8113
genutzt 8106
13 8105
Wahlen 8105
An 8102
schwer 8094
modernen 8094
Groß@@ 8093
Partei 8090
Sonder@@ 8085
wi@@ 8080
unten 8079
Co@@ 8076
Binnenmarkt 8068
tem 8063
man@@ 8062
gekommen 8060
sektor 8050
ente 8047
übernehmen 8039
scher 8037
neues 8036
z. 8032
1999 8025
Selbst@@ 8021
aler 8000
Kriterien 7995
un 7993
Sitzung 7991
erwartet 7990
sechs 7988
Dollar 7987
Folge 7982
Prozent 7976
Protokoll 7972
nationale 7968
zahlreichen 7964
Vereinbarung 7964
ell@@ 7964
mi@@ 7963
bitten 7962
ing 7957
ern@@ 7955
größere 7943
historischen 7940
folgenden 7939
Einige 7938
deine 7937
Berlin 7935
April 7934
vorgelegt 7932
folgen 7931
erkennen 7929
do 7918
Aufgaben 7904
Denn 7898
ate 7898
tre@@ 7892
Mittel@@ 7890
que 7890
danke 7888
bilden 7886
wahrscheinlich 7884
= 7880
seines 7871
V 7870
Haushalt 7863
im@@ 7860
Anerkennung 7859
Stabilität 7858
Wann 7851
X 7847
Zustimmung 7836
stell@@ 7835
weg 7834
Ausschuß 7832
bau 7828
v 7826
Den 7825
cher 7823
Falle 7799
Dazu 7798
Gesundheits@@ 7793
U 7793
hotel 7793
Li@@ 7785
zudem 7781
Einrichtung 7781
Gesamt@@ 7771
Instrument 7770
beide 7768
Sektor 7758
volle 7758
schaft 7757
deutschen 7744
überzeugt 7742
teile 7742
auszu@@ 7741
€ 7740
persönlichen 7739
Gipfel 7737
tions@@ 7735
glauben 7733
mer 7731
ina 7731
denken 7730
offen 7720
Urlaub 7718
dringend 7717
berücksichtigen 7715
gleich@@ 7710
usw. 7703
gesprochen 7695
ati@@ 7695
Adresse 7692
Le@@ 7687
Wunsch 7686
Flughafen 7683
ausschließlich 7680
De@@ 7680
tete 7674
ums 7672
erlaubt 7667
wert 7663
hinweisen 7651
alte 7649
Nun 7648
sicherzustellen 7647
voll@@ 7640
kam 7633
zusätzliche 7623
welches 7622
fer 7621
Idee 7616
kaum 7614
Verwaltung 7609
prüfen 7606
Tra@@ 7605
ac@@ 7597
Rei@@ 7589
abzu@@ 7585
Mitteilung 7584
Volk 7583
beginnen 7578
möglicherweise 7577
tiert 7563
Mon@@ 7560
gezeigt 7557
hal@@ 7555
ort 7554
Fahr@@ 7552
17@@ 7552
Systeme 7547
to@@ 7547
Atmosphäre 7543
La 7542
Osten 7541
erwähnt 7540
unbedingt 7539
Vorteile 7539
oben 7538
industrie 7535
Flug@@ 7525
Wettbewerbsfähigkeit 7523
prozess 7523
Unterkategorien 7518
gleiche 7512
Po@@ 7512
Dann 7503
tlichen 7497
Durchführung 7493
werk 7492
Site 7490
stelle 7470
Her@@ 7470
ständig 7461
hoffen 7459
pro@@ 7459
akzeptieren 7458
bestehenden 7456
hält 7454
Nutzen 7452
finanziellen 7452
ur 7450
bald 7449
ging 7444
Schließlich 7442
Kinder@@ 7440
zer@@ 7438
Ihres 7430
Haltung 7428
selbstverständlich 7425
200 7421
tsch@@ 7414
80 7413
lagen 7410
les 7406
Technologien 7402
automatisch 7399
Vertrags 7396
tion@@ 7394
Falls 7393
ergreifen 7392
entspricht 7389
Preis@@ 7384
au 7384
anders 7377
N 7376
erzielt 7371
kommenden 7370
ra 7351
getroffen 7346
gerecht 7340
Aufenthalt 7338
gs 7336
Zunächst 7330
Lo@@ 7329
mindestens 7321
ck 7320
wesentlich 7315
Hause 7312
Wei@@ 7308
umgesetzt 7307
qu@@ 7307
Medien 7305
tz@@ 7302
Gebäude 7300
Irak 7293
Ko@@ 7292
politischer 7291
Leute 7291
eller 7291
jene 7288
gel 7286
Sterne 7281
unterschiedlichen 7278
Bei@@ 7273
benutzt 7272
stimme 7254
Ist 7250
and@@ 7249
form@@ 7247
Menschenrechts@@ 7233
notwendigen 7230
Einzel@@ 7213
Restaurants 7208
Israel 7204
Vereinten 7196
men@@ 7195
entsprechende 7192
Wer 7191
Ber@@ 7189
ir@@ 7189
aktuelle 7187
festgelegt 7176
par@@ 7176
alität 7175
500 7160
Produkt 7155
richten 7152
nachdem 7151
Produktions@@ 7150
Augen 7142
lernen 7138
wünschen 7138
laufen 7133
abge@@ 7127
stärken 7123
Chance 7111
Tri@@ 7106
pf@@ 7099
ni@@ 7090
moderne 7090
lose 7081
ig@@ 7079
än@@ 7077
geändert 7072
chte 7069
bedarf 7063
Th@@ 7054
Kultur@@ 7053
zuletzt 7053
New 7052
Lei@@ 7049
Homepage 7047
mon@@ 7038
Frühstück 7036
braucht 7034
Spieler 7034
Neben 7033
platz 7020
äre 7019
verfolgen 7014
Zusammen@@ 7011
Ri@@ 7006
Funktionen 7006
erfüllt 7004
wären 7003
beziehen 7002
Ru@@ 6989
bau@@ 6985
tu@@ 6981
Produkten 6980
dienen 6977
Forderung 6976
senden 6975
Inter@@ 6971
aktiv 6970
Zudem 6966
erhöhen 6964
Initiativen 6963
Ak@@ 6961
sage 6957
vermeiden 6957
erzielen 6953
Mitgliedstaat 6948
Ausgaben 6946
barkeit 6945
übernachten 6941
freie 6939
www.@@ 6939
Karte 6936
fort@@ 6932
dar@@ 6931
sa@@ 6930
Dis@@ 6930
Stadt@@ 6918
bel@@ 6916
Computer 6916
mehreren 6914
Kar@@ 6912
re 6911
bestimmt 6910
betonen 6909
technische 6907
handeln 6906
Instrumente 6894
sicherlich 6892
Einfluss 6888
wer 6887
vollen 6881
ales 6874
ster@@ 6869
Ausbildung 6860
klare 6853
Abschließend 6853
Qu@@ 6852
ma 6851
Kern@@ 6849
genannt 6842
no@@ 6842
erfahren 6837
zeiten 6836
besonderen 6834
Währung 6834
siert 6829
é 6829
Management 6819
Kor@@ 6811
rechts 6801
Kenntnis 6795
stellung 6793
lan@@ 6789
Zeichen 6787
Berichte 6786
nisse 6786
außer 6782
trägt 6782
Fonds 6781
erungs@@ 6779
darunter 6779
hi@@ 6776
entschieden 6773
Abgeordnete 6771
17 6767
ssen 6759
.. 6757
siehe 6754
wieder@@ 6750
arbeitet 6749
arbeit 6748
Regelung 6747
kt 6745
Inhalte 6730
Stimme 6729
anderes 6726
Kur@@ 6724
beschlossen 6719
zwei@@ 6718
Monate 6717
Veränderungen 6716
verfügbar 6712
vorgesehen 6709
Anspruch 6707
so@@ 6702
Vielfalt 6692
gefordert 6692
Großbritannien 6689
Verwaltungs@@ 6682
verbessert 6676
Iran 6674
Einrichtungen 6670
Qualitäts@@ 6658
à 6653
gend 6644
erk@@ 6642
Konzept 6625
konkrete 6621
Beitritt 6620
Tätigkeit 6616
Kindern 6616
finanzielle 6611
Hand@@ 6610
tlich 6601
San 6599
benutzen 6597
Produkt@@ 6597
els 6592
Einigung 6592
Über 6587
ier@@ 6584
Abschluss 6583
alisierung 6579
systems 6578
Anwendungen 6578
So@@ 6576
ismus 6574
Bad 6573
sierung 6568
erter 6566
ß 6561
Engagement 6560
schreiben 6560
gew@@ 6558
do@@ 6556
Wege 6553
voller 6551
Informations@@ 6549
sagt 6548
hen 6538
rechte 6536
bes@@ 6534
freue 6530
gten 6530
funktioniert 6524
ah@@ 6524
teten 6522
inter@@ 6522
Hotel@@ 6522
rä@@ 6518
fällt 6515
wider@@ 6512
Familien 6512
tra@@ 6506
durchaus 6505
Gebieten 6500
ari@@ 6499
enz@@ 6499
Herausforderung 6495
ci@@ 6491
darstellen 6488
Privat@@ 6487
Suche 6480
Besuch 6476
kl@@ 6473
konzentrieren 6472
H 6471
Angesichts 6470
gelangen 6464
Zeitraum 6463
klicken 6460
verkehr 6443
enten 6432
möglichen 6430
Stellungnahme 6429
Modell 6427
Achtung 6427
entweder 6426
Ad@@ 6424
Gu@@ 6418
dagegen 6415
Vi@@ 6410
ex@@ 6402
richtigen 6401
endes 6398
Car@@ 6397
erklären 6393
Prioritäten 6391
ms 6390
Gemeinsamen 6389
Warum 6387
Natur@@ 6386
Paris 6385
me@@ 6384
ha@@ 6382
Dienste 6380
Rede 6379
freuen 6377
Griechenland 6376
Standards 6373
ans 6371
Web 6371
Wohn@@ 6371
Lesung 6370
Zweifel 6370
ausdrücklich 6368
euch 6362
Stärkung 6360
Leistungen 6353
Menge 6349
Programms 6345
Einhaltung 6344
ant 6343
Jetzt 6340
Fischerei@@ 6340
Antrag 6334
Forderungen 6331
schi@@ 6330
gewährleistet 6328
Worte 6325
online 6324
betrachtet 6320
Web@@ 6319
möglichst 6316
erstellt 6309
Arbeitslosigkeit 6307
ation@@ 6305
oren 6302
Afrika 6301
lokalen 6300
wollte 6298
ob@@ 6297
po@@ 6294
bedingungen 6292
Kontakt 6288
Japan 6286
spielt 6284
Ukraine 6281
Sk@@ 6280
Dennoch 6277
Ober@@ 6276
langen 6271
erenden 6266
geleistet 6263
Vergleich 6263
mu@@ 6262
90 6260
per@@ 6260
Straße 6258
gelegen 6254
eingehen 6253
diskutieren 6252
Sommer 6251
gewinnen 6249
welcher 6244
Park 6244
teilweise 6237
regionalen 6236
verb@@ 6236
positive 6232
kulturellen 6232
Wahl@@ 6230
Wein@@ 6230
pp@@ 6229
Sprachen 6227
geschehen 6226
mm 6220
Sorge 6214
ent 6214
ang 6209
70 6208
ser 6207
1@@ 6206
Familien@@ 6205
len@@ 6204
Mio. 6199
einiger 6196
1.@@ 6196
warten 6194
zei@@ 6191
Arbeiten 6189
prä@@ 6188
ER 6185
PC 6185
schwierig 6180
eng@@ 6180
Kunst 6179
Aufnahme 6172
tionen 6167
Teile 6165
wenden 6164
gte 6161
Zeiten 6160
Leider 6156
jederzeit 6154
starke 6154
AN@@ 6151
Zweck 6147
21 6137
00@@ 6135
chen@@ 6134
speziell 6130
fall 6128
unabhängig 6123
erfolgen 6123
nächste 6122
demokratische 6121
Analyse 6116
Vielen 6114
programme 6111
Aspekt 6110
verfolgt 6108
ons 6108
erleben 6107
gelegt 6107
Au@@ 6105
Hauses 6103
feststellen 6101
sches 6097
Bild@@ 6096
stoffe 6095
Februar 6093
Partnerschaft 6092
Standard 6088
Reise@@ 6086
gegenwärtigen 6084
informieren 6077
fi@@ 6076
Schweiz 6074
teil@@ 6072
eu@@ 6072
angezeigt 6071
achten 6064
Status 6062
und@@ 6058
ator 6057
Entwicklungen 6055
ses 6055
dank 6050
gegenwärtig 6049
laden 6046
geh@@ 6038
Dokument 6036
ungsp@@ 6031
Webseite 6031
geeignet 6029
Paket 6026
hingewiesen 6023
markt 6022
Bel@@ 6021
Globalisierung 6016
Or@@ 6012
führenden 6005
Stand 6004
lin@@ 6003
Überwachung 6001
bel 5997
erscheint 5995
Banken 5986
angesprochen 5982
profitieren 5974
tätig 5968
unterstütze 5965
Kunst@@ 5960
CD 5959
Indien 5958
gestalten 5955
liebe 5954
entstehen 5951
Ja 5947
jeweils 5946
dennoch 5945
WTO 5941
Priorität 5940
wenigen 5938
Angaben 5936
Kunden@@ 5933
Hintergrund 5932
Agrar@@ 5931
no 5931
benötigt 5930
ca 5923
Irland 5921
übrigen 5920
fordert 5919
ungs- 5919
ßen 5918
losen 5916
Polen 5916
folgende 5914
Schutz@@ 5911
Verpflichtung 5909
Berg@@ 5909
Problemen 5907
unterschiedliche 5903
legt 5903
Beschäftigungs@@ 5897
Debian 5889
Wissen 5887
Su@@ 5884
ok@@ 5883
Euro@@ 5883
mann 5882
daten 5882
Con@@ 5881
Richtlinien 5879
Meiner 5878
Schul@@ 5872
erstellen 5872
enn@@ 5870
ie@@ 5869
lau@@ 5867
Fortschritt 5863
Pi@@ 5863
veröffentlicht 5861
Tier@@ 5857
Bewertung 5856
führte 5856
Märkte 5850
Gleichzeitig 5848
22 5843
acht 5838
Texte 5835
Brüssel 5835
besuchen 5835
w 5832
Regelungen 5830
einsetzen 5828
überprüfen 5828
absolut 5826
ften 5823
19@@ 5817
á@@ 5813
eingeführt 5812
erforderlichen 5811
Mitte 5807
sichern 5802
Gegen@@ 5799
raum 5797
Herstellung 5795
W 5795
läuft 5793
19 5792
Energie@@ 5789
ce 5785
ou@@ 5783
Innovation 5783
täglich 5781
Politiker 5780
mer@@ 5779
anischen 5775
Zeit@@ 5774
weiterer 5772
vorliegenden 5769
Personal 5767
Rechnung 5765
eingerichtet 5761
Wel@@ 5761
vorhanden 5754
Grenz@@ 5751
Österreich 5749
Gesetz 5748
20@@ 5746
positiv 5746
Mitteln 5745
Worten 5743
heiten 5737
Stellen 5734
Beteiligung 5733
Kosovo 5733
ep@@ 5730
Jahrhunderts 5728
Arten 5723
erungen 5715
fahr@@ 5709
umfasst 5708
Anteil 5704
teil 5703
UN 5700
umfassende 5696
Formen 5695
art 5694
Meter 5692
miteinander 5690
Entwurf 5689
offensichtlich 5688
Linux 5688
verbundenen 5683
Do@@ 5683
werte 5679
links 5677
gebiet 5675
ER@@ 5672
ien 5668
etc. 5667
deten 5663
{ 5663
sicherheit 5659
ess@@ 5659
persönlich 5655
ertes 5649
verlassen 5645
Geschäftsordnung 5641
Elemente 5639
Sa@@ 5639
französischen 5635
Maße 5632
spricht 5629
est 5629
Kompromiss 5628
beteiligt 5626
Barcelona 5625
Erklärungen 5620
Verkehr 5618
Kritik 5617
Prinzip 5616
Moment 5613
Europäer 5613
jüngsten 5608
Sport@@ 5606
stellte 5605
Bedürfnisse 5605
aufmerksam 5604
August 5604
britischen 5601
größeren 5594
Sinn 5591
wesentlichen 5587
15@@ 5586
ven 5586
Kommunikation 5583
alismus 5581
Risiken 5580
internationaler 5576
stre@@ 5571
300 5570
Ideen 5569
Agentur 5569
schutz@@ 5561
Gründe 5560
bestätigt 5555
Fest@@ 5554
Hersteller 5553
27 5544
nennen 5543
Regel 5541
sämtliche 5540
ori@@ 5538
zufrieden 5532
Video 5531
zentrale 5528
Vielzahl 5527
ierung 5526
Booking.com 5525
ana 5524
angeboten 5521
Garten 5520
betrachten 5519
politisch 5518
dient 5512
II 5512
mittel@@ 5509
nationaler 5508
geschützt 5504
Grundsatz 5500
Umfang 5500
ho@@ 5498
stattfinden 5497
kaufen 5497
Beihilfen 5495
Abend 5494
gelöst 5488
schließen 5487
Besucher 5487
ler@@ 5486
Aktionen 5483
garantiert 5482
bo@@ 5478
Entschließungsantrag 5473
ad 5468
Ni@@ 5466
Prä@@ 5464
lichem 5457
1998 5456
Am@@ 5454
tiges 5454
rechtlichen 5449
keinerlei 5448
zug 5447
London 5447
Empfehlungen 5445
Agenda 5443
staatlichen 5441
Installation 5440
ausreichend 5437
ologie 5437
solcher 5433
Absatz 5431
Verhältnis 5430
Hoffnung 5426
länger 5425
Stil 5418
starken 5417
Fraktionen 5414
Gebiete 5405
West@@ 5402
Bu@@ 5401
Botschaft 5400
Treffen 5398
testen 5397
schlagen 5396
land@@ 5395
d. 5394
zentrum 5387
überall 5381
tsp@@ 5376
EN@@ 5375
globale 5372
Druck@@ 5371
fahrt 5370
Realität 5367
anlagen 5367
unbe@@ 5367
h. 5366
tik@@ 5362
Ö@@ 5357
stehenden 5355
Außen@@ 5353
gang 5351
fähigkeit 5350
Bank 5350
vorgeschlagenen 5348
Komfort 5345
Risiko 5343
wirken 5340
Mor@@ 5340
finde 5335
La@@ 5335
Ereignisse 5333
Unternehmens@@ 5329
Klein@@ 5327
Flexibilität 5326
Mitgliedern 5320
Monat 5318
großes 5318
ph@@ 5318
Niveau 5316
su@@ 5316
nachhaltige 5312
erhält 5312
kraft 5311
groß 5309
cht@@ 5307
Terrasse 5299
danach 5294
erfordert 5294
co 5293
tä@@ 5291
einfache 5290
tik 5287
Lu@@ 5286
allgemeine 5285
Liberalisierung 5283
rei@@ 5282
spezielle 5279
tr@@ 5278
Zei@@ 5277
ta 5276
schönen 5275
garantieren 5273
du@@ 5273
ss@@ 5273
Kirche 5271
reden 5266
res 5266
san@@ 5265
ST@@ 5264
verloren 5261
ausschuss 5261
elles 5260
Verständnis 5259
ungs 5252
Leistung 5248
mm@@ 5246
betroffenen 5246
Klima@@ 5245
daraus 5237
enz 5237
Grunde 5234
Geld@@ 5234
gruppen 5233
Führung 5231
festgestellt 5227
ren 5227
entsprechen 5227
übertragen 5223
angeht 5219
Wer@@ 5217
länder 5216
Gegenteil 5215
vorschlagen 5214
beinhaltet 5214
gegründet 5211
uner@@ 5209
ES 5209
Eindruck 5207
} 5205
nahme 5201
No@@ 5200
Betrieb 5199
Erhöhung 5195
gef@@ 5193
rechten 5192
stra@@ 5192
schutz 5191
rück@@ 5189
go 5188
betroffen 5185
Beschreibung 5184
einverstanden 5178
Gas@@ 5177
abgeschlossen 5171
schaften 5171
feld 5171
tisch 5169
lä@@ 5169
16@@ 5166
Aufbau 5164
Patienten 5163
Königreich 5162
gem@@ 5161
geschieht 5160
Luft@@ 5158
Methode 5154
Infrastruktur 5150
Gesetzgebung 5150
Koordinierung 5149
Auto 5148
Titel 5148
bezeichnet 5142
erhöht 5140
Gegensatz 5140
zählen 5138
satz 5137
from 5137
Jeder 5134
Nord@@ 5134
Diskriminierung 5131
Unabhängigkeit 5126
Mi@@ 5122
steigen 5122
strategie 5121
mittels 5120
trag@@ 5112
zuvor 5109
35 5108
rat 5104
Größe 5101
Überprüfung 5100
Voraussetzungen 5098
Ho@@ 5093
1,@@ 5091
Phase 5090
See 5088
Gen@@ 5087
He@@ 5084
Internationalen 5082
Bundes@@ 5079
wirtschaft 5077
informiert 5074
Prüfung 5073
Br@@ 5073
zen@@ 5067
gehalten 5064
besseren 5063
besitzt 5059
Sal@@ 5059
mp@@ 5058
Name 5058
einzigen 5056
wichtigste 5055
gutes 5052
End@@ 5052
Hinweis 5051
punkt 5049
Teilen 5042
gruppe 5040
Business 5039
reagieren 5036
23 5035
manchmal 5032
echte 5031
ität 5025
wodurch 5025
All 5023
Tre@@ 5023
Klimawandel 5022
Reaktion 5020
IT@@ 5020
sor@@ 5017
mel@@ 5017
kre@@ 5014
beginnt 5014
Tradition 5012
son 5010
ich@@ 5009
Sehenswürdigkeiten 5009
gu@@ 5007
speziellen 5006
Wirkung 5001
bewegen 5001
haften 4997
produktion 4995
zusätzlich 4993
diskutiert 4991
you 4991
Ebenso 4989
go@@ 4989
empfehlen 4989
# 4989
aren 4987
lig 4986
Villa 4985
Durch@@ 4983
rü@@ 4982
tn@@ 4980
greifen 4979
geschrieben 4978
Kontroll@@ 4977
hauptsächlich 4977
Universität 4975
Not@@ 4969
reisen 4968
digen 4967
einander 4967
ör@@ 4966
Sanktionen 4966
Netzwerk 4965
ES@@ 4962
reich@@ 4961
mag 4958
IN@@ 4955
haus 4953
Anpassung 4952
Innen@@ 4951
betont 4950
AR@@ 4950
relativ 4948
Hälfte 4947
zugleich 4947
Grundrechte 4946
jungen 4945
tel@@ 4944
Bestandteil 4941
Mindest@@ 4940
Zahlen 4939
ters 4938
andererseits 4936
ren@@ 4936
Mann 4935
Willen 4932
lungs@@ 4931
erende 4931
ländlichen 4927
Film 4926
2.@@ 4926
sicherstellen 4925
Technik 4925
2. 4924
Q@@ 4920
j 4919
cke 4914
positiven 4913
kürzlich 4910
Klicken 4909
ständigen 4907
Fähigkeit 4905
10@@ 4905
Museum 4903
glichen 4899
Betriebs@@ 4895
jährlich 4893
$ 4892
Zahlungs@@ 4891
reicht 4890
sieren 4888
Per@@ 4888
Begriff 4886
Vorteil 4884
derzeitigen 4883
Vertrags@@ 4882
Einklang 4881
alt 4877
Bank@@ 4873
vollkommen 4872
Amsterdam 4870
kur@@ 4870
seitens 4867
EG 4867
isch@@ 4866
spezifischen 4865
Fälle 4863
Nutzer 4863
Dimension 4862
Bedarf 4862
Gar@@ 4859
ia 4857
regionale 4854
Welche 4853
stimmt 4850
onen 4850
arten 4848
war@@ 4848
bezieht 4846
lich@@ 4843
Strategien 4843
emp@@ 4841
mü@@ 4841
min@@ 4841
ischem 4841
International 4840
BIP 4839
Mark@@ 4839
Voll@@ 4835
Fuß 4835
Ger@@ 4832
trifft 4831
Anlagen 4830
Bedenken 4826
sse 4815
tri@@ 4814
Männer 4814
Hei@@ 4812
komplett 4811
nissen 4807
ino 4807
Tatsächlich 4804
Gesetze 4803
zustimmen 4799
damals 4799
UN@@ 4799
gra@@ 4798
Musik@@ 4797
Übereinkommen 4793
Unterschiede 4793
Firmen 4792
bekannten 4791
welchen 4791
Versuch 4787
praktisch 4786
sobald 4786
guter 4786
akzeptiert 4785
Struktur 4783
Diskussionen 4782
neu@@ 4782
Meeres@@ 4781
Dienst 4781
vielmehr 4780
zeit@@ 4780
nis@@ 4779
Option 4779
Kollege 4775
schneller 4772
ausschusses 4767
Post@@ 4767
verlieren 4765
1997 4760
for@@ 4760
persönliche 4759
unternommen 4755
Umständen 4748
weiteres 4746
verstärkt 4745
Methoden 4745
Plan 4743
Amerika 4742
Portugal 4740
Berücksichtigung 4738
Links 4737
Ordnung 4736
Grundsätze 4735
Ratspräsident 4735
Pal@@ 4735
gezogen 4732
Vorbereitung 4732
werke 4732
äu@@ 4731
abhängig 4730
Fotos 4727
Kraft@@ 4726
mögliche 4721
Gott 4721
beschäftigt 4718
Anliegen 4718
Seine 4716
gewisse 4715
gestern 4714
Leitlinien 4712
anten 4712
fühlen 4711
entwicklung 4710
Si@@ 4707
weltweiten 4706
Wirtschafts- 4705
befassen 4698
konkreten 4696
Reise 4696
AL@@ 4693
Kapital@@ 4692
Bal@@ 4692
lt 4691
komm@@ 4690
bern 4689
gewählt 4687
Trotz 4686
ec@@ 4684
zunehmend 4684
Öl@@ 4683
Cor@@ 4680
lung 4679
Nacht 4679
sto@@ 4678
Bis 4678
iz@@ 4678
betreffen 4675
spezifische 4672
kostenlos 4672
service 4672
Kan@@ 4671
seien 4670
ergeben 4669
ve 4669
Bildungs@@ 4668
nochmals 4664
Waren 4663
Bewegung 4657
Min@@ 4655
junge 4653
pi@@ 4651
mes 4649
zufolge 4647
Sport 4644
Städte 4643
u. 4642
verk@@ 4635
regelmäßig 4631
Fischerei 4631
welt 4631
Gefühl 4631
Nachdem 4630
Absch@@ 4628
dr@@ 4627
Erde 4627
Charakter 4626
Verträge 4623
Ausland 4618
Entwicklungsländern 4616
he 4614
Beifall 4612
Aussicht 4612
Generation 4609
Zwei@@ 4608
beachten 4608
management 4607
ei 4607
System@@ 4604
behandeln 4603
Haup@@ 4602
ys 4602
ierte 4602
To@@ 4602
19. 4599
tel 4598
hand@@ 4598
umfassenden 4597
früher 4594
geöffnet 4594
Verbrechen 4594
dritten 4593
anerkannt 4592
14@@ 4591
Grenze 4590
Inseln 4584
wichtiges 4582
berühmten 4582
Vielleicht 4581
barer 4580
verlangen 4578
herzlich 4577
fra@@ 4577
Effizienz 4577
sonst 4577
pl@@ 4576
Wieder@@ 4575
ann@@ 4573
haft 4573
Laufe 4572
Völker 4571
bar@@ 4570
traditionellen 4568
einzelne 4567
Studie 4562
Maßnahme 4562
Landwirte 4561
Beim 4560
Licht 4559
Ti@@ 4556
grundlegenden 4555
hafte 4554
Dokumente 4553
DE 4552
liefern 4550
Schlüssel@@ 4549
AT@@ 4549
Unternehmens 4548
Lebensmittel@@ 4545
see 4544
Voraussetzung 4540
Untersuchung 4540
Teil@@ 4540
Ä@@ 4538
keiner 4535
einerseits 4534
Teilnahme 4531
last 4531
Rechts 4530
rufen 4529
Weitere 4528
Antworten 4528
une 4528
übernommen 4527
sm@@ 4527
berei@@ 4527
zeichnet 4527
Empfehlung 4525
stoff 4525
AS@@ 4525
Aufgrund 4523
nötig 4518
This 4518
fonds 4517
ün@@ 4515
nis 4514
ür@@ 4513
Liefer@@ 4513
anbieten 4512
seite 4510
dienste 4509
gelungen 4508
Nahen 4508
tät 4507
berg 4507
deutsche 4506
Westen 4506
FR 4505
Club 4505
basiert 4503
Wegen 4501
mar@@ 4500
Unterkunft 4500
heraus@@ 4497
co@@ 4494
Tiere 4492
ehemaligen 4491
niemand 4489
ks 4489
net 4488
wiederum 4487
stes 4484
Services 4484
Absicht 4482
ds 4481
künftig 4479
staatliche 4477
uren 4472
he@@ 4471
höhere 4466
Ku@@ 4465
45 4465
Des@@ 4464
genauso 4462
istischen 4462
Delegation 4459
Sprach@@ 4458
ist@@ 4454
elt 4453
Eigen@@ 4445
deiner 4445
staaten 4444
Friedens@@ 4442
Mehr 4441
Agrarpolitik 4441
Wahrheit 4441
breite 4437
í@@ 4434
sam@@ 4434
Allgemeinen 4434
glich 4433
World 4430
amerikanische 4427
ches 4426
bildet 4426
stoff@@ 4425
21. 4424
etz@@ 4424
Verhalten 4423
menschlichen 4422
angemessen 4421
schöne 4419
cher@@ 4417
Ju@@ 4416
Geist 4416
fung 4412
Mein 4412
Kre@@ 4412
ideal 4412
private 4410
Definition 4410
bildung 4409
zweifellos 4407
regeln 4407
Test@@ 4406
leistungs@@ 4406
ideale 4406
Tagung 4405
ernst 4403
York 4402
hergestellt 4401
War@@ 4399
wesentliche 4399
Regime 4399
El@@ 4399
va 4399
tut 4398
mitteln 4398
Rezeption 4396
schwierigen 4393
IS@@ 4393
Pan@@ 4393
Por@@ 4392
karte 4392
rasch 4391
room 4391
dlich 4390
gkeit 4390
Gel@@ 4387
ener 4385
Ratsvorsitz 4385
bezug 4383
Dr. 4380
Wettbewerbs@@ 4376
lu@@ 4375
Buch 4372
jemand 4366
Nachfrage 4359
Abkommens 4359
Zustand 4357
Freude 4351
entwickelten 4351
Op@@ 4350
Vom 4347
ligen 4346
Ferner 4346
Normen 4345
gefördert 4344
Versch@@ 4344
Veranstaltungen 4342
bedeuten 4340
sieben 4340
av@@ 4340
Sti@@ 4340
fand 4330
hervor@@ 4330
Center 4330
legung 4329
Schäden 4327
Anti@@ 4327
ik 4325
Internet@@ 4324
gem 4320
tritt 4319
liste 4319
Angebote 4314
Kombination 4312
Schaden 4307
wissenschaftlichen 4303
gene 4301
Freunde 4298
Verfügbarkeit 4297
höchste 4297
Apartments 4297
grundlegende 4295
vier@@ 4295
hoher 4292
NATO 4290
Teilnehmer 4290
international 4288
soweit 4287
umzusetzen 4287
län@@ 4283
schätzen 4283
genen 4283
lö@@ 4283
inen 4281
derartige 4280
ckt 4279
20. 4278
Stunde 4276
For@@ 4275
ou 4275
Sehr 4274
tigkeit 4271
Erwartungen 4270
sofern 4268
ast@@ 4266
Waffen 4263
fte 4260
Gedanken 4259
Schweden 4258
des@@ 4258
erg@@ 4258
Angriff 4256
St. 4254
organisation 4250
zusätzlichen 4249
Volks@@ 4249
Dadurch 4246
sionen 4245
Überzeugung 4243
Download 4242
Hin@@ 4241
führende 4241
wirtschaftlicher 4241
Bürger@@ 4241
Strukturfonds 4240
aufzunehmen 4238
Wirklichkeit 4238
Harmonisierung 4237
Lebens 4237
Verbesserungen 4235
Liebe 4232
Farben 4230
Ohne 4227
Süd@@ 4226
gh@@ 4226
ard 4223
erheblich 4221
kurzem 4221
por@@ 4221
kämpfen 4220
eng 4220
ppen 4218
allgemein 4217
Pflicht 4216
begann 4216
Kom@@ 4215
Altstadt 4214
betreffenden 4213
lebens@@ 4213
ton 4213
Eigenschaften 4211
entscheidend 4209
1996 4208
anstatt 4208
ziemlich 4207
bekämpfen 4207
Ur@@ 4206
italienischen 4206
begonnen 4206
fassen 4205
Haus@@ 4205
Format 4203
Anfragen 4199
en- 4199
künftigen 4197
niemals 4195
Datenbank 4194
weshalb 4192
näher 4190
inzwischen 4189
Entwicklungsländer 4187
Klimaanlage 4186
kulturelle 4184
ef@@ 4184
Experten 4184
Krankheiten 4184
ordnung 4182
sion 4182
Zugriff 4182
Emissionen 4182
essen 4181
wasser@@ 4180
historische 4180
Landschaft 4179
erscheinen 4178
Ne@@ 4177
Festlegung 4175
ergriffen 4175
Mittelpunkt 4174
Ta@@ 4171
lungen 4168
bt 4168
ländern 4166
erer 4165
chs 4164
Microsoft 4164
fordere 4163
enst@@ 4163
chinesischen 4163
Drittländern 4163
Mess@@ 4163
stadt 4162
Minister 4161
met@@ 4161
abgelehnt 4160
Verhandlungs@@ 4157
Einstellung 4155
aufgefordert 4153
entgegen@@ 4152
Strukturen 4151
ehr@@ 4150
Nor@@ 4150
ingen 4149
gratulieren 4147
Best@@ 4147
iger 4146
32 4146
Telefon 4145
dete 4144
umwelt@@ 4144
Farb@@ 4143
Z 4140
Änderungsanträgen 4139
bu@@ 4139
UNO 4139
Code 4139
dung 4138
very 4137
qualität 4134
Stellung 4134
sions@@ 4134
sel@@ 4134
3. 4133
Auftrag 4132
behörden 4132
Unterschied 4130
Projekt@@ 4128
Mitgliedschaft 4128
Ziel@@ 4128
Steuern 4127
Mal@@ 4126
falsch 4124
produkte 4124
Arbeitsplätzen 4123
Ruhe 4123
KMU 4123
Beispiele 4123
istische 4122
Vorschlägen 4121
Atom@@ 4120
zer 4119
trotzdem 4117
Übereinstimmung 4116
@ 4113
gest@@ 4111
interessiert 4109
wirksam 4108
Innen 4108
bestand 4107
freiheit 4106
Ski@@ 4106
Fra@@ 4105
ner@@ 4103
gliche 4102
unmittelbar 4102
leiden 4101
offenen 4100
hängt 4100
Werk@@ 4100
Karten 4100
Material 4099
Kenn@@ 4098
Spiele 4098
Berufs@@ 4097
Formular 4097
riesigen 4094
nachhaltigen 4093
Ratspräsidentschaft 4093
eiten 4088
heraus 4087
nung 4086
tere 4083
lautet 4081
Bahnhof 4080
ver 4080
verlangt 4078
Verringerung 4078
ierten 4077
zentralen 4076
westlichen 4076
2020 4076
rate 4074
Rumänien 4074
Besch@@ 4074
Google 4074
zugunsten 4073
kleiner 4072
sehe 4071
af@@ 4071
Dar@@ 4070
Zimmern 4070
we@@ 4069
Doppel@@ 4068
vo@@ 4067
Bus@@ 4063
Lehr@@ 4063
bemüht 4062
Tod 4060
wunder@@ 4060
Körper 4060
Mehr@@ 4059
Sitz 4059
bahn 4059
weg@@ 4058
preis 4056
AC@@ 4056
Konflikt 4055
Justiz 4055
formen 4054
CO2 4054
atoren 4051
Süden 4048
hilft 4048
hervorheben 4048
Ob 4047
75 4046
schafft 4045
Bau 4045
natürlichen 4043
teilnehmen 4043
Kategorie 4043
Rad@@ 4042
Punkten 4041
beglückwünschen 4038
Fi@@ 4038
ausgezeichneten 4037
hol@@ 4037
zieht 4035
angemessene 4034
bauen 4033
durchzuführen 4031
van 4030
spanischen 4028
vorzu@@ 4027
annehmen 4025
eter 4025
Du@@ 4025
verändert 4024
bequem 4023
Holz@@ 4022
Standard@@ 4022
Schule 4020
elten 4019
Pa@@ 4019
Außenpolitik 4018
Afghanistan 4017
are@@ 4012
wagen 4012
funktionieren 4011
sorgt 4011
führer 4011
ursprünglichen 4009
stand@@ 4007
Nein 4006
ed 4006
Drittens 4005
Ausführungen 4005
verabschiedet 4002
ris@@ 4002
Beweis 3999
ige 3998
stoffen 3998
tenden 3997
Serie 3996
Hauptstadt 3996
Roma 3996
Regierungs@@ 3992
zuständigen 3991
San@@ 3990
Klima 3990
ette 3990
Chinas 3989
berechtigt 3983
komme 3981
stellungen 3981
tt@@ 3981
verstanden 3980
Architektur 3980
verursacht 3979
öffnen 3979
tion 3977
Kooperation 3977
täts@@ 3976
zeichen 3976
Anlage 3975
weist 3974
Ba@@ 3974
² 3973
Dem@@ 3971
Leistungs@@ 3970
führ@@ 3967
Zentralbank 3966
Geb@@ 3965
Ban@@ 3965
schicken 3964
besitzen 3964
Pre@@ 3964
behalten 3963
sinnvoll 3962
om 3962
Vereinbarungen 3961
11. 3956
ausgezeichnete 3955
eröffnet 3955
Com@@ 3955
fel@@ 3953
Gleichgewicht 3953
Kind 3953
Angst 3951
Stadtzentrum 3948
verringern 3947
Materialien 3947
gabe 3946
pre@@ 3945
Aussch@@ 3944
Prinzipien 3941
notwendige 3940
vieler 3940
Problems 3939
IC@@ 3939
Kunde 3938
installiert 3937
dritte 3935
na 3935
Weiter@@ 3934
vorgenommen 3931
Faktoren 3931
klaren 3929
Kann 3929
willkommen 3928
Freiheiten 3928
Minderheiten 3927
straße 3925
Plenum 3924
DVD 3924
rein@@ 3922
Gästen 3922
26 3921
gre@@ 3920
eigenes 3920
zuerst 3919
vollständige 3919
echten 3919
höher 3916
Details 3914
fälle 3913
ausgesetzt 3913
Regierungskonferenz 3912
enti@@ 3910
hervorragende 3910
Einbeziehung 3909
28 3908
fach@@ 3906
nte 3904
Verbraucher@@ 3903
abkommen 3902
Ausnahme 3900
stan@@ 3900
erlauben 3900
its 3900
Partnern 3898
spiel 3898
schlägt 3897
bericht 3896
äl@@ 3896
beträgt 3894
gegangen 3892
ini@@ 3891
Verkauf 3890
Reform@@ 3889
unver@@ 3883
entwurf 3881
Projekten 3880
ls 3880
Charta 3880
Militär@@ 3880
reich 3879
Fre@@ 3879
Verteidigung 3878
Ziffer 3876
Sonnen@@ 3874
kostet 3871
Maß 3871
einfachen 3870
hinter@@ 3869
tive 3869
Kat@@ 3868
ruhigen 3868
RE@@ 3868
Verbot 3867
form 3867
zählt 3864
IP 3862
Straf@@ 3859
zt 3857
Austausch 3857
russischen 3856
Gesellschaften 3855
tt 3854
früheren 3853
ini 3850
pa@@ 3849
dliche 3847
Küste 3846
Politiken 3846
Boden 3845
Forum 3845
Drogen@@ 3844
fre@@ 3842
hr@@ 3842
Fähigkeiten 3841
tigung 3841
sichere 3840
zugänglich 3839
systemen 3838
Ka@@ 3838
Nutz@@ 3836
Gesch@@ 3836
schnelle 3835
,00 3835
rechts@@ 3832
Fer@@ 3832
beschränkt 3831
eri@@ 3830
letztlich 3829
ano 3828
Institution 3826
Dem 3826
Sorgen 3823
Ha@@ 3823
cks 3821
Kommunikations@@ 3821
Programmen 3819
Immobilien@@ 3816
Mikro@@ 3816
Zentral@@ 3814
Einwanderung 3814
ste@@ 3813
erhältlich 3813
bereiche 3810
öffentlich 3810
Arbeitsmarkt 3809
bestätigen 3809
institutionellen 3809
Vorschlags 3808
ub@@ 3808
buchen 3808
bild 3807
rechtliche 3805
Beratung 3805
erweitert 3803
durchführen 3802
Tages@@ 3800
Spar@@ 3799
Werk 3798
anische 3798
Abschnitt 3798
neuesten 3797
fin@@ 3797
EL@@ 3797
Winter@@ 3797
Alternative 3796
fl@@ 3796
Y 3795
Verbindungen 3792
Kal@@ 3792
lat@@ 3787
haltung 3787
begrüßt 3786
Fernseh@@ 3785
Gespräche 3785
teren 3784
Handeln 3784
Element 3784
verleihen 3783
geprüft 3782
gespielt 3781
Konsens 3779
leiten 3778
Mag@@ 3778
unmöglich 3776
Schwerpunkt 3775
ven@@ 3775
Nachfolgend 3775
vers@@ 3774
vorlegen 3773
ft@@ 3772
mehr@@ 3771
höchsten 3769
ker@@ 3769
Mu@@ 3768
Kopf 3764
tens 3764
Tisch 3764
Kamera 3764
frei@@ 3760
Ost@@ 3759
verhindert 3758
age 3757
Le 3757
gezwungen 3756
hilfe 3755
Energi@@ 3755
entstanden 3755
inn@@ 3754
Vol@@ 3754
Link 3753
ide@@ 3752
wachsen 3751
Har@@ 3751
ausgesprochen 3750
aktive 3750
not 3749
98 3748
Gerichtshof 3747
Marktes 3747
schafts@@ 3743
Eurozone 3743
entdecken 3739
ativen 3738
dir 3738
Beziehung 3736
Sub@@ 3735
13@@ 3734
assen 3733
tim@@ 3733
nahm 3731
zimmer 3731
Zielen 3730
gerichtet 3730
tiv@@ 3730
Ausführung 3730
Umgang 3729
Bemerkungen 3728
gearbeitet 3728
gehende 3727
geltenden 3727
etten 3727
il 3726
nor@@ 3726
ier 3726
schön 3725
sodass 3725
Mobilität 3724
Wird 3723
organisationen 3722
organisiert 3722
scheinen 3721
Nachrichten 3720
vorschriften 3719
starten 3718
Gast@@ 3718
erleichtern 3717
gli@@ 3717
ment@@ 3717
solange 3714
sischen 3713
Vorgehen 3708
ferner 3708
Kosten@@ 3706
Norden 3703
kurze 3703
Gebrauch 3702
produziert 3702
01 3702
passiert 3700
Asien 3700
dienst 3697
fa@@ 3696
eins 3696
jenen 3695
hinzufügen 3694
Netz 3694
Anbieter 3693
einheitlichen 3693
werfen 3692
tlicher 3692
grün@@ 3691
bl@@ 3691
aufnehmen 3690
fehlt 3689
bemühen 3689
Pat@@ 3688
zahl@@ 3687
wann 3687
Tor@@ 3687
bezahlen 3687
All@@ 3685
definiert 3684
Beiträge 3683
zes 3683
sicher@@ 3683
Bucht 3682
wor@@ 3681
Fenster 3680
Ges@@ 3680
preise 3680
Chancen 3679
verehrte 3677
Motor@@ 3674
entlang 3674
Ra@@ 3673
Gestaltung 3672
we 3672
Bedrohung 3671
igen 3671
höheren 3670
Besorgnis 3670
mitten 3670
that 3670
Win@@ 3667
wollten 3666
Dra@@ 3666
Tourismus 3665
Maschinen 3664
verschiedener 3663
rein 3661
Signal 3660
extrem 3660
ausgeschlossen 3659
Sach@@ 3658
wesen 3657
Wissenschaft 3656
Eltern 3655
Hostels 3654
Garantie 3652
prozesses 3652
dlichen 3652
OS 3650
nieder@@ 3649
EL 3648
Fu@@ 3647
ark@@ 3647
Kauf@@ 3646
stri@@ 3645
fern 3645
Websites 3645
ote 3641
bin@@ 3641
Sektoren 3640
ats 3640
übernimmt 3640
verurteilt 3640
breiten 3639
page 3639
Wien 3635
ett 3634
lag 3633
nten 3632
britische 3632
kenn@@ 3629
Erholung 3628
Hilfs@@ 3627
1995 3626
Plan@@ 3626
musste 3626
äußern 3623
erhebliche 3620
Spezi@@ 3620
Straßen 3619
Einkommen 3619
welt@@ 3619
Hohen 3617
° 3616
einig 3615
Pap@@ 3614
nahmen 3610
aktivieren 3610
IS 3610
werten 3609
Tur@@ 3609
Super@@ 3609
welchem 3608
entscheidende 3607
Wider@@ 3607
Schluss 3607
dürfte 3605
gsten 3604
è@@ 3604
Geräte 3604
eingesch@@ 3602
Hal@@ 3602
überzeugen 3601
Gr@@ 3601
Deswegen 3598
ro 3596
Künstler 3596
our 3596
lie@@ 3595
Fl@@ 3593
strategischen 3593
2011 3592
bestehende 3591
Optionen 3591
Jedes 3591
Wohlstand 3590
esen 3590
Mensch 3588
amen 3586
Staat@@ 3586
Sozi@@ 3585
beruht 3584
mt 3584
Identität 3583
schönsten 3582
ll@@ 3581
Werbung 3577
rau@@ 3576
Luft 3576
Kräfte 3575
tin 3574
Untersuchungen 3574
Komponenten 3574
lige 3572
Dort 3572
setzung 3569
Also 3569
Lin@@ 3566
Nicht@@ 3564
Video@@ 3564
verstärken 3563
tor@@ 3563
sei@@ 3563
präsentiert 3563
str@@ 3563
Fort@@ 3562
gesellschaft 3562
0,@@ 3562
tten 3558
gr@@ 3558
Hel@@ 3558
fläche 3557
cker 3556
™ 3556
direkten 3555
verändern 3554
5. 3554
aussprechen 3553
LE@@ 3553
Kontrollen 3552
erinnert 3552
Schlussfolgerungen 3552
heutige 3550
son@@ 3550
Ausgangspunkt 3549
gewährt 3549
4. 3549
National@@ 3548
pe@@ 3547
Insbesondere 3545
AKP 3545
sorgfältig 3544
Umfeld 3543
Klasse 3541
zusammenarbeiten 3540
halt 3539
kurzen 3538
Bereitstellung 3537
Planung 3536
fähig 3536
Jahres@@ 3535
nunmehr 3535
anlage 3535
Verbreitung 3535
ili@@ 3535
SP@@ 3533
Zusatz@@ 3532
verdient 3531
jegliche 3531
400 3531
bestimmen 3530
Des 3528
kanischen 3528
City 3528
Kl@@ 3524
ass@@ 3524
EZB 3523
abgestimmt 3520
Vorsitz 3518
schließt 3518
br@@ 3518
Beschluss 3517
entscheidender 3516
beigetragen 3515
Te@@ 3515
pr@@ 3513
übrigens 3513
tief@@ 3512
ausgeführt 3511
wal@@ 3510
Chi@@ 3509
Erzeugnisse 3508
ban@@ 3504
Plattform 3503
fällen 3500
effektiv 3499
Vorstellung 3495
laut 3495
schlecht 3495
ständige 3494
De 3492
jener 3491
Golf 3491
reiche 3490
Syn@@ 3490
reduzieren 3489
vorher 3487
Flu@@ 3487
ße 3486
nahezu 3485
gender 3484
sprachen 3484
ic@@ 3484
Aktion 3483
bestimmter 3482
Krankheit 3482
Veröffentlichung 3481
Rechtsgrundlage 3481
RO@@ 3480
wiederholen 3479
Übersetzung 3479
Selbst 3477
Förder@@ 3475
druck 3475
Multi@@ 3474
Staates 3474
ise 3474
Veranstaltung 3472
Start 3470
Alter 3467
är 3466
Kapitel 3465
Wi@@ 3464
gebiete 3462
Katastrophe 3459
derer 3459
zy@@ 3459
finanziert 3458
har@@ 3457
150 3456
Geschäfte 3455
Gro@@ 3453
Met@@ 3452
beschäftigen 3451
El 3451
größer 3450
Gi@@ 3450
Ambiente 3450
tig@@ 3449
Bemerkung 3447
ara 3447
fäl@@ 3446
lig@@ 3446
Winter 3446
dert 3443
sicht 3443
sucht 3443
Männern 3442
tierung 3441
markt@@ 3441
Me@@ 3441
eingereicht 3440
kamen 3440
Mangel 3440
außerordentlich 3440
ets 3440
spiel@@ 3438
Studien 3436
Einstellungen 3436
betreffend 3433
verhalten 3432
chs@@ 3431
betrieben 3430
Jo@@ 3430
Gründung 3430
dan@@ 3430
Zwecke 3430
lösung 3430
Transport@@ 3429
interessante 3429
vorhandenen 3428
Morgen 3428
lokale 3427
Vision 3426
theit 3425
kosten@@ 3424
Ausstellung 3423
versorgung 3423
aussch@@ 3422
Beschlüsse 3420
Glaubwürdigkeit 3420
Zivilgesellschaft 3420
mut@@ 3420
Pu@@ 3419
enk@@ 3418
tierten 3417
Ausgabe 3415
res@@ 3414
Englisch 3413
nden 3412
sierten 3412
sprach 3410
Noch 3410
2,@@ 3410
Pra@@ 3410
gestaltet 3407
ungefähr 3407
this 3405
Entscheidungs@@ 3402
entsteht 3402
Costa 3402
liefert 3401
kom@@ 3400
äch@@ 3399
elte 3399
fu@@ 3397
ev@@ 3397
18. 3394
Farbe 3394
Go@@ 3394
unverzüglich 3393
beteiligen 3393
rech@@ 3393
Rau@@ 3391
umgeben 3391
Auto@@ 3390
stu@@ 3390
Nieder@@ 3388
Wirtschaftswachstum 3388
sätze 3386
99 3386
Datenschutz@@ 3386
Zoll@@ 3385
kol@@ 3384
fe@@ 3384
Ben@@ 3384
machte 3384
läßt 3383
Bestellung 3382
Sen@@ 3382
Dorf 3382
tiven 3381
anbelangt 3379
Studenten 3379
Flüchtlinge 3378
Ansichten 3377
direkte 3377
az@@ 3377
Konsequenzen 3375
Wein 3375
eignet 3374
verkaufen 3374
aufen 3374
ron@@ 3373
gespeichert 3373
Wachstums@@ 3372
PL 3371
Bas@@ 3370
š@@ 3370
Korruption 3369
wahr@@ 3368
position 3368
Selbstverständlich 3367
d.h. 3367
investieren 3365
ó@@ 3364
Buch@@ 3362
sa 3362
einrichtungen 3361
sicheren 3361
Hafen 3360
Ausstattung 3360
Kontext 3359
12@@ 3359
lebt 3359
Bus 3359
23@@ 3358
dungs@@ 3358
wünsche 3357
anwesend 3357
stellten 3356
gebieten 3356
genannte 3356
Gerichte 3354
holen 3354
wa@@ 3354
tur@@ 3353
beraten 3349
Reduzierung 3349
erlebt 3349
sta@@ 3349
zurückzu@@ 3348
Brasilien 3347
niveau 3345
sozialer 3345
eingehalten 3343
genügend 3342
bislang 3342
ersetzt 3341
Sollte 3341
vorbereitet 3341
dre@@ 3341
einzigartige 3340
installieren 3340
französische 3338
Hinter@@ 3338
begrenzt 3337
Zwischen@@ 3337
Badezimmer 3337
zieren 3336
Vo@@ 3335
Zwei 3335
getragen 3335
schauen 3335
Transport 3333
PT 3333
mal@@ 3333
95 3332
Überlegungen 3329
ersch@@ 3329
Nachricht 3329
Gleich@@ 3328
einbezogen 3325
serviert 3325
ktionen 3323
standards 3322
Ungarn 3322
ss 3321
Haftung 3320
grundsätzlich 3319
wiederholt 3319
pres@@ 3319
angebracht 3318
herrscht 3317
ff 3317
Kollegin 3315
Stimmen 3314
Gewicht 3314
verkehrs 3314
Dom@@ 3314
Jede 3313
ativ 3313
Schlafzimmer 3313
liegenden 3312
ther@@ 3312
Browser 3311
recht@@ 3310
einfacher 3310
bus 3310
vorstellen 3307
Stück 3307
ktion 3307
selbst@@ 3307
Kol@@ 3307
Foto 3307
solches 3306
Alles 3305
out 3305
u.a. 3305
Kredit@@ 3304
hängen 3303
raten 3303
erfolgreiche 3303
Spa 3303
Gewährleistung 3301
Besonders 3301
erei 3301
zw@@ 3300
stehende 3297
ließ 3297
ba@@ 3296
Genehmigung 3294
Straßen@@ 3291
schlag 3287
gan@@ 3287
langfristige 3286
wissenschaftliche 3285
Positionen 3284
offiziellen 3284
Finanzierungs@@ 3281
Auge 3281
Polizei 3281
Bahn 3280
up 3279
stände 3278
bereitgestellt 3278
fs 3277
gewissen 3275
Gefahren 3274
a. 3274
verteidigen 3274
beg@@ 3273
mittleren 3273
künftige 3273
angegebenen 3273
OR@@ 3272
bedeut@@ 3271
ante 3271
Zi@@ 3270
AD@@ 3269
Dienstleistungs@@ 3269
Bulgarien 3269
öl@@ 3267
Finanzkrise 3265
menschliche 3264
Dek@@ 3264
2013 3264
Ren@@ 3263
Schulen 3262
Pol@@ 3262
arbeits@@ 3261
Verfassungs@@ 3260
Ab 3260
Pakete 3260
WLAN 3259
Rest 3257
kte 3257
Pro 3256
Einheit 3256
verbringen 3253
con@@ 3253
Vorhaben 3252
arbei@@ 3252
Beg@@ 3251
Gegenstand 3251
Rot@@ 3250
kla@@ 3249
ors 3249
Enterprise 3249
Pool 3248
gemeinschaftlichen 3247
innovative 3247
lang@@ 3247
ig 3245
ings 3245
internen 3239
organisieren 3239
Entlastung 3238
institutionelle 3238
con 3238
Buchung 3238
technik 3237
Praktiken 3235
Währungs@@ 3234
wirtschaftlich 3234
ade 3233
gro@@ 3232
97 3230
sinn@@ 3227
ßt 3227
Versionen 3227
Gegend 3226
Gerechtigkeit 3225
Webseiten 3225
za 3222
min 3221
EC@@ 3221
konfrontiert 3220
gebaut 3219
Übergangs@@ 3218
meist 3218
stolz 3218
ziele 3216
Darum 3216
ore 3216
..... 3216
win@@ 3215
Wünsche 3215
Energien 3212
Verletzung 3212
leistung 3211
uss 3211
Dusche 3211
del@@ 3210
Kilometer 3210
Erstellung 3208
Mitarbeitern 3208
Eisenbahn@@ 3206
letztendlich 3206
Sicherung 3206
Sommer@@ 3206
probleme 3205
Regierungschefs 3205
ach 3205
Anschluss 3205
Ü@@ 3204
gs@@ 3202
ek 3202
Fo@@ 3200
ppe 3200
illegalen 3199
Prozesses 3199
vorzulegen 3198
Anstieg 3198
Kurs 3195
gemein@@ 3194
vorgeschlagene 3193
verkauft 3193
bereichen 3192
großem 3191
effizient 3191
aufs 3191
Systemen 3190
gewonnen 3189
einzusetzen 3189
stein 3189
elektronischen 3188
Krisen@@ 3187
preis@@ 3187
kul@@ 3187
erfolgreichen 3186
hervor 3185
leistungen 3185
geboren 3185
dende 3185
ET@@ 3185
individuellen 3184
Sollten 3183
zukünftigen 3183
behaupten 3182
versichern 3180
wohnen 3180
Preisen 3180
vermitteln 3180
Ausmaß 3178
militärischen 3177
via 3177
entschlossen 3175
unterstreichen 3175
individuelle 3174
kraft@@ 3173
allzu 3172
unge@@ 3169
steuern 3169
Ware 3169
teilt 3168
ure 3168
Zuständigkeit 3167
tw@@ 3166
militärische 3166
schwer@@ 3165
Schlüssel 3164
weitgehend 3163
0.@@ 3162
Medien@@ 3160
ähnliche 3159
bedeutende 3159
enheit 3157
Organe 3157
zuständig 3155
sprache 3155
München 3154
tiv 3153
überprüft 3152
Red 3152
15. 3151
zulassen 3151
flü@@ 3151
ziel@@ 3149
digung 3149
Ablehnung 3148
abstimmen 3147
Kauf 3147
ps 3147
app@@ 3147
wirksame 3146
Nachbarn 3143
drei@@ 3142
vorgesehenen 3142
tende 3142
situation 3142
Lebensmittel 3142
informationen 3140
strategische 3140
Casino 3139
gar@@ 3138
Abschaffung 3138
Im@@ 3138
sion@@ 3135
Mrd. 3135
Stoffe 3135
Ei@@ 3134
Widerspruch 3134
29 3134
Freizügigkeit 3133
Firmen@@ 3133
96 3132
spreche 3129
Bri@@ 3129
material 3128
Mut 3127
dich 3127
unterzeichnet 3126
Erfüllung 3126
Neue 3126
verbinden 3123
Verlust 3123
ID 3121
4.@@ 3119
50@@ 3118
Kroatien 3118
geboten 3117
ausschuß 3116
Geh@@ 3113
ko 3112
Deutschen 3112
Perspektive 3111
anti@@ 3110
laufenden 3108
Dauer 3107
betreiben 3107
Player 3107
beschrieben 3106
Binnenmarktes 3104
Sonne 3104
ausgerichtet 3101
Ã 3101
manche 3100
Bra@@ 3100
Haushaltsplan 3100
Anlass 3100
Oder 3097
Medi@@ 3097
freut 3097
Je 3096
gestattet 3096
geräte 3094
Mel@@ 3093
Freunden 3093
angesehen 3092
ähnlich 3091
Städten 3091
Fisch@@ 3091
wohl@@ 3090
enzen 3090
Verk@@ 3088
Aktionsplan 3087
Denk@@ 3087
maschinen 3087
Belgien 3086
dig 3085
bet@@ 3084
sum@@ 3084
Grand 3084
miss@@ 3084
Prozesse 3083
Beh@@ 3082
inklusive 3081
Betrag 3081
Gleichstellung 3079
zuge@@ 3078
Trotzdem 3078
leg@@ 3076
30@@ 3075
verfügbaren 3075
dischen 3074
eres 3072
Rund@@ 3071
Vorausschau 3071
Sam@@ 3071
ack@@ 3070
Situationen 3069
ersetzen 3069
Handels 3068
mischen 3067
Viertel 3067
änden 3066
oni@@ 3066
beantworten 3065
sis 3065
Volksgesundheit 3065
sub@@ 3065
Grünen 3063
CO@@ 3063
stat@@ 3062
lieb@@ 3062
vol@@ 3061
dige 3060
Sol@@ 3059
Gericht 3058
Wohl@@ 3058
Grad 3056
funktion@@ 3056
Märkten 3056
Tätigkeiten 3055
tierte 3055
iten 3055
vieles 3054
Lö@@ 3054
gestellten 3053
mat@@ 3053
Befugnisse 3052
Volkes 3052
Marke 3052
tro@@ 3052
id 3051
verein@@ 3050
Schi@@ 3049
integriert 3049
tor 3049
Group 3049
Massen@@ 3048
konzentriert 3048
tischer 3048
unabhängigen 3047
Rom 3047
Studio 3046
Konflikte 3045
räume 3044
Pläne 3044
gerät 3044
perfekt 3043
31 3043
anschließen 3043
entwickelte 3043
3.@@ 3042
weiten 3040
messen 3039
aktiven 3038
scht 3035
erzeugt 3035
Redner 3034
nt 3034
zukünftige 3034
Software@@ 3033
projekte 3032
Arbeit@@ 3032
Eigentum 3032
Struktur@@ 3031
Amt 3029
politisches 3029
chtung 3029
auftreten 3028
beobachten 3028
fan@@ 3028
,@@ 3027
sü@@ 3026
ernsthaft 3026
Einkaufs@@ 3026
tier@@ 3024
6. 3020
hren 3020
Werke 3017
pen@@ 3016
traditionelle 3015
heim@@ 3015
7. 3015
http 3015
verteilt 3014
Kriegs@@ 3014
mitteilen 3013
atische 3012
bekannte 3012
hervorgehoben 3011
Meines 3011
EADS 3011
reduziert 3009
Kontakte 3009
bri@@ 3009
offene 3008
rel@@ 3007
amp@@ 3007
tigt 3007
zeichnen 3006
My@@ 3005
Wo 3003
Post 3003
mussten 3002
Kulturen 3001
vern@@ 2999
Open 2998
langfristig 2997
wonach 2996
Konto 2996
Tro@@ 2995
jährige 2994
Far@@ 2994
problem 2993
jetzigen 2992
cu@@ 2992
Distribution 2992
festzulegen 2991
eck 2991
schul@@ 2990
mach@@ 2989
Schiff@@ 2989
com 2989
Zusätzlich 2988
punkte 2988
Gemein@@ 2987
gewähren 2987
Rechtsstaatlichkeit 2987
nachdrücklich 2986
krise 2986
gründen 2985
verdienen 2984
17. 2983
station 2983
ungsverfahren 2982
Gerade 2982
grenzen 2982
geraten 2981
humanitäre 2980
ISO 2979
Schiffe 2979
48 2979
jährigen 2978
Führ@@ 2977
Rechten 2974
Stein@@ 2974
dankbar 2972
richtet 2972
Barroso 2972
Sauna 2972
Tour 2971
Veränderung 2970
sten@@ 2970
Menü 2970
Eis@@ 2969
Schwer@@ 2968
bisherigen 2966
struktur 2965
vorliegende 2964
gebeten 2963
Wohnung 2963
Modelle 2962
Fischer 2960
fahrer 2960
Manager 2958
effiziente 2957
kette 2956
gedacht 2955
Menschen@@ 2955
wachsenden 2955
erreichbar 2954
werk@@ 2954
Ser@@ 2953
Berichten 2952
kontrolle 2952
steigt 2950
ursprünglich 2949
gungen 2949
hoffentlich 2949
unabhängige 2948
Währungsunion 2948
Poli@@ 2948
how 2947
The@@ 2947
Bio@@ 2947
Öl 2947
Balkon 2947
märkte 2946
Letz@@ 2945
ausgaben 2945
160 2945
rus@@ 2945
deswegen 2944
einzuführen 2944
Kriminalität 2943
einheitliche 2942
Respekt 2942
Bre@@ 2942
langsam 2941
Vorlage 2940
wahren 2940
Industri@@ 2940
erin 2938
überein 2935
beschränken 2935
Abhängigkeit 2934
vollständigen 2934
behoben 2934
Film@@ 2934
unterscheiden 2933
6.@@ 2933
PHP 2933
gelassen 2932
decken 2932
Investitions@@ 2932
zeug@@ 2932
Lieferung 2931
Bush 2930
dis@@ 2930
ken@@ 2929
gesetz@@ 2929
inform@@ 2928
Blog 2928
Strom@@ 2927
les@@ 2927
Fol@@ 2926
Beteiligten 2925
Branche 2925
beendet 2924
richtlinie 2924
gelingt 2923
Gemeinsame 2923
Dan@@ 2920
staat 2920
absch@@ 2919
deckt 2919
Bereitschaft 2918
Mittelmeer 2918
sierte 2918
gemeinschaft 2918
ergibt 2916
gegen@@ 2916
festgelegten 2916
terung 2916
gn@@ 2915
Ganz 2915
Gang 2914
fo@@ 2914
Würde 2914
Ferien@@ 2914
praktische 2913
wasser 2913
MS 2913
Übernachtung 2912
Lan@@ 2911
Neben@@ 2911
sische 2911
übersch@@ 2911
gerich@@ 2910
Rückkehr 2910
Weiteren 2910
chter 2909
erfordern 2909
zahl 2909
.... 2909
Essen 2909
zugrunde 2908
enthaltenen 2908
wo@@ 2908
buch 2907
Fahrzeuge 2907
programms 2905
erfreut 2905
Mas@@ 2905
kontrollieren 2904
Glück 2904
liefer@@ 2903
umsetzen 2902
Runde 2902
Allianz 2902
fertig 2901
8. 2901
dungen 2899
Jahrzehnten 2899
konferenz 2899
geln 2898
Feld 2898
angebot 2897
Test 2897
täglichen 2897
Band 2897
spar@@ 2895
bil@@ 2895
zung 2894
Fern@@ 2894
but 2894
Miss@@ 2894
lieber 2893
Gal@@ 2893
Armee 2892
burg 2892
wie@@ 2891
angeb@@ 2891
CH@@ 2890
gefallen 2889
zentren 2889
dienst@@ 2889
gens 2889
fördert 2888
uri@@ 2886
modified 2886
ziert 2885
nde 2885
Station 2884
...... 2883
stischen 2882
ling 2882
Kri@@ 2881
geäußert 2880
ak 2880
ns 2880
IWF 2879
Messe 2879
Bur@@ 2878
Führer 2877
ee 2876
brechen 2876
Verteilung 2875
angepasst 2875
Ebenen 2873
16. 2873
mus 2870
Vertrages 2869
ative 2869
angegeben 2869
Wählen 2869
Schulden 2868
standen 2867
erwähnen 2866
Ursachen 2866
Programm@@ 2865
uli@@ 2865
Nummer 2865
hierbei 2865
fr@@ 2865
Öffnung 2864
enorme 2863
kor@@ 2862
08 2862
Support 2862
seh@@ 2861
asi@@ 2860
wirkt 2859
3D 2858
ang@@ 2857
Agenturen 2856
Kanada 2856
ase 2853
besorgt 2853
verbindet 2853
Kontinent 2852
Sein 2852
mil@@ 2851
zurückzuführen 2850
eingegangen 2849
Berichterstatters 2849
bestimmungen 2849
Hu@@ 2849
Hol@@ 2849
Faktor 2848
stärkere 2847
Arbeitsplatz 2847
sah 2846
unterliegen 2845
gestärkt 2845
ha 2844
externen 2844
Mis@@ 2844
überaus 2843
stands 2843
Raum@@ 2843
interessant 2842
Live 2842
äm@@ 2841
ve@@ 2841
bares 2840
Wal@@ 2840
Videos 2840
Donnerstag 2839
Dritten 2839
Zahlungen 2839
erkannt 2838
Revolution 2838
1994 2837
Vereinfachung 2837
Dafür 2837
bewältigen 2837
vereinbart 2836
version 2836
33 2835
Gerät 2834
verwende 2833
antworten 2832
senken 2832
Star 2832
Beseitigung 2831
Know 2830
besonderer 2829
alt@@ 2829
tur 2829
Investoren 2827
überwinden 2827
Debatten 2826
gegenwärtige 2826
einzigartigen 2826
Deutsche 2826
34 2825
th 2825
Wandel 2824
türkischen 2823
09 2823
Col@@ 2823
were 2823
zuzu@@ 2822
Nahrungsmittel@@ 2822
Frankfurt 2822
Parlamente 2820
Sind 2819
nutz@@ 2815
lus@@ 2815
Tausende 2814
Opposition 2814
sogenannten 2811
Personal@@ 2811
Amerikaner 2810
kli@@ 2810
bad 2810
optimale 2809
Vater 2809
sern 2807
ly 2807
ließen 2806
vertrag 2806
Hor@@ 2806
geschichte 2805
anhand 2803
Kapital 2803
Spaß 2803
Tran@@ 2802
zus@@ 2802
64 2802
ik@@ 2802
Gelder 2801
griechischen 2801
behörde 2801
Cal@@ 2801
Wirtschaftskrise 2799
Bahn@@ 2798
sichtbar 2797
methoden 2797
Belarus 2797
Erinnerung 2796
egt 2796
ologische 2794
At@@ 2794
Lauf@@ 2794
aller@@ 2793
umfassend 2792
RA@@ 2792
herunterladen 2792
sparen 2789
fort 2789
Körper@@ 2788
Verarbeitung 2788
Wesentlichen 2788
kern 2787
Straßburg 2786
beru@@ 2785
time 2785
lauf@@ 2785
bedanken 2783
stä@@ 2783
Tages 2783
nah@@ 2783
freundlich 2783
schweren 2782
letzter 2781
Mechanismen 2780
smus 2780
negativen 2777
plan@@ 2777
ut 2777
tal@@ 2776
hohem 2775
speichern 2775
Potenzial 2775
normalen 2774
offen@@ 2772
PPE 2771
hervorragenden 2771
Steuerung 2771
dauert 2770
Touristen 2770
10. 2769
Marketing 2769
Einwohner 2768
Senkung 2768
Zusammenhalt 2767
Geschäft 2767
Erhaltung 2767
Wind@@ 2767
natürliche 2765
gefragt 2765
ack 2764
Gesam@@ 2764
verboten 2764
kleines 2763
langfristigen 2763
Zypern 2762
Umweltschutz 2761
Hü@@ 2760
Standort 2760
Sachen 2760
verantwortungs@@ 2759
anschließend 2758
umfangreiche 2758
Pakistan 2758
Boden@@ 2758
wechsel@@ 2758
Großteil 2757
kontaktieren 2757
hingegen 2756
verwaltung 2756
gesellschaften 2756
Sicherheitspolitik 2756
fen@@ 2755
36 2755
handel 2755
geprägt 2754
Andere 2754
normalerweise 2753
ado 2753
auffordern 2752
zwingen 2752
inmitten 2752
wunderschönen 2752
alisiert 2750
ry 2750
lenken 2749
trä@@ 2748
oh@@ 2748
Wähler 2748
Dec@@ 2748
untersucht 2747
Fran@@ 2747
Madrid 2747
sichergestellt 2744
angewendet 2743
beenden 2743
brachte 2742
angemessenen 2741
Mandat 2741
Werbe@@ 2741
dische 2739
gehenden 2739
Handlungs@@ 2738
derzeitige 2737
log@@ 2737
Jugend 2737
alisieren 2736
Kampagne 2736
Pas@@ 2736
Such@@ 2736
Suiten 2736
empfangen 2735
verweisen 2734
wen@@ 2734
füllen 2734
ativer 2734
Dialogs 2734
Park@@ 2734
Kopenhagen 2734
tag 2734
cia 2734
A5 2733
ländliche 2733
geeignete 2733
Heizung 2733
Staats- 2732
letz@@ 2732
asse 2732
bekommt 2732
finanzieren 2731
best@@ 2731
tei@@ 2731
entspannen 2731
Lizenz 2730
line 2729
Bars 2729
tief 2728
glaub@@ 2728
55 2726
Generationen 2726
07 2726
individuell 2726
unentgeltlich 2726
Frist 2724
ates 2722
Freitag 2721
froh 2721
nützlich 2721
zweitens 2720
Quellen 2720
gaben 2719
voraus@@ 2718
irischen 2718
have 2717
leichter 2716
gestaltung 2716
Leitung 2716
minister 2715
Kandidaten 2715
Niederlanden 2714
produzieren 2714
si 2714
Regulierung 2713
stattfindet 2712
Gehminuten 2712
Papier 2711
Ausflüge 2711
realer 2711
erstmals 2708
entgegen 2707
Marken 2707
erhielt 2705
Zeitung 2703
dra@@ 2703
Les@@ 2703
stieg 2703
tar@@ 2702
hab@@ 2702
existiert 2702
Umweltfragen 2702
heißen 2702
Fehler@@ 2702
oll@@ 2700
600 2699
hochwertige 2699
berichten 2698
konkret 2698
korrekt 2698
fall@@ 2696
denjenigen 2696
Internationale 2696
Dokumenten 2696
MO@@ 2695
Todesstrafe 2695
wendet 2694
Sü@@ 2694
leich@@ 2693
Ir@@ 2693
lands 2692
Cam@@ 2692
Quelle 2691
Provinz 2691
plätze 2690
effektive 2689
lauf 2689
gek@@ 2688
äh@@ 2688
unk@@ 2687
12. 2686
sammeln 2686
9. 2685
geplant 2685
Fü@@ 2685
sach@@ 2684
lan 2684
aden 2683
drücken 2683
ya 2683
Rich@@ 2682
Volkswirtschaften 2682
Rat@@ 2681
dargestellt 2679
plan 2679
lösungen 2679
kar@@ 2677
Bestimmung 2677
Kurz@@ 2677
PDF 2677
Stärke 2676
tte 2676
Char@@ 2676
Sammlung 2676
sektors 2675
bal@@ 2674
schnellen 2674
Ter@@ 2674
unterschiedlich 2674
tern@@ 2674
spek@@ 2674
verfahrens 2674
bereiten 2673
fanden 2673
0.000 2673
amm@@ 2672
Datei@@ 2672
diert 2671
Ph@@ 2671
USB 2671
13. 2670
Bes@@ 2670
Herz 2670
palästinensischen 2670
Büro 2668
ku@@ 2667
DI@@ 2666
ada 2666
Presse 2665
Asyl@@ 2665
ki 2665
Brenn@@ 2664
vornehmen 2663
Hindernisse 2663
Mission 2663
Gemeinschaften 2662
mor@@ 2662
anz 2660
Schulden@@ 2660
müsste 2660
800 2659
Premierminister 2658
rechnen 2657
Kohäsionspolitik 2656
Andererseits 2656
Lok@@ 2656
Rahmen@@ 2656
GAP 2656
Küsten@@ 2655
häuser 2654
eigen@@ 2654
Ste@@ 2653
ese 2653
Tonnen 2652
Mechanismus 2652
Wirtschaftspolitik 2651
Net@@ 2651
Verlauf 2650
gewi@@ 2650
Sei@@ 2649
up@@ 2649
integrierten 2648
europäisches 2647
wär@@ 2647
erst@@ 2647
Ägypten 2647
buch@@ 2647
benen 2647
untersuchen 2645
festen 2644
hung 2644
forschung 2644
Obama 2644
entscheidenden 2643
ffen 2643
keinem 2641
Dingen 2641
Mus@@ 2641
Mexiko 2640
viel@@ 2639
ausgezeichnet 2638
zukommen 2638
Passwort 2638
Fin@@ 2637
mögen 2637
Mir 2636
selten 2636
pri@@ 2635
schwei@@ 2635
bereitet 2633
sä@@ 2633
sol@@ 2633
Drittel 2632
park 2632
humanitären 2632
ll 2631
Vertretern 2630
gkeiten 2630
führten 2630
5.@@ 2630
Newsletter 2630
hier@@ 2628
Versammlung 2628
una 2628
Elektro@@ 2627
Willkommen 2627
denk@@ 2626
Mittelmeer@@ 2625
karten 2625
Lie@@ 2625
Telefon@@ 2625
hierfür 2624
Geschwindigkeit 2624
Anwendungs@@ 2623
müssten 2623
kehr@@ 2622
bedeutenden 2621
kt@@ 2621
aufgebaut 2620
Schengen 2620
Gast 2619
gei@@ 2618
Außen- 2616
Santa 2616
AM@@ 2616
unden 2615
zeichn@@ 2615
überlassen 2614
diesbezüglich 2614
Sh@@ 2614
erweitern 2614
derung 2613
hän@@ 2613
lichkeiten 2612
schei@@ 2611
aner 2611
region 2611
produk@@ 2610
Geschmack 2610
Star@@ 2609
Wander@@ 2609
Nachhaltigkeit 2609
ski 2609
enge 2608
Schweizer 2608
rat@@ 2608
Ki@@ 2607
modell 2606
offizielle 2606
hel@@ 2605
kri@@ 2605
Energieeffizienz 2605
gleichermaßen 2604
Maschine 2604
Kern 2604
Gold 2604
Sektors 2603
weite 2602
erklärte 2602
kontrolliert 2602
Augenblick 2602
Industrie@@ 2601
gewünschten 2600
37 2600
Arbeitnehmern 2600
Urteil 2600
illegale 2600
geleitet 2599
prozesse 2598
pol@@ 2598
chinesische 2598
gut@@ 2597
ic 2597
steigern 2596
präsentieren 2596
Ac@@ 2596
voraus 2595
gefährdet 2595
bestellen 2595
Netz@@ 2594
rechtzeitig 2593
folge 2592
losigkeit 2592
festzustellen 2592
John 2592
Verwirklichung 2591
Umwel@@ 2591
ka@@ 2590
hart 2589
kräfte 2589
spiele 2589
Schon 2588
Plat@@ 2587
Schw@@ 2586
Innovationen 2585
• 2585
Verb@@ 2584
Kompetenz 2584
pfen 2583
Luxemburg 2583
leb@@ 2583
armen 2581
same 2581
Kranken@@ 2581
your 2581
Beide 2580
Versorgung 2580
Beachtung 2579
Macht@@ 2579
passt 2579
anzunehmen 2578
Landes@@ 2577
freundlichen 2577
Polizei@@ 2576
qualitativ 2576
Demokraten 2576
Blut@@ 2576
Dass 2576
Ratschlag 2576
Finde 2576
qui@@ 2575
Projekts 2575
vorbei 2574
bezahlt 2573
Gemeinde 2573
weltweite 2572
tenen 2572
gelesen 2572
zo@@ 2572
Termin@@ 2570
ulation 2570
soeben 2570
Modernisierung 2569
ella 2569
Stimm@@ 2568
gungs@@ 2568
Kommissions@@ 2568
Verbraucherschutz 2568
wirkliche 2568
Ton@@ 2568
teils 2567
Errichtung 2567
schwierige 2567
Sta@@ 2567
MP@@ 2567
star@@ 2566
Mac@@ 2566
entspann@@ 2565
könnt 2565
genaue 2564
wür@@ 2563
fein@@ 2562
digitalen 2562
Weg@@ 2560
IM@@ 2560
Fernsehen 2559
Genießen 2559
infolge 2558
wettbewerbs@@ 2558
Erst 2558
Stiftung 2557
Ergebnissen 2556
regelung 2556
trägen 2556
Zone 2556
Frei@@ 2554
14. 2553
Pf@@ 2552
Journalisten 2552
Parameter 2552
tage 2552
ations 2552
befasst 2552
mittlerweile 2551
Akteure 2551
ord@@ 2551
SE@@ 2551
Reisen 2551
begleitet 2550
tag@@ 2549
angewandt 2549
Computer@@ 2549
zieh@@ 2548
Registrierung 2548
programmen 2547
indi@@ 2547
fal@@ 2547
Wil@@ 2547
los@@ 2545
Best 2545
Parkplatz 2544
ti 2543
Souveränität 2542
wesentlicher 2540
spor@@ 2539
sport 2539
Argumente 2538
effek@@ 2538
Fein@@ 2538
cm 2538
ergänzt 2537
freundliche 2537
kten 2537
Glauben 2537
Sor@@ 2537
sam 2537
nummer 2537
Widerstand 2536
altet 2536
Pri@@ 2536
WC 2536
person@@ 2535
Tabak@@ 2534
gewählten 2533
dro@@ 2533
Lag@@ 2533
Reservierung 2533
Ausarbeitung 2532
Wirksamkeit 2532
Schreiben 2530
ders 2530
¤ 2530
enthalt 2530
fs@@ 2529
PS 2529
optim@@ 2527
Orte 2527
Inflation 2527
Kategorien 2526
gesetzlichen 2526
30. 2526
groß@@ 2526
leitung 2526
Produk@@ 2526
Apartment 2526
Ausweitung 2525
außen 2524
far@@ 2524
ant@@ 2524
Übrigen 2524
geregelt 2523
isen 2523
Stra@@ 2523
blei@@ 2523
alter 2523
Darstellung 2523
Spitzen@@ 2523
Jugendlichen 2522
stätigkeit 2521
Regi@@ 2520
fun@@ 2520
zü@@ 2519
Grün@@ 2519
reg@@ 2519
Hohe 2519
Tal@@ 2519
kontextuellen 2519
ba 2518
Wa@@ 2518
Sel@@ 2517
Partner@@ 2517
grenz@@ 2516
schen@@ 2515
ME@@ 2515
Bade@@ 2515
frühen 2514
era 2514
bank 2513
views 2513
entdeckst 2513
ame 2512
pen 2512
itäts@@ 2511
weisung 2511
Bearbeitung 2511
25@@ 2511
Listings 2511
High 2510
Fehl@@ 2510
bewahren 2510
ins@@ 2510
Abendessen 2510
stück 2509
Bru@@ 2509
Handel@@ 2509
anda 2509
beeinflussen 2508
43 2507
Führungs@@ 2507
festlegen 2506
zentral 2506
IN 2506
Aufsichts@@ 2505
Somit 2504
Stre@@ 2503
sterben 2503
Wur@@ 2502
empfohlen 2501
Präsenz 2501
Dritte 2501
hinzufugen 2501
wert@@ 2500
kümmern 2500
komplette 2500
Haben 2499
Auftrags@@ 2499
Hardware 2499
ite 2498
zunehmen 2498
flu@@ 2498
Wiederaufbau 2498
verletzt 2497
grammatisch 2497
US@@ 2496
melden 2496
erzeugen 2496
kontextuell 2496
ECU 2495
eingestellt 2495
eben@@ 2494
afrikanischen 2493
stellungs@@ 2492
Bedürfnissen 2492
Bibliothek 2492
langer 2491
Schlusselwort 2491
Schlusselphrase 2491
Ansch@@ 2490
aufzubauen 2490
gener@@ 2490
bewerten 2490
hö@@ 2490
Höchst@@ 2489
ona 2489
Update 2489
aufgezahlt 2489
Jugend@@ 2488
sat@@ 2487
Ankunft 2487
ga@@ 2487
spezi@@ 2487
entes 2485
praktischen 2485
Finnland 2484
klassischen 2483
Symbol 2482
MA@@ 2482
Bet@@ 2482
zerstört 2481
Anbetracht 2481
heben 2479
schla@@ 2479
stische 2478
beseitigen 2477
älteren 2476
és 2475
rt 2475
Spezial@@ 2475
National 2474
á 2474
momentan 2473
verringert 2473
vorgelegten 2472
Vorsitzenden 2472
Anwender 2472
Kreditkarte 2471
Resort 2471
Ausbildungs@@ 2468
wil@@ 2468
ausüben 2468
Shop 2468
ole 2467
chti@@ 2466
Werten 2466
Montag 2465
behält 2465
demo@@ 2465
Mutter 2465
mangel@@ 2464
gekennzeichnet 2464
lichsten 2464
65 2463
Hinweise 2462
enormen 2462
tau@@ 2462
oftmals 2462
tigkeiten 2462
Russlands 2462
Uni@@ 2461
ée 2460
Bil@@ 2460
vari@@ 2460
entdeckt 2460
ansprechen 2459
offenbar 2459
wirtschafts@@ 2459
wahr 2458
42 2457
verkehrs@@ 2457
wege 2457
kennt 2457
Beitritts@@ 2456
Kontakt@@ 2455
tal 2455
jedenfalls 2454
Tests 2453
Flash 2453
Gest@@ 2452
Serbien 2452
beinhalten 2451
werken 2451
Ara@@ 2450
viertel 2449
Betriebe 2449
pan@@ 2449
Zahlung 2449
Überblick 2449
Vereinigte 2448
sprach@@ 2448
Übertragung 2447
psych@@ 2447
eingebracht 2446
Autom@@ 2446
Spielen 2446
1992 2445
arbeitete 2445
König 2445
Ster@@ 2445
produkten 2444
Sitz@@ 2443
öh@@ 2442
Stand@@ 2442
Patent@@ 2440
räumen 2439
eventuell 2437
schwere 2437
Wochenende 2437
Gesetzes@@ 2436
sitzen 2434
Schönheit 2434
eingeleitet 2433
vorzunehmen 2432
EU@@ 2432
tö@@ 2431
Übergang 2431
stammen 2431
toren 2430
strukturen 2428
Freund 2428
eit 2428
SA@@ 2428
Minute 2427
ober@@ 2427
hierzu 2427
ir 2427
stammt 2426
förder@@ 2426
gener 2426
selben 2425
vorge@@ 2424
wirk@@ 2424
Han@@ 2424
Lizenz@@ 2424
Top 2424
Amts@@ 2423
Volkspartei 2423
Zuge 2423
Syrien 2423
parlamentarischen 2422
vorher@@ 2422
Nizza 2422
lin 2422
gesellschaftlichen 2421
Autos 2421
zahlungen 2420
lischen 2420
Schla@@ 2420
7.@@ 2420
Herbst 2419
Zimmer@@ 2419
Parkplätze 2419
setz@@ 2418
stimm@@ 2418
ane 2418
fes@@ 2416
Prodi 2414
Mädchen 2414
gere 2413
Argument 2412
Schiff 2412
igkeit 2412
Eingang 2412
Wor@@ 2412
Tu@@ 2411
Prozeß 2410
gelangt 2410
gemeinsames 2410
.de 2410
kat@@ 2409
Nah@@ 2409
Herz@@ 2408
lik@@ 2408
yp@@ 2408
anwenden 2407
Entschlossenheit 2407
Ide@@ 2406
verst@@ 2406
Truppen 2405
Gol@@ 2405
wort 2405
Fil@@ 2405
eigener 2404
anzubieten 2404
Verteidigungs@@ 2404
egal 2404
komfortable 2404
Zwar 2403
Zug 2403
sisch 2402
ologischen 2402
Sieg 2402
Konvent 2402
maschine 2402
wider 2401
verstehe 2400
Hil@@ 2400
Mand@@ 2400
mö@@ 2400
Ratifizierung 2399
aufbauen 2399
lim@@ 2399
port@@ 2399
derten 2398
Michael 2398
24@@ 2397
verständlich 2397
ki@@ 2396
vorliegen 2396
Trans@@ 2396
ick 2395
Betten 2395
linken 2394
Entspannung 2393
landwirtschaftlichen 2391
Politik@@ 2391
hinweg 2391
flo@@ 2391
fähigen 2390
chtet 2390
gesp@@ 2389
Vis@@ 2389
ergänzen 2388
trat 2387
Aussage 2386
linie 2386
tum 2386
Liber@@ 2386
38 2386
Sobald 2385
perfekte 2385
esch@@ 2385
überwachen 2384
Bor@@ 2384
Quali@@ 2384
LA@@ 2384
pe 2383
eck@@ 2382
Vorstellungen 2381
quote 2381
ungser@@ 2381
net@@ 2380
xen 2379
reise 2379
Fuß@@ 2379
Bedien@@ 2378
ink@@ 2378
ön@@ 2378
Lern@@ 2378
fri@@ 2377
stal@@ 2376
Zer@@ 2376
pu@@ 2375
Teams 2375
Tür 2374
Versicherungs@@ 2374
Planeten 2374
Detail 2374
reagiert 2373
alisi@@ 2373
mis@@ 2373
digt 2372
Lang@@ 2372
anzeigen 2371
Air 2371
medi@@ 2371
gestatten 2370
Ausbau 2370
Milch@@ 2370
eten 2369
ruhig 2368
Kyoto 2368
gestiegen 2367
zig 2367
nicht@@ 2367
Erreichung 2366
Wissenschaftler 2365
software 2365
Deutsch 2365
ziger 2364
zogen 2364
gangs 2363
Cas@@ 2363
ansehen 2363
spät 2362
dens 2362
liger 2362
ausgewählt 2362
Prozess@@ 2362
chtigen 2361
umgehen 2361
Krieges 2361
ativ@@ 2359
legte 2359
abend 2358
Garantien 2358
hau@@ 2358
can 2358
keineswegs 2357
Grundlagen 2357
neun 2357
grenzüberschreitenden 2357
Street 2357
Lateinamerika 2356
erteilt 2355
rop@@ 2354
inner@@ 2353
geblieben 2353
schw@@ 2353
vorgestellt 2353
Komp@@ 2353
projekt 2351
nächster 2350
Direkt@@ 2349
Dänemark 2348
Weiterentwicklung 2347
Ob@@ 2347
Entwickler 2347
dere 2346
Sohn 2346
stärksten 2345
lü@@ 2345
Alt@@ 2345
Religion 2345
betrieb@@ 2344
Benutzer@@ 2344
Hau@@ 2343
Datum 2342
Regional@@ 2342
angehen 2342
Val@@ 2342
Berliner 2342
Mö@@ 2342
Haushalts 2341
enes 2341
Indi@@ 2341
Zy@@ 2341
gol@@ 2341
e- 2341
Gewinn@@ 2340
gers 2340
England 2340
Objek@@ 2340
85 2339
italienische 2339
wächst 2339
Vorrang 2338
Abfall@@ 2338
ator@@ 2338
pat@@ 2338
Ansprüche 2338
lieben 2337
itä@@ 2337
bur@@ 2337
hü@@ 2337
erwiesen 2336
leu@@ 2336
Fe@@ 2336
Entwicklungshilfe 2335
.000 2335
Weil 2334
früh@@ 2334
Verbrauchern 2333
Fa@@ 2333
Aufzug 2333
02 2332
fil@@ 2332
bewußt 2331
ausgehen 2331
verurteilen 2331
Theater 2331
Poly@@ 2331
ökologischen 2330
sicherung 2329
poli@@ 2329
Durchsetzung 2328
selber 2328
Dreh@@ 2328
bes 2328
aum 2328
wechsel 2327
Flughäfen 2327
m2 2327
Tieren 2326
Haut 2326
enth@@ 2324
Länge 2323
Fahrt 2323
Hö@@ 2322
minim@@ 2321
Poker 2321
edi@@ 2320
fassung 2319
25. 2319
digungen 2318
je@@ 2317
Aspekten 2316
Tal 2316
Inn 2316
tene 2315
manchen 2315
grünen 2315
bert 2315
Ap@@ 2315
Mat@@ 2315
geschickt 2314
sper@@ 2314
ga 2314
Strecke 2314
Museen 2314
negative 2313
Mängel 2313
geschlossenen 2312
dlicher 2311
Lesen 2311
Martin 2311
Verzeichnis 2310
Konvention 2310
Werden 2310
Kredi@@ 2310
liber@@ 2309
würdigen 2308
Nich@@ 2308
aktuell 2308
Na@@ 2308
fizierung 2308
SO@@ 2307
vorschlag 2306
sozial@@ 2306
Tab@@ 2306
breit@@ 2305
sicht@@ 2305
fas@@ 2305
Pres@@ 2305
House 2305
Jedoch 2304
automati@@ 2304
49 2304
ehemalige 2303
Dokumentation 2303
Ferienwohnung 2302
definieren 2301
wechseln 2301
höchst 2301
Benutzung 2301
Betreuung 2301
Traditionen 2300
lädt 2300
chern 2300
Käufer 2300
politiken 2299
Sachver@@ 2299
herrlichen 2299
Mau@@ 2299
Suite 2299
Gottes 2298
modern 2298
licht 2297
interne 2297
Existenz 2297
dauer 2296
regionen 2295
Satz 2295
ändert 2295
06 2295
ausgegeben 2294
bild@@ 2294
dor@@ 2293
Kr@@ 2293
Schloss 2293
hinzu@@ 2292
knapp 2292
Drei@@ 2292
wand@@ 2292
besucht 2292
Back@@ 2292
gefährlich 2291
optimal 2291
arabischen 2291
hinzu 2291
Spitze 2290
stung 2290
teilung 2290
dat@@ 2290
art@@ 2289
3,@@ 2289
hast 2289
Behörde 2288
beteiligten 2288
effizienter 2287
Institut 2287
enter 2286
Design@@ 2286
ständen 2285
Oberfläche 2285
Denken 2284
gerechte 2284
Fassung 2284
baus 2284
Maria 2284
grosse 2284
derart 2283
enger 2283
flug@@ 2283
Är@@ 2281
voran@@ 2281
tz 2280
ander@@ 2280
beabsichtigt 2280
rich@@ 2280
jahr 2280
Card 2280
entsch@@ 2279
ato 2279
bedroht 2279
sab@@ 2279
Pflanzen 2279
mehrfach 2277
39 2276
plus 2276
8.@@ 2276
sur 2276
Herkunfts@@ 2275
stärk@@ 2274
Bord 2274
Nichtraucherzimmer 2274
zusetzen 2273
Kompetenzen 2273
Email 2273
satz@@ 2272
bedürf@@ 2272
s- 2272
-- 2272
befürworten 2271
umfassen 2271
Posi@@ 2270
gebildet 2270
NICHT 2268
Effekt 2267
sal@@ 2267
aut 2267
wach@@ 2267
Identi@@ 2267
Besuchen 2267
berechnet 2267
aff@@ 2266
Ehre 2266
Beschränkungen 2266
Del@@ 2266
gänge 2265
Slowakei 2265
IL@@ 2265
DA@@ 2264
Protokolls 2263
Gibt 2263
Prüf@@ 2263
Niederlande 2263
Klarheit 2262
licherweise 2262
feh@@ 2262
Wechsel@@ 2261
hr 2261
Revision 2260
Lohn@@ 2259
200@@ 2258
konsequent 2257
nehme 2257
Holz 2257
ID@@ 2256
Paul 2256
las 2256
Steigerung 2255
Anmeldung 2255
Versprechen 2255
beibehalten 2254
entfernen 2254
Shi@@ 2254
beantwortet 2253
versteht 2253
Festival 2253
bett 2253
wirklichen 2252
funktion 2252
merk@@ 2250
ahn@@ 2250
Hamburg 2250
ola 2250
kop@@ 2250
digitale 2250
alistischen 2249
öffentlicher 2249
branche 2249
errichtet 2249
Gold@@ 2249
Can@@ 2249
volles 2248
gegebenenfalls 2247
anzuwenden 2247
generell 2246
Vordergrund 2246
Statistiken 2245
bek@@ 2245
2012 2245
Reg@@ 2244
ökonomischen 2244
Ther@@ 2244
urlaub 2243
nutzt 2242
mitglieder 2242
paket 2242
Maschinen@@ 2242
geliefert 2241
richtung 2240
erstens 2240
Einer 2240
1990 2240
desto 2240
Aut@@ 2240
ley 2240
herzustellen 2239
Schicksal 2239
schau@@ 2239
Radio 2239
sozi@@ 2238
Berg 2238
eth@@ 2238
ele 2238
tätigen 2237
erend 2237
Häuser 2237
\ 2237
Katalog 2236
tiere 2235
Vier@@ 2235
nungs@@ 2235
oten 2235
Hier@@ 2235
ting 2235
ai@@ 2235
las@@ 2234
wendung 2234
südlichen 2234
netz 2233
erheblichen 2233
Media 2233
erteilen 2231
veröffentlichen 2231
Aufhebung 2231
Tel@@ 2231
Nachdruck 2230
Golf@@ 2230
Wahrung 2229
Universitäten 2229
regionaler 2228
akt 2228
Zweiten 2228
gerufen 2227
Typ 2227
Lernen 2227
vertritt 2226
behauptet 2226
Chancengleichheit 2225
wachsende 2225
31. 2225
schwedischen 2225
Wol@@ 2225
Europe 2225
ty 2224
mäßig 2223
Offenheit 2223
einf@@ 2223
.00 2223
Speisen 2223
Tau@@ 2222
vollem 2222
genauer 2221
Rückgang 2221
S. 2221
Pass@@ 2221
Häfen 2220
vorsieht 2220
grossen 2220
Vorgehensweise 2219
Lebensmittelsicherheit 2219
bra@@ 2219
herr@@ 2218
Peter 2218
jährlichen 2217
quellen 2217
auswirken 2217
Auflösung 2216
1993 2215
Erfolge 2215
ON@@ 2215
erheben 2213
zweiter 2213
langem 2213
Dynamik 2213
greift 2212
enzi@@ 2212
Georgien 2212
schem 2211
IA 2211
Fang@@ 2210
Zimmerbeschreibung 2210
Fortsetzung 2209
strukturi@@ 2209
hohes 2208
gesetzten 2208
schrift 2208
fü@@ 2208
Frühstücksbuffet 2208
Kennzeichnung 2207
Ministerpräsident 2207
Sowohl 2207
fuer 2207
grund 2206
zahlt 2206
Bereits 2205
Boot 2204
ED@@ 2204
Kommissionspräsident 2204
Putin 2204
RO 2204
Genau 2203
gewidmet 2203
angenehmen 2203
erhoben 2201
Zeitplan 2201
Soldaten 2201
Nachbar@@ 2201
klasse 2201
Zielsetzungen 2200
täten 2200
Mer@@ 2200
Hostelsclub 2199
Vorsch@@ 2198
kal@@ 2198
fli@@ 2198
Fluss 2198
fol@@ 2197
respektieren 2197
anerkennen 2197
hilfreich 2196
spezialisiert 2196
betrieb 2196
Netze 2196
ag 2196
Liberalen 2195
tert 2195
UR@@ 2195
endet 2194
betriebe 2194
stattgefunden 2193
zäh@@ 2193
250 2193
bs 2193
Immobilien 2193
Wichtigkeit 2192
aktiviert 2192
Son@@ 2192
läu@@ 2192
Problematik 2191
klein 2191
lte 2190
beispiel@@ 2190
zugeben 2189
ände 2189
NL 2189
Eu@@ 2188
widmen 2187
gent@@ 2187
Minderheit 2187
Anmerkungen 2186
Betracht 2186
Eines 2186
Lam@@ 2186
fehlen 2185
kräf@@ 2185
setzte 2185
angenommenen 2184
ah 2184
benutz@@ 2183
klassi@@ 2182
fle@@ 2182
schutzes 2182
Gegner 2182
Autobahn 2182
günsti@@ 2181
größeres 2181
Unterkünfte 2181
professionelle 2181
mechanismen 2180
ausländischen 2180
niedrigen 2180
loser 2179
Text@@ 2179
CA@@ 2179
passen 2178
Rent@@ 2178
has 2178
Cookies 2178
fortsetzen 2177
isi@@ 2176
Berge 2176
Philosophie 2176
Amerikas 2176
ologischer 2175
Weltwirtschaft 2175
verwendeten 2175
Ausrichtung 2174
Offen@@ 2174
od@@ 2174
typischen 2174
erarbeitet 2173
deck@@ 2173
Berich@@ 2173
ay 2172
dieren 2172
Geheim@@ 2172
Airbus 2172
Kaffee 2172
größter 2171
use 2171
mark@@ 2171
mung 2170
miß@@ 2170
Sand@@ 2170
Gebühren 2170
begegnen 2169
üsse 2169
schriftliche 2169
verbreitet 2168
unmittelbarer 2168
vel@@ 2168
pool 2168
beweisen 2167
Dro@@ 2167
trags@@ 2166
freier 2166
intensiv 2166
Himmel 2166
schung 2165
Fläche 2165
fahrzeuge 2164
ähnlichen 2164
Men@@ 2164
ecken 2163
Office 2163
ai 2163
lers 2162
03 2162
Kno@@ 2162
Bl@@ 2162
rit@@ 2161
03@@ 2161
tatsächlichen 2161
Können 2161
chemische 2161
rooms 2161
Einen 2160
klären 2160
innovativen 2160
Kommentare 2160
endgültige 2160
ums@@ 2160
uneingeschränkt 2160
1000 2160
verabschieden 2159
Fremdenverkehr 2159
nungen 2159
schm@@ 2159
Wo@@ 2159
falsche 2159
bemerk@@ 2159
Bürokratie 2158
ett@@ 2158
erforderliche 2158
Zunahme 2157
Aussagen 2157
stor@@ 2156
Rechnungs@@ 2156
Anreize 2155
Verordnungen 2155
kohär@@ 2154
turen 2154
solch 2154
üb@@ 2154
dateien 2154
III 2153
russische 2153
com@@ 2153
Bestätigung 2152
05 2152
sied@@ 2151
jüngste 2151
hinzugefügt 2151
Modul 2151
Tool 2151
Jean 2150
Regel@@ 2149
anzupassen 2149
bit@@ 2149
dene 2148
General 2147
erweisen 2146
deutliche 2146
planen 2146
att@@ 2146
mei@@ 2146
ül@@ 2145
Besitz 2145
Nord 2145
Skype 2145
drängen 2144
Erarbeitung 2144
formuliert 2144
sierungs@@ 2143
Verfahrens 2143
betra@@ 2143
überrascht 2143
Wettbewerbs 2142
JavaScript 2142
fang 2141
Alternativen 2141
Schn@@ 2141
Ursache 2141
Bro@@ 2140
Erst@@ 2140
mati@@ 2139
Abbau 2139
Werkzeug 2139
PA 2139
ue 2139
schule 2138
tagen 2138
Kli@@ 2138
Export@@ 2138
Sonntag 2138
Bücher 2137
44 2136
offiziell 2136
IG@@ 2136
Rech@@ 2135
gesucht 2135
Betrieb@@ 2135
adi@@ 2134
Ausgrenzung 2134
Ruf 2134
Risiko@@ 2134
41 2134
fairen 2133
Viel@@ 2133
iel@@ 2133
Java 2133
steten 2132
Räume 2132
instrument 2132
könne 2132
Klimawandels 2130
gemeinsamer 2129
fügen 2129
uni@@ 2128
Ablauf 2128
Mach@@ 2127
Terroristen 2127
hundert 2127
davor 2126
vertrau@@ 2126
Roh@@ 2126
innere 2126
ate@@ 2126
verursachen 2125
gewicht 2125
Erwachsene 2125
chn@@ 2124
Nehmen 2124
Verabschiedung 2123
integrierte 2123
spanische 2123
yn@@ 2123
mechanismus 2123
förderung 2122
ement 2122
künst@@ 2122
denden 2121
bewegt 2121
Spezialitäten 2121
Nichtraucherzonen 2120
Orten 2120
ökonomische 2120
richtungen 2120
Forsch@@ 2120
bewertet 2120
angekündigt 2120
ht 2120
Glas@@ 2120
regi@@ 2120
staff 2120
Raums 2119
existieren 2119
Verfahrens@@ 2119
Uns 2119
Landwirtschafts@@ 2118
vertraut 2118
üblichen 2118
standes 2118
Betrifft 2117
Den@@ 2117
Bon@@ 2117
wirft 2116
dieselben 2115
abgesehen 2115
Zivil@@ 2115
Drogen 2115
bergen 2115
Dat@@ 2115
Kürze 2114
Ausnahmen 2114
nisses 2114
Menschheit 2114
Bosnien 2114
gehei@@ 2114
Bevor 2113
geringen 2113
xi@@ 2113
fähi@@ 2112
befürwortet 2112
Ausbeutung 2112
Entfernung 2111
erwähnten 2111
hochwertigen 2111
Objekte 2111
harmon@@ 2110
eht 2110
Sat@@ 2110
able 2109
kel@@ 2109
nahme@@ 2108
berühmte 2108
ala 2108
antes 2108
geschäft 2108
Bildern 2108
Fahrer 2106
Hände 2106
Taten 2106
iges 2106
Rel@@ 2106
zugestimmt 2105
übt 2104
zustande 2103
Gerichts@@ 2102
Formulierung 2101
Produktivität 2101
ück@@ 2101
bro@@ 2101
AB@@ 2100
Wohnzimmer 2100
komplexen 2099
geehrte 2098
sichert 2098
reibungs@@ 2098
elektronische 2097
östlichen 2097
gegenseitigen 2096
besonderes 2096
Strand@@ 2096
GNU 2096
Florenz 2095
Bürgerbeauftragten 2095
Annehmlichkeiten 2095
Rob@@ 2094
Fru@@ 2094
ast 2094
eindeutige 2093
wir@@ 2093
bearbeiten 2093
Referendum 2093
Q 2093
steller 2092
Steuer 2092
hafter 2092
Speicher@@ 2092
durchzusetzen 2091
Wiederherstellung 2091
präzise 2091
prinzip 2091
Saint 2091
Saison 2091
Ange@@ 2090
gemessen 2090
sau@@ 2090
Haushalte 2090
erarbeiten 2089
bruch 2089
EF@@ 2089
Mil@@ 2089
gesetz 2088
vorliegt 2087
fähige 2087
erkennt 2086
Rechnungshof 2086
kriterien 2086
Einzelheiten 2086
ungst@@ 2086
Mün@@ 2086
Kuba 2086
Bat@@ 2086
feu@@ 2085
fangen 2083
Schei@@ 2082
bekämpfung 2081
omm@@ 2081
Frauen@@ 2080
grenze 2080
Tools 2080
begründet 2078
Deutschlands 2078
derselben 2078
etes 2078
vertrauen 2076
zone 2076
streben 2076
yst@@ 2076
ON 2076
Umstände 2075
verfol@@ 2075
A4 2075
unterschiedlicher 2074
Mul@@ 2074
assi@@ 2074
übermitteln 2073
ressourcen 2073
Verfolgung 2073
lar@@ 2073
umso 2073
hervorragend 2072
Funktionieren 2072
euer 2072
verwiesen 2072
berichtet 2072
Finanzen 2072
Rechner 2072
Euch 2071
steuer 2070
Schuld 2070
siven 2070
Übernahme 2070
kostenlose 2070
religiösen 2070
kti@@ 2069
Mc@@ 2069
Vertrieb@@ 2069
č@@ 2069
Hi@@ 2068
erleichtert 2067
Eing@@ 2067
Einnahmen 2067
Glei@@ 2067
Lau@@ 2067
Menschenrechtsverletzungen 2067
West 2066
fungen 2066
Pe@@ 2066
Bewusstsein 2066
ziel 2065
bedauerlich 2065
tis 2064
ester 2063
löschen 2063
stätten 2063
leistet 2062
dieselbe 2062
legi@@ 2062
Em@@ 2062
Bevölkerungs@@ 2061
technisch 2061
Hat 2061
Gemeinden 2060
Strände 2060
NRO 2060
Außenminister 2060
Gei@@ 2060
Schüler 2060
fla@@ 2060
dring@@ 2059
bewegung 2059
Fleisch 2059
spann@@ 2059
kürz@@ 2058
änge 2058
Rezession 2058
Fischereipolitik 2057
techn@@ 2057
gie@@ 2057
Ereignis 2057
erstes 2057
51 2057
Zwischen 2057
günstige 2054
Einsatz@@ 2054
700 2053
Trau@@ 2053
24. 2053
nötigen 2052
ware 2052
Heimat 2051
Bauern 2051
Da@@ 2051
Gentoo 2051
Gruppen@@ 2050
genau@@ 2049
stru@@ 2049
lüsse 2048
Wohnungen 2048
Fan@@ 2048
rufe 2047
zurzeit 2047
Airport 2047
umgehend 2046
gehe 2046
Brand@@ 2045
Abgeordneter 2045
Händen 2045
auswählen 2045
car@@ 2045
Bestellungen 2045
Client 2045
isierung 2044
fei@@ 2043
AL 2043
ärmsten 2042
günstigen 2042
Südafrika 2042
dasselbe 2041
BSE 2041
good 2041
ong 2041
Pla@@ 2041
Audio 2041
klar@@ 2040
Menschenrechten 2040
mi 2040
Verkaufs@@ 2039
Erlebnis 2039
Wellness 2039
Recht@@ 2038
heits@@ 2038
komplexe 2038
greif@@ 2037
sz@@ 2037
anzuzeigen 2037
Miß@@ 2035
Diesen 2035
Binnen@@ 2034
erlassen 2034
israelischen 2034
Logik 2034
Innenstadt 2034
sc@@ 2034
Migration 2033
Sekunden 2033
Danach 2032
normen 2032
Zerstörung 2032
Zucker@@ 2032
Licht@@ 2032
Ausrüstung 2032
eli@@ 2032
professionellen 2032
staatlicher 2031
Parlament@@ 2031
terin 2031
stoßen 2031
gerechtfertigt 2030
umzu@@ 2030
komple@@ 2030
ausländische 2030
einführen 2029
chi@@ 2029
vermutlich 2029
demokratisch 2027
bezeichnen 2027
SV 2027
Anti 2027
Г 2027
flexibel 2026
ech@@ 2026
geeigneten 2026
Via 2026
unterbrochen 2025
beinahe 2025
Filme 2025
linien 2024
s.@@ 2024
zunehmende 2023
geringer 2023
Werkzeuge 2023
ssi@@ 2023
Festplatte 2023
Lieferanten 2023
vermittelt 2022
spüren 2022
Begründung 2022
alem 2022
set 2022
Kopf@@ 2021
dienstleistungen 2020
As@@ 2020
aktualisiert 2019
Album 2019
gingen 2018
medizinische 2018
Sur@@ 2018
Anträge 2017
Alters@@ 2017
engen 2017
Christ@@ 2017
Kenntnisse 2017
Plaza 2016
technischer 2015
arbeiteten 2015
verschaffen 2015
erwerben 2015
steuer@@ 2015
beruhen 2015
vermieden 2014
ans@@ 2014
Handlungen 2014
Energiequellen 2014
Betreiber 2014
dargelegt 2013
Gewinne 2013
Waren@@ 2013
location 2013
Abteilung 2012
treiben 2012
ero@@ 2012
verstärkte 2011
mächti@@ 2011
tak@@ 2010
Schutzes 2010
stands@@ 2010
sagten 2010
Urlaubs@@ 2010
ke@@ 2010
bre@@ 2009
gkeits@@ 2009
Emp@@ 2009
hielt 2009
ätze 2008
inneren 2008
endgültigen 2007
beschleunigen 2007
führungs@@ 2007
Erwägung 2007
ablehnen 2007
Projek@@ 2006
Marokko 2006
sicherer 2005
Beamten 2005
zeigte 2005
trau@@ 2005
Komm@@ 2005
gering 2004
industriellen 2004
änderungen 2004
sischer 2003
ands 2003
Insgesamt 2003
mä@@ 2003
ol 2003
Aktu@@ 2001
Spannungen 2001
Balkan 2000
eig@@ 2000
elegante 2000
Zuverlässigkeit 2000
Spaziergang 2000
Derzeit 1999
EM@@ 1999
Bestell@@ 1999
Großen 1998
120 1997
lebenden 1997
Einwanderer 1997
zun@@ 1997
gehabt 1996
innen@@ 1996
Internetzugang 1996
Hauptbahnhof 1996
einstimmig 1995
iti@@ 1995
Dru@@ 1995
Australien 1995
planung 1994
öse 1994
Bezeichnung 1994
Gas 1994
1989 1993
gste 1993
stei@@ 1993
Lehrer 1993
renoviert 1993
fragt 1992
alle@@ 1992
früh 1992
ruppe 1991
ay@@ 1991
22. 1991
einsch@@ 1991
not@@ 1991
Western 1991
eröffnen 1990
10.@@ 1990
46 1990
Steuerzahler 1989
Meinungen 1989
tives 1989
1991 1989
Palette 1989
my 1989
Hän@@ 1988
Strom 1988
kurse 1988
Off@@ 1988
zugelassen 1987
Eröffnung 1987
terungen 1986
trags 1986
glaubt 1986
Beschluß 1986
Friedens 1986
Belastung 1986
Samstag 1986
pul@@ 1986
GB 1986
Lounge 1986
alistische 1985
österreichischen 1985
ena 1985
KOM 1984
04 1984
Motor 1984
organisierten 1984
ater 1984
mas@@ 1984
einiges 1983
eintreten 1983
MySQL 1983
binden 1982
Beratungen 1982
Privatsphäre 1982
kritischen 1981
Gesicht 1981
sta 1981
Modus 1981
kleinere 1980
David 1980
Stu@@ 1980
Ca@@ 1980
Prag 1979
erleb@@ 1978
ey 1978
Osteuropa 1977
schwieriger 1977
Immer 1977
bü@@ 1976
gehörigen 1976
It 1976
Appartements 1976
umfangreichen 1975
Herkunft 1975
lien 1975
Drittstaaten 1974
ehrlich 1973
ros 1973
beruflichen 1972
Seele 1972
Nachmittag 1972
Dor@@ 1971
kunden 1971
zeugen 1970
teln 1970
lern 1970
zentraler 1969
agen 1969
anpassen 1969
Reinigung 1969
Fakten 1968
Zusammensetzung 1968
47 1968
atischen 1967
Mutter@@ 1967
eingeräumt 1966
klein@@ 1965
derjenigen 1965
Renn@@ 1965
zahlung 1964
erlangen 1964
9.@@ 1964
Venedig 1964
geringe 1963
blicken 1963
integrieren 1963
Weltkrieg 1963
Gewinn 1963
basi@@ 1963
ear@@ 1962
ktion@@ 1961
USD 1961
abgeben 1960
ernsthafte 1960
Laut 1960
eigentliche 1959
gelingen 1958
Krisen 1958
alisierungs@@ 1957
zugute 1957
organ@@ 1957
ica 1957
Grundsätzen 1956
ausreichende 1956
Lab@@ 1955
Betrug 1954
alisten 1954
Tex@@ 1954
12.00 1953
rie@@ 1953
Unsicherheit 1953
mag@@ 1953
aufnahme 1952
Lager 1952
Van 1952
möglichkeit 1951
mail 1951
einzig 1951
Verteidigungspolitik 1951
flächen 1951
verzichten 1950
schenken 1950
AG@@ 1950
überein@@ 1950
Schad@@ 1950
stützen 1949
Mü@@ 1949
Verlängerung 1948
maximal 1948
ere@@ 1948
resul@@ 1948
Studi@@ 1948
Mittwoch 1947
mittlere 1947
ita 1947
Tor 1947
retten 1946
Beurteilung 1946
gestartet 1946
Wald@@ 1945
Felder 1945
Vit@@ 1945
Stell@@ 1944
Summe 1944
Fal@@ 1944
druck@@ 1944
listen 1944
Doppelzimmer 1944
aufgestellt 1943
stil@@ 1943
ars 1943
Inkrafttreten 1942
basis 1942
Feststellung 1942
Versuche 1942
Nation 1942
genießt 1941
handels@@ 1941
ata 1941
rechtlich 1940
zent@@ 1940
gehandelt 1940
ment 1939
Übersicht 1939
ón 1939
Pil@@ 1939
angenehm 1939
zeichneten 1938
zwölf 1938
kombiniert 1938
na@@ 1938
gelernt 1937
angebote 1937
beschließen 1936
eckt 1936
geber 1936
Verfasser 1935
Pflichten 1935
keiten 1935
schlechte 1934
Stufe 1934
Todes@@ 1932
ju@@ 1932
Rußland 1931
abgegeben 1931
post@@ 1931
Einschätzung 1930
fuhr 1930
becken 1930
Tr@@ 1930
relevanten 1929
Konzer@@ 1929
inakzeptabel 1929
altung 1929
zwischen@@ 1929
bereit@@ 1928
Bewältigung 1928
isten 1928
Nu@@ 1928
Rö@@ 1928
Mei@@ 1928
mb@@ 1928
passieren 1926
seln 1926
Erzeugung 1926
luss@@ 1926
Arbeitsgruppe 1925
Stahl@@ 1925
kra@@ 1925
Rassismus 1925
züge 1925
gebe 1924
Besteuerung 1924
Kein 1924
Last 1924
the@@ 1924
AU@@ 1924
Kernel 1924
methode 1923
Weiß@@ 1922
dien@@ 1922
Intervention 1922
Weiterhin 1921
kredi@@ 1921
User 1921
vorgehen 1920
Ausübung 1920
heit@@ 1920
getrennt 1920
Kap@@ 1920
basieren 1919
sive 1919
We 1919
Heimat@@ 1918
Rahmenbedingungen 1918
Wünschen 1918
entstand 1918
Pul@@ 1917
garten 1917
USS 1917
ursprüngliche 1916
Jugendliche 1916
Fon@@ 1916
Rennen 1916
jeglicher 1915
beziehungen 1915
wahre 1914
demokratischer 1914
Grünbuch 1914
Kra@@ 1914
Autor 1914
realen 1913
respektiert 1913
anforderungen 1912
steh@@ 1912
ov@@ 1912
23. 1911
bilateralen 1911
organisierte 1911
Verletzungen 1911
gebung 1911
gebühren 1910
globaler 1910
Tauch@@ 1910
hört 1909
erneuerbaren 1909
vorschläge 1909
beizutragen 1909
Ausschüsse 1909
bahn@@ 1909
einst 1909
Vertretung 1909
Luxus 1909
SI@@ 1909
Phänomen 1908
nachzu@@ 1908
tausend 1907
Pop@@ 1907
Fisch 1907
stattdessen 1907
verkehr@@ 1906
gefähr@@ 1906
Private 1906
insofern 1905
Erweiterungs@@ 1905
ierungs@@ 1905
Feu@@ 1905
col@@ 1905
Anhörung 1904
wel@@ 1904
Regionalpolitik 1903
dem@@ 1903
Besitz@@ 1902
behandlung 1902
woh@@ 1902
sogenannte 1902
gri@@ 1902
iniert 1901
rin@@ 1901
Brücke 1901
heutzutage 1900
kanische 1900
EG@@ 1899
52 1899
austausch 1899
sin@@ 1899
Beschwerden 1899
Drei 1898
Hafen@@ 1897
ré@@ 1897
zentrali@@ 1896
investiert 1896
rahmen 1896
weit@@ 1896
Keine 1896
Inhalten 1896
wander@@ 1896
well 1896
SA 1896
empfängt 1896
Module 1896
gefährden 1895
irgend@@ 1895
würdig 1895
uss@@ 1895
absol@@ 1894
Stat@@ 1894
berufen 1894
29. 1894
orientierte 1893
Parlaments@@ 1892
vereint 1892
Individu@@ 1892
Übereinkommens 1892
verpflichten 1891
zwanzig 1891
erkunden 1891
küh@@ 1890
Verluste 1890
Publikum 1890
Tan@@ 1890
kostenlosen 1890
Global 1890
Einschränkungen 1889
Kas@@ 1889
dahin 1888
Anwesenheit 1888
starkes 1887
Unterzeichnung 1887
reifen 1887
ments 1887
PR@@ 1887
Gipfeltreffen 1886
effizienten 1886
Basi@@ 1886
Plas@@ 1886
funktionen 1885
PL@@ 1884
Gut@@ 1884
Updates 1884
wünscht 1883
erörtert 1883
lokaler 1883
einnehmen 1883
yer 1883
Original@@ 1883
Hot@@ 1883
zunehmenden 1882
abkommens 1882
gebunden 1882
pra@@ 1882
medizinischen 1882
fikation 1882
ehrt 1881
Subventionen 1881
EP 1881
Tabelle 1881
AS 1881
TR@@ 1881
gemütliche 1881
vernünftige 1880
Konflikt@@ 1880
auer 1880
§ 1880
bedauere 1879
Erhalt 1879
einstellen 1879
eti@@ 1879
aufgeführt 1878
Million 1878
Produktion@@ 1878
märkten 1877
vereinbarten 1877
Kam@@ 1877
Arbeitgeber 1876
Organ@@ 1876
Richter 1876
Tru@@ 1876
überwacht 1875
mien 1875
bewirken 1874
griffen 1874
Wälder 1874
leidet 1874
eleganten 1874
gesam@@ 1873
auff@@ 1873
Kapazität 1873
Mehrwert 1873
Satelliten@@ 1873
verzeichnen 1872
Funktion@@ 1872
Dublin 1872
Kurz 1872
Energiepolitik 1872
Comm@@ 1872
baut 1871
höchster 1871
meldung 1871
frem@@ 1871
ktions@@ 1869
Pl@@ 1869
Spektrum 1869
aussehen 1868
derartigen 1868
egel@@ 1868
Gem@@ 1868
irische 1868
sonstige 1868
Angriffe 1868
Al 1868
dy 1868
konstruktive 1867
technologische 1867
Wichtig 1867
Fahrzeug 1867
band 1867
sy@@ 1866
här@@ 1866
Automobil@@ 1866
Mari@@ 1866
Weine 1866
Gri@@ 1866
seu@@ 1865
Inspek@@ 1865
realisiert 1865
egen 1865
zeichnung 1864
wirksamen 1863
geplanten 1863
IC 1863
Port@@ 1863
unterbreiten 1862
ordnungsgemäß 1862
Einkommens@@ 1862
Ergänzung 1862
geniessen 1862
Wett@@ 1861
Fünf@@ 1860
dauern 1860
tigem 1860
28@@ 1859
einzugehen 1858
initiative 1858
if 1858
wertung 1858
eure 1857
Äußerungen 1857
Mischung 1856
polnischen 1856
LO@@ 1855
wies 1854
SS@@ 1854
get 1854
Jahr@@ 1853
geistigen 1853
tos 1853
lo 1853
schließe 1852
verarbeitet 1852
tan 1851
teste 1851
Personen@@ 1851
gl@@ 1850
tex@@ 1850
Weltbank 1850
.org 1850
Konzentration 1849
dy@@ 1849
Europol 1847
moderner 1847
folglich 1847
kommun@@ 1847
Regimes 1847
schlech@@ 1846
menge 1846
dans 1846
dia 1846
Kräften 1845
interessanten 1845
rates 1845
Güter 1844
Zuständigkeiten 1844
Hör@@ 1844
Konferenz@@ 1844
vernünftig 1843
Sitzungen 1843
Kaffe@@ 1843
bezogen 1842
habt 1842
ons@@ 1842
Kapazitäten 1842
Händler 1842
Waffen@@ 1841
schrittweise 1841
Robert 1841
ungeh@@ 1840
Beschäftigten 1840
feste 1840
jemals 1839
gelegenen 1839
punkten 1838
nachdenken 1838
Emissions@@ 1838
Schau@@ 1838
Unternehmer 1837
famili@@ 1837
marquis 1837
Prävention 1836
liegende 1836
regel@@ 1836
externe 1836
absolute 1836
News 1836
Katastrophen 1835
verliehen 1835
ute 1835
ethnischen 1835
ri 1835
Kab@@ 1835
nete 1835
ard@@ 1835
ats@@ 1834
gebäude 1834
verwirklichen 1834
bedro@@ 1834
Saal 1833
zielt 1833
kurzer 1833
erweiterten 1833
weitaus 1833
lossen 1833
Wesen 1832
wertvolle 1832
kleineren 1832
Cap@@ 1832
zz@@ 1832
origin@@ 1831
mün@@ 1831
kämp@@ 1831
ohnehin 1830
nachhaltig 1830
Image 1830
gesichert 1829
wan@@ 1829
erwähnte 1829
orientierten 1828
wald 1828
ater@@ 1828
leichte 1828
Beach 1828
wand 1827
ete 1827
gebnis 1827
schnitt 1827
Objekt 1827
einhalten 1826
unterscheidet 1826
ehe 1826
Leiter 1826
datei 1826
Red@@ 1825
pä@@ 1825
text 1825
Trend 1825
Börse 1825
Subsidiarität 1824
bende 1824
ligkeit 1824
Medikamente 1823
Theorie 1823
gebraucht 1822
vertreter 1822
Plätze 1822
Augen@@ 1821
realistisch 1821
Ham@@ 1821
wirkungs@@ 1820
wä@@ 1820
Human@@ 1819
Produzenten 1819
fahrts@@ 1818
28. 1818
ath@@ 1818
SCH@@ 1818
Justiz@@ 1817
kommerziellen 1817
Tour@@ 1817
geschafft 1817
unterbreitet 1816
26. 1816
ari 1816
design 1816
späteren 1815
grenzüberschreitende 1815
center 1815
felder 1814
Mengen 1813
ratifiziert 1813
krimin@@ 1813
ösen 1813
Hamas 1813
Rotary 1813
viert 1812
wahl 1812
Mac 1812
nam@@ 1811
beiträgt 1811
kurs 1811
Handy 1811
Edel@@ 1811
fortgesetzt 1810
Stock@@ 1810
bewiesen 1810
ausführlich 1810
erörtern 1810
nich@@ 1809
Anzeige 1809
Themen@@ 1809
Türen 1809
schein@@ 1809
Datenschutz 1809
kontrollen 1808
sign@@ 1808
teilzunehmen 1808
gewünschte 1808
öffnet 1808
gewisser 1807
west@@ 1807
erstreckt 1807
Ausgangs@@ 1807
Source 1807
Feuer@@ 1806
abschließend 1805
Sek@@ 1805
Bühne 1805
streng 1804
eigentlichen 1804
Fremd@@ 1804
Centre 1804
04@@ 1803
iner 1803
Mails 1802
dé@@ 1802
traum@@ 1802
herum 1801
dorf 1801
NI 1801
transparent 1799
freu@@ 1799
Last@@ 1799
Funktionalität 1799
ade@@ 1799
igungen 1798
Power 1798
Erbe 1797
Gre@@ 1797
Dach@@ 1797
Tom@@ 1796
gewinnt 1796
deutet 1795
Kau@@ 1795
brau@@ 1795
etc 1795
Wachstums 1794
Mono@@ 1794
gerechnet 1794
lad@@ 1793
rum 1793
ruft 1793
Mak@@ 1793
Wür@@ 1793
popul@@ 1793
Cre@@ 1793
erinnere 1792
lag@@ 1792
gültig 1792
Regen@@ 1792
rechtfertigen 1791
Sit@@ 1791
esten 1791
Washington 1791
Gipfels 1789
Span@@ 1789
Fr@@ 1789
Ordner 1789
eingeschränkt 1788
Kabel 1788
bisschen 1788
beeinflusst 1788
angeblich 1787
machten 1787
größerer 1786
mäßigkeit 1786
Solche 1786
Foto@@ 1786
angewiesen 1785
beurteilen 1785
Presse@@ 1785
cs 1785
schnei@@ 1784
Arbeitnehmer@@ 1784
Konjunktur@@ 1784
ütz@@ 1783
Seiten@@ 1783
unzu@@ 1782
Ausblick 1782
Missbrauch 1782
gefährliche 1781
älter 1781
onn@@ 1781
modi@@ 1781
Vertrieb 1781
einfach@@ 1781
avi@@ 1781
Analy@@ 1781
Sä@@ 1780
68 1780
Libanon 1780
92 1780
Gut 1780
Safe 1780
Edition 1780
gefährlichen 1779
Lehren 1779
sonstigen 1779
schreibt 1778
gewer@@ 1778
abgel@@ 1778
Palästinenser 1778
Vermittlungs@@ 1778
hof 1778
selb@@ 1777
Präsentation 1777
Appartement 1777
technologischen 1776
gestellte 1776
vous 1776
chan@@ 1776
wa 1776
Kongress 1776
VER@@ 1776
HTML 1776
vorhin 1775
ermutigen 1775
blick 1774
typisch 1774
S.@@ 1774
Lasten 1773
Imp@@ 1773
Archi@@ 1773
este 1773
Plus 1773
Zürich 1773
verwal@@ 1772
kritisiert 1772
grundlegender 1772
ausgestattete 1772
bekräftigt 1772
vo 1772
which 1772
finanzi@@ 1771
Schnittstelle 1771
Ci@@ 1771
Gepäckraum 1771
sech@@ 1770
Erfol@@ 1770
Leuten 1770
Glas 1770
Sil@@ 1770
mäßige 1769
get@@ 1769
eingeladen 1769
Gener@@ 1769
Angabe 1769
ruhige 1769
PO@@ 1769
wü@@ 1768
char@@ 1768
Arbeitsbedingungen 1768
IF@@ 1768
vergleich@@ 1768
let 1768
günstig 1768
stil 1768
verarbeitung 1768
angel@@ 1767
Merkmale 1767
Israels 1767
Mittelmeerraum 1767
Verträgen 1766
etzen 1766
eignen 1766
Rubrik 1766
li 1766
grad 1765
auen 1765
Überarbeitung 1765
Show 1765
Events 1765
Wellness@@ 1765
ärer 1764
stete 1764
Dikt@@ 1764
Export 1764
fiel 1764
atz 1763
ill@@ 1763
itäten 1762
issen 1762
Futter@@ 1762
übermittelt 1762
Tief@@ 1762
Power@@ 1762
nu@@ 1761
plötzlich 1761
schalten 1761
Tragödie 1760
körper@@ 1760
Finanzmärkte 1760
27@@ 1760
stern 1760
MB 1760
intensive 1759
fährt 1759
Ministerrat 1759
Aktien@@ 1759
Je@@ 1759
gemütlichen 1759
teilte 1758
qualifizierte 1758
Wind 1758
Vorfeld 1758
Fans 1758
way 1758
Büros 1757
bevorstehenden 1757
strengen 1757
Resolution 1757
Aufenthalts@@ 1757
Europ@@ 1757
ollen 1756
Halb@@ 1755
venti@@ 1755
rücken 1755
lten 1755
George 1754
Hä@@ 1754
tauchen 1754
Gebäuden 1754
nbsp 1754
akzeptabel 1753
Konzepte 1752
träge 1752
sende 1751
Für@@ 1751
aktu@@ 1751
Fluggesellschaften 1751
ignoriert 1750
kostengünsti@@ 1750
Mur@@ 1750
Woh@@ 1750
erfasst 1750
Performance 1750
Termin 1749
trei@@ 1749
spiegelt 1749
istischer 1748
maximale 1748
erzielten 1748
chtige 1748
partei@@ 1748
komfortablen 1748
untergraben 1747
Wille 1747
sätzen 1747
ungeachtet 1747
gast@@ 1747
dad 1747
Vorgaben 1746
unerlässlich 1746
mündlichen 1745
schu@@ 1745
Erzeuger 1745
ines 1745
Lü@@ 1745
verz@@ 1745
Netzwerk@@ 1745
rad 1745
berichte 1744
mäßigen 1744
Armen 1744
sprech@@ 1744
liberalen 1743
quelle 1743
haf@@ 1743
Unterdrückung 1743
Wiederauf@@ 1743
Mini@@ 1743
Arzneimittel 1743
orien 1743
Traum 1743
Ker@@ 1743
Abschluß 1742
Bewohner 1742
Spezialisten 1742
54 1742
hu@@ 1742
esischen 1742
Ferienwohnungen 1742
hungen 1741
Staatsan@@ 1740
leid 1740
klär@@ 1740
bedienen 1740
beliebigen 1740
aufgerufen 1739
Filter 1739
Komit@@ 1737
Schrift@@ 1737
Free 1737
Los 1737
Freizeit@@ 1737
C5 1736
vergeben 1736
verbindungen 1736
box 1736
Legislativ@@ 1735
kun@@ 1735
zweifel@@ 1735
beschreibt 1734
änderung 1734
womit 1734
dachte 1734
aturen 1734
jek@@ 1734
Is@@ 1734
äußerster 1733
küste 1733
stoß 1733
Gerichtshofs 1733
verantwor@@ 1733
leitungen 1733
forderte 1732
Amtszeit 1732
lei 1732
SS 1732
dend 1731
bigen 1731
unzureichend 1730
72 1730
endem 1729
Verein@@ 1729
fiziert 1729
12.@@ 1729
Express 1729
samkeit 1728
plätzen 1728
Bildschirm 1728
here 1727
gesammelt 1727
Bilanz 1727
grund@@ 1726
Beste 1726
gegenseitige 1726
fik@@ 1726
stag 1726
angenehme 1726
Profil 1726
Tei@@ 1725
Konferenzen 1725
agi@@ 1725
instrumente 1725
tlinie 1725
Haushaltsplans 1725
basierten 1725
basierte 1725
Thomas 1725
restaurant 1725
Zw@@ 1724
rats 1724
dien 1724
voneinander 1724
sexuellen 1724
auswärtige 1724
empfiehlt 1724
würdige 1724
DER 1724
Finanzmittel 1723
erläutern 1723
Konkurrenz 1723
bedenken 1723
stro@@ 1722
Port 1722
lehr@@ 1721
zielen 1721
falschen 1721
geld 1721
Burg 1721
erneuerbare 1720
spätestens 1720
Muster 1720
European 1720
TO@@ 1720
tnissen 1719
nation@@ 1718
Kooperations@@ 1718
spartner 1718
Form@@ 1718
strenge 1717
rup@@ 1717
gefäl@@ 1717
Wirtschaf@@ 1717
ks@@ 1717
Hotelsafe 1717
Gesprächen 1716
onien 1716
ass 1716
produkt 1715
dam@@ 1715
Heimatland 1715
ähr@@ 1715
EB@@ 1715
Verantwortlichen 1714
kontinuierlich 1714
Konsultation 1714
begrenzte 1714
geführte 1714
kritische 1713
Reaktionen 1713
Vorsitzender 1713
Eng@@ 1713
zeu@@ 1713
Prin@@ 1713
ever@@ 1712
Gute 1711
frag@@ 1711
gering@@ 1711
Bis@@ 1711
blo@@ 1711
verw@@ 1711
Linien 1711
Fla@@ 1711
Fußball@@ 1711
einzubeziehen 1710
nü@@ 1710
Gewerkschaften 1710
TE 1710
digte 1709
Mazedonien 1709
Garten@@ 1709
Betroffenen 1708
beträchtliche 1708
zige 1708
Ag@@ 1708
Kreativität 1708
Gefängnis 1708
Vil@@ 1708
Marina 1708
runde 1707
istisch 1707
ranken 1707
angebotenen 1707
Governance 1707
teilten 1706
Anbindung 1706
vielfältigen 1706
drucken 1706
Tö@@ 1706
automatische 1706
solide 1705
wäl@@ 1705
flexible 1705
Sar@@ 1705
Kir@@ 1704
ots 1704
Str@@ 1704
Branchen 1703
ernste 1703
Ant@@ 1703
voran 1703
reib@@ 1703
wunderschöne 1703
will@@ 1702
Koordin@@ 1702
landschaft 1702
Portal 1702
umfassen@@ 1701
Aktualisierung 1701
geladen 1701
Fel@@ 1701
ausstattung 1700
B5 1700
Ratsvorsitzes 1700
Adressen 1700
Konfiguration 1700
verbesserte 1699
blieb 1699
trennen 1699
fügt 1699
getötet 1698
bahnen 1698
had 1698
Gewal@@ 1697
Nov@@ 1697
Anhang 1696
belie@@ 1696
geo@@ 1696
Litauen 1696
enswert 1696
Renten@@ 1696
Scho@@ 1696
dün@@ 1695
lichste 1695
breit 1695
hör@@ 1695
flexi@@ 1695
Messe@@ 1695
oni 1694
vorn 1694
wendungen 1694
ine@@ 1692
fizi@@ 1692
Mes@@ 1692
Gestatten 1691
gerech@@ 1691
enttäuscht 1691
Krieg@@ 1691
Rahmenprogramm 1691
Schwarz@@ 1691
ca@@ 1691
Out@@ 1691
reform 1690
schlechten 1689
Zinsen 1689
Aktien 1689
mithilfe 1689
leben@@ 1688
kei@@ 1688
Tür@@ 1688
emen 1688
Wild@@ 1687
abhängi@@ 1686
27. 1686
berufliche 1686
tter 1686
bewer@@ 1685
Einschränkung 1685
tisches 1685
gewünscht 1684
Lebensqualität 1684
Haar@@ 1684
Laden 1684
multi@@ 1683
einzuhalten 1683
fällig 1683
negativ 1683
Aufforderung 1682
ssen@@ 1682
Textil@@ 1682
Ähn@@ 1682
Darin 1681
versicherung 1681
kurzfristig 1681
detaillierte 1681
gelegene 1681
Dep@@ 1681
mals 1680
kn@@ 1680
fisch@@ 1680
Tsch@@ 1680
Unterlagen 1679
avec 1679
normale 1679
dynam@@ 1679
zog 1679
q@@ 1679
pal@@ 1679
Erfolgs@@ 1678
Streit@@ 1678
sichts@@ 1678
Adobe 1678
amt 1677
problemlos 1677
Innerhalb 1676
Operation 1676
vorbehalten 1676
steuerung 1676
Tim@@ 1676
alternative 1675
zusehen 1675
ältere 1675
Maastricht 1675
geholfen 1675
lle 1675
EC 1675
Randlage 1674
Schu@@ 1674
val@@ 1673
Bewegungen 1673
Schle@@ 1673
Geschäften 1673
gebühr@@ 1672
Aktivität 1672
Früh@@ 1672
Palästina 1672
geräten 1672
tigungs@@ 1672
aktualisieren 1672
droht 1671
trans@@ 1671
prozeß 1670
zustellen 1670
Absichten 1670
Scheitern 1670
Techniken 1670
siv@@ 1669
rad@@ 1669
Sound 1669
terer 1668
tnis@@ 1667
tiefe 1667
Köln 1667
ž@@ 1667
schnell@@ 1666
Tempo 1666
gesetzte 1666
ausgewählten 1666
ös 1666
Royal 1666
Geben 1666
ologisch 1666
kel 1666
Training 1666
pfung 1665
geschlagen 1665
ausgelöst 1665
mess@@ 1665
nern 1665
Güter@@ 1665
Will@@ 1665
Kredite 1665
Bewertungen 1664
Kla@@ 1664
konsolidi@@ 1664
keinesfalls 1664
teuer 1664
zel@@ 1664
Fle@@ 1664
tigte 1663
hinaus@@ 1663
gas@@ 1663
verwalten 1663
Original 1663
kostenfrei 1663
2.0 1663
aufgaben 1662
Wettbewer@@ 1662
Lebensmitteln 1662
sauber 1662
nieren 1662
hef@@ 1662
faire 1662
Gebühr 1662
Kohärenz 1661
alisierte 1661
produzi@@ 1661
orientiert 1660
tot@@ 1660
glei@@ 1659
liert 1659
Freiwil@@ 1659
alisierten 1659
wartet 1659
Integrations@@ 1659
inger 1659
such@@ 1658
Marktwirtschaft 1658
kräften 1658
vis@@ 1658
Föderation 1658
sport@@ 1658
alleine 1658
stag@@ 1657
by@@ 1657
Geräten 1657
5,@@ 1656
gendes 1656
Transaktionen 1656
Dre@@ 1656
Eigenschaft 1655
Medizin 1655
BO@@ 1655
PSE 1654
brech@@ 1654
schläge 1654
71 1653
üh@@ 1653
mobile 1653
Auslegung 1652
Einzelnen 1652
Berichterstattern 1652
ingt 1652
Gespräch 1652
Island 1652
Diam@@ 1652
frucht@@ 1651
Luf@@ 1651
stücke 1651
Quoten 1651
Charme 1651
diger 1650
erläutert 1650
seri@@ 1650
Schnell@@ 1650
Jugoslawien 1650
tru@@ 1650
ruf 1650
wör@@ 1649
kritisch 1649
Neues 1649
fizierungs@@ 1649
Wissens@@ 1649
Geschäft@@ 1648
ökologische 1647
stecken 1647
General@@ 1646
Kü@@ 1646
53 1646
gän@@ 1646
empfin@@ 1646
Wald 1645
herstellen 1645
Alpen 1645
Gerichten 1644
industri@@ 1644
nutzbar 1644
56 1644
Sowjetunion 1644
ret@@ 1644
größe 1644
Wort@@ 1643
Stamm@@ 1643
Schil@@ 1643
stärkeren 1642
dokum@@ 1642
ty@@ 1642
teilgenommen 1641
Zwangs@@ 1641
Instrumenten 1641
irgendwo 1641
halt@@ 1641
Gemäß 1640
ausgewogenen 1640
Log@@ 1640
OT@@ 1640
vierte 1639
reale 1639
Migrations@@ 1639
HT@@ 1639
beach@@ 1638
statten 1638
Vermittlung 1638
Getränke 1638
bildungs@@ 1637
Entwicklungszusammenarbeit 1637
meldungen 1636
vereinfachen 1636
Kernkraft@@ 1636
real 1636
abzielen 1636
örtlichen 1636
Jahrzehnte 1636
Aqu@@ 1636
ora 1636
Clubs 1636
beschei@@ 1635
achtet 1635
Minibar 1635
Seg@@ 1634
ont 1634
vermögen 1634
Schlaf@@ 1634
Lieb@@ 1634
Zahn@@ 1634
Komplettpreise 1634
effektiver 1633
Sozialdemokraten 1633
änen 1633
Gegenwart 1633
Ersatz@@ 1633
Lager@@ 1633
Freuen 1633
ologi@@ 1632
teure 1632
qualifizierten 1632
räum@@ 1632
irgendwelche 1632
gewählte 1632
Verstärkung 1631
endgültig 1631
atten 1631
Tschechischen 1631
Innovations@@ 1631
Verkehr@@ 1631
ello 1631
staat@@ 1630
atives 1630
Banken@@ 1630
EWG 1630
Gärten 1630
0er 1630
Flugzeuge 1630
schluss 1630
gebilligt 1629
führungen 1629
kg 1629
mas 1629
Wetter 1629
Indem 1628
Wirk@@ 1628
86 1628
status 1628
Herrschaft 1628
let@@ 1628
Dienstleistung 1628
bearbeitet 1628
erischen 1627
ablen 1627
feiern 1627
Vertei@@ 1627
Spe@@ 1627
ot 1627
name 1627
Гј@@ 1627
englischen 1626
arische 1626
city 1626
CS 1626
Opfern 1625
tation 1625
Bergen 1625
lehnen 1625
treff@@ 1624
übergeben 1624
begangen 1624
fried@@ 1624
erfolgte 1624
26@@ 1624
fenster 1624
German 1624
hil@@ 1623
esti@@ 1623
mitgeteilt 1623
portugiesischen 1622
eingebunden 1622
verehrten 1622
regierung 1622
verhandeln 1622
üt@@ 1622
ves 1622
änder@@ 1621
ausführen 1621
gefangen 1621
fehler@@ 1621
59 1621
steigenden 1621
Kabel@@ 1621
· 1621
ton@@ 1620
durchgeführten 1620
Lehre 1620
aro@@ 1620
eigenem 1620
Foundation 1620
einzelstaatlichen 1619
registriert 1619
Umsatz 1619
Stabilitäts- 1619
UNG 1619
klarer 1618
konzept 1618
auszuüben 1618
zurückkehren 1618
fertigt 1617
erre@@ 1617
Budget 1617
publi@@ 1617
1,5 1617
Zimmerservice 1617
vertre@@ 1616
Lim@@ 1616
Islam 1616
friedlichen 1615
Lad@@ 1615
hilfen 1615
big 1615
Zufriedenheit 1615
benden 1615
kamp@@ 1615
griff 1615
Py@@ 1615
Arbeiter 1615
wenigstens 1614
Wen@@ 1614
Metall@@ 1614
vielsei@@ 1614
herauszu@@ 1613
Erkenntnisse 1613
ministerium 1613
els@@ 1613
66 1612
kunden@@ 1612
eil 1612
räu@@ 1612
BR@@ 1612
Spre@@ 1611
gewachsen 1610
denselben 1610
Mitglieds@@ 1610
gesunden 1610
Französisch 1610
schieben 1609
prakti@@ 1609
Weiterbildung 1609
befürworte 1609
innov@@ 1609
niedriger 1609
J 1609
schlage 1608
bewertung 1608
enne 1608
Schö@@ 1608
Rein@@ 1608
Legitimität 1607
Anwen@@ 1607
Real@@ 1607
zusammenzuarbeiten 1606
err@@ 1606
entscheidet 1605
Insel@@ 1605
Frühjahr 1605
konfli@@ 1605
chtig 1605
gutem 1605
versehen 1605
Investition 1605
öff@@ 1605
enorm 1604
genehmigt 1604
ürzt 1604
Bot@@ 1604
gesellschaftliche 1604
zten 1604
sem@@ 1604
Inn@@ 1604
pour 1604
Konstruktion 1603
Mod@@ 1603
Sony 1603
Malta 1602
Dritter 1602
Soweit 1602
währ@@ 1601
angefangen 1601
non 1601
ez 1600
hand 1600
tes@@ 1600
komplex 1600
seiten 1600
olo@@ 1600
can@@ 1600
University 1600
Fehlen 1599
Partnerschaften 1599
Überwachungs@@ 1599
trauri@@ 1599
heim 1599
Professor 1598
93 1598
Kommissare 1598
erfahr@@ 1598
DA 1598
lichkeits@@ 1598
Zins@@ 1598
Pension 1598
Bom@@ 1597
Kluft 1597
Mad@@ 1597
analysieren 1597
beeinträchtigt 1597
ère 1597
oberen 1597
passende 1597
Fax 1597
ess 1597
Entschließungen 1596
Nation@@ 1596
rechn@@ 1596
Niemand 1595
Wir@@ 1595
Glob@@ 1595
angeschlossen 1595
Anweisungen 1595
6,@@ 1595
Beobachter 1595
¼ 1595
jährliche 1594
Organen 1594
IP@@ 1594
ero 1594
landes 1593
parallel 1593
werks 1593
lässig@@ 1593
dau@@ 1593
büro 1593
niederländischen 1592
Vorsitzende 1592
Armuts@@ 1592
kehren 1592
berechtigten 1592
free 1592
Inneres 1592
Realisierung 1591
konzipiert 1591
Christdemokraten 1591
plat@@ 1591
Taiwan 1591
angelegt 1590
Alltag 1590
disch 1590
geführten 1590
more 1590
boden 1589
ausgesch@@ 1589
ents 1589
elemente 1589
Optimierung 1589
Unterhaltung 1589
Work@@ 1589
bereitung 1588
einzurichten 1588
oper@@ 1588
einzel@@ 1587
Flugzeug 1587
ignorieren 1587
schlimmer 1587
Miet@@ 1587
eingereichten 1586
sämtlichen 1586
Gesellschafts@@ 1586
AV@@ 1586
Cro@@ 1586
Mail@@ 1586
Empfänger 1585
charakter@@ 1585
einzelner 1585
Bü@@ 1585
Beruf 1585
Künstler@@ 1585
steckt 1584
asen 1584
Check 1584
pla@@ 1583
IR@@ 1583
Libyen 1583
Ferien 1582
Pflege 1582
ran 1582
blu@@ 1582
Start@@ 1582
Es@@ 1581
58 1581
antrag 1580
Effekte 1580
Konflikts 1580
verstoßen 1580
Koordination 1579
ration@@ 1579
durchsetzen 1579
zell@@ 1579
off@@ 1579
SE 1579
netz@@ 1579
Community 1579
namen 1578
tat 1578
nütz@@ 1577
Top@@ 1577
Direk@@ 1577
Zugangs 1577
ail@@ 1577
izi@@ 1576
agentur 1576
fahrten 1576
AD 1575
weiterzu@@ 1574
verwaltet 1574
Bin@@ 1574
Analysen 1574
beschreiben 1574
ç@@ 1574
Wikitravel 1574
längst 1573
aufrechterhalten 1573
gegenüber@@ 1573
AN 1573
ehen 1573
interessieren 1572
kommens 1572
Geschlechter 1572
gegenseitig 1572
Heiligen 1572
unterwegs 1572
ñ@@ 1572
gerichtete 1572
Fri@@ 1571
Brau@@ 1571
Abstimmungen 1571
rasche 1571
bezogene 1571
ó 1571
Rand 1570
flug 1570
kan 1570
Hektar 1570
gewiss 1570
wenigsten 1569
wachsen@@ 1569
Transfer 1569
Marken@@ 1569
Ein- 1569
Weißbuch 1568
fach 1568
schützt 1568
para 1568
aufweisen 1567
Massage 1567
stärkt 1566
wofür 1566
Bedingung 1566
schaden 1566
Feier@@ 1566
Gesetzes 1566
Las 1566
japanischen 1565
gäbe 1565
digten 1565
ansonsten 1565
Moskau 1565
wur@@ 1565
Kul@@ 1565
Meister@@ 1565
sicherheits@@ 1565
Aufnahmen 1565
konstruktiven 1564
verankert 1564
reiben 1564
sitz@@ 1564
id@@ 1564
realisieren 1564
gefasst 1564
bit 1564
effektiven 1563
Beendigung 1563
Motto 1563
finanzieller 1563
dri@@ 1563
Dol@@ 1563
Genuss 1563
Transpor@@ 1562
samen 1562
Instruments 1562
elen 1562
Bezahlung 1562
Stad@@ 1562
Trends 1562
Verzögerungen 1561
schungen 1561
türkische 1561
Grundfreiheiten 1561
Vorwand 1561
dig@@ 1561
eleg@@ 1561
alitäten 1561
Slowenien 1561
OL@@ 1561
ih@@ 1560
hersteller 1559
müsse 1559
chter@@ 1559
einziges 1558
xe 1558
finanziell 1558
igten 1558
Kommissionsvorschlag 1558
Vizepräsident 1558
ypen 1558
information 1558
wichti@@ 1557
agieren 1557
blatt 1557
händler 1557
67 1557
Kirchen 1557
ani 1557
LE 1557
Desktop 1557
namens 1556
Zugleich 1556
Diensten 1556
Anhänger 1556
Tunesien 1556
beider 1555
komp@@ 1555
begleiten 1555
s. 1555
ärm@@ 1554
Defizite 1554
still@@ 1554
Übersetzungs@@ 1554
Textes 1554
Stattdessen 1554
errichten 1553
vorsichtig 1553
IV 1553
typ@@ 1553
süd@@ 1553
Puerto 1553
interessen 1552
Tatsachen 1552
Arbeitsweise 1552
Arbeitskräfte 1552
modernes 1552
getreten 1551
birgt 1551
monat@@ 1551
internationales 1551
vorherigen 1551
traum 1551
beseitigt 1551
hä@@ 1551
posi@@ 1551
alo@@ 1551
IB@@ 1551
schulden 1550
parlamentarische 1550
zigen 1550
krank@@ 1550
Gewinner 1550
bedauern 1549
Anregungen 1549
eindrucks@@ 1549
mern 1549
Hof 1549
ron 1549
bungen 1548
zeigten 1548
gesell@@ 1548
Minister@@ 1548
näh@@ 1548
Sy@@ 1548
Referenz@@ 1548
Front 1548
agne 1547
schn@@ 1547
ú@@ 1547
lock@@ 1546
harte 1546
mar 1546
kali@@ 1546
Aktions@@ 1545
irgendeiner 1545
schlechter 1545
Schatten 1545
Lich@@ 1545
Sc@@ 1545
Luftfahrt@@ 1544
zutiefst 1544
Albanien 1544
verkauf 1544
Kongres@@ 1544
Tourismus@@ 1543
Afri@@ 1543
schein 1543
breakfast 1543
diensten 1542
probieren 1542
kreis 1542
IK@@ 1542
bereitzustellen 1541
ständi@@ 1541
Aussichten 1541
aj@@ 1541
ska 1541
nord@@ 1540
richti@@ 1540
überlegen 1540
ströme 1540
Rom@@ 1540
tivi@@ 1540
üblich 1539
Vereinigung 1539
Fragestunde 1539
kommende 1539
engagiert 1539
benannt 1539
11.@@ 1539
Verzögerung 1538
kultur 1538
Leit@@ 1538
gige 1538
Vergnügen 1538
mul@@ 1538
Schwe@@ 1538
q 1538
begrenzten 1537
gerichteten 1537
verhandlungen 1537
4,@@ 1537
t- 1537
vergleichen 1537
erhö@@ 1537
Audio@@ 1537
Designer 1537
mündliche 1536
Ereignissen 1536
Beratungs@@ 1536
intensi@@ 1536
Jahresbericht 1535
Art. 1535
Rec@@ 1535
Abenteuer 1535
Problem@@ 1534
schwerer 1534
angehören 1534
57 1534
entieren 1533
riesige 1533
hte 1533
Rahmens 1533
Perspektiven 1533
freund@@ 1533
Eli@@ 1533
Ausgleich 1532
Schlag@@ 1532
Süd 1532
Air@@ 1532
Schne@@ 1532
Beweise 1531
gleicher 1531
Empfang 1531
Menschenhandel 1531
unde 1531
just 1531
work 1531
analy@@ 1530
ration 1530
Wartung 1530
Standpunkte 1530
leiter 1530
Danke 1530
einig@@ 1530
Spielraum 1530
neben@@ 1530
Palace 1530
burger 1529
erreichte 1529
Untersuchungs@@ 1529
vorherige 1529
füll@@ 1529
Kreuz@@ 1529
sprä@@ 1528
Ernährung 1528
Ost 1528
dlichkeit 1527
positionen 1527
vertra@@ 1527
Corporate 1527
ly@@ 1527
harmonisi@@ 1526
Zusammenbruch 1526
elli@@ 1526
Stock 1526
ulen 1526
Heil@@ 1526
schnelles 1525
Gelegenheiten 1525
Partei@@ 1525
pft 1525
suche 1525
Rande 1524
defizit 1524
van@@ 1524
landwirtschaftliche 1524
geschäf@@ 1524
beitreten 1523
wirkungen 1523
wünschenswert 1523
gerechten 1523
Beruf@@ 1523
tägliche 1523
zumal 1522
set@@ 1522
verbrau@@ 1522
niedrig 1522
Pilot@@ 1522
mission 1522
gab@@ 1521
unterstreicht 1521
Effektivität 1521
äufe 1521
Tendenz 1521
ral 1521
ffene 1520
bs@@ 1520
bezahl@@ 1520
Integrität 1519
begreifen 1519
friedliche 1519
projek@@ 1519
TS 1519
Rak@@ 1519
frist 1518
bilder 1518
Parlamenten 1518
Cou@@ 1518
Leid 1518
behand@@ 1517
anderswo 1517
erworben 1517
Administration 1517
Autoren 1517
fristig 1516
dauerhafte 1516
Erd@@ 1516
Binnenmarkts 1515
Hinsichtlich 1515
reine 1515
Finanziellen 1515
mie 1515
fliegen 1515
Vorbereitungen 1514
Lösungs@@ 1514
Mobile 1514
unterhalten 1513
Erkenn@@ 1513
Life 1513
Frü@@ 1513
Vermögens@@ 1513
ungarischen 1513
streichen 1512
Besonderheiten 1512
klu@@ 1512
familien@@ 1512
klares 1512
code 1512
Halle 1512
Canon 1512
schuldig 1511
bli@@ 1511
ebene 1511
kommerzielle 1511
2015 1511
Manche 1510
Ankündigung 1510
schaf@@ 1510
Ran@@ 1510
Acht 1510
stechnik 1510
Abgesehen 1509
zerstör@@ 1509
angeben 1509
Zit@@ 1509
therapie 1509
Galerie 1509
suite 1509
Informationsgesellschaft 1508
yl@@ 1508
reit@@ 1508
Pet@@ 1508
erh@@ 1507
AP@@ 1507
Rats@@ 1506
88 1506
See@@ 1506
Fes@@ 1506
aufgehoben 1506
Vergleich@@ 1506
Moder@@ 1506
exklusiven 1506
Dienst@@ 1505
chtigkeit 1505
fluss 1505
dein 1505
© 1505
bene 1504
Bett 1504
Home 1504
ni 1503
Gleichbehandlung 1503
strafrech@@ 1503
stab@@ 1503
erbar 1503
haftet 1503
ion 1503
Rit@@ 1502
MA 1502
Einsch@@ 1501
Ernennung 1501
bestens 1501
typische 1501
Ehr@@ 1500
betrag 1500
Reserve 1500
Stein 1500
schaftlichen 1499
grüne 1499
Trop@@ 1499
Energieversorgung 1499
View 1499
Archiv 1499
jahres@@ 1498
Tun@@ 1498
hinzuweisen 1498
Geschenk 1498
ermaßen 1498
our@@ 1498
Virus 1498
reiz@@ 1498
ertem 1497
fizieren 1497
aket 1497
versetzt 1497
diskrimin@@ 1497
mitzu@@ 1496
89 1496
müßte 1496
lück@@ 1496
Konflikten 1496
belgischen 1495
gefällt 1495
Implementierung 1495
halb@@ 1495
überwiegend 1495
77 1495
Vorredner 1494
jeweilige 1494
ose 1494
Zü@@ 1494
unterliegt 1494
biologischen 1494
ulieren 1494
Betriebssystem 1494
Attraktionen 1494
Welthandelsorganisation 1493
Bisher 1493
spruch 1493
Präsidium 1493
füh@@ 1493
Gaza 1493
Hochschul@@ 1493
hiermit 1492
registrieren 1492
löst 1492
Flüchtlings@@ 1492
Kin@@ 1492
satzes 1492
Breit@@ 1492
konto 1492
gewis@@ 1491
Abstand 1491
taus@@ 1491
gebrochen 1491
Büro@@ 1491
urs 1491
kompatibel 1491
Christen 1491
Entdecken 1491
Hilfen 1490
verhältnisse 1490
vierten 1490
Folglich 1490
We@@ 1490
odi@@ 1490
Stich@@ 1489
SC@@ 1489
zwangsläufig 1488
hebt 1488
vorkommen 1488
griechische 1488
projekten 1488
Av@@ 1488
Karriere 1488
Comp@@ 1488
ekt 1487
lam@@ 1487
islamischen 1487
Pin@@ 1487
sender 1486
sexuelle 1486
Islam@@ 1486
mod@@ 1485
Doha 1485
Ech@@ 1484
stabile 1484
taten 1484
deinen 1484
stischer 1483
abzielt 1483
Fahrzeug@@ 1483
ernden 1483
aufwand 1482
Mehrwertsteuer 1482
unkte 1482
ix 1482
frischen 1482
durchgesetzt 1481
ermitteln 1481
Übersetzungen 1481
gipfel 1481
Besitzer 1481
Digital 1481
vorangegangenen 1480
vorsch@@ 1480
Jahrzehnt 1480
bricht 1480
utz@@ 1480
ces 1480
Gran@@ 1480
verständ@@ 1479
Tak@@ 1479
Servic@@ 1479
llen 1479
Content 1479
Berater 1478
anstreben 1478
Ah@@ 1478
klin@@ 1478
amtierender 1478
Netzes 1478
leitet 1478
weißen 1478
zerstören 1477
Anzeichen 1477
waffen 1477
aktivitäten 1477
iere 1477
aufeinander 1477
ruhiger 1477
Billi@@ 1476
tiker 1476
nö@@ 1476
Ner@@ 1476
Ursprung 1476
centre 1476
OM@@ 1476
Gran 1476
vorschlägt 1475
Ungleichheit 1475
nützliche 1475
Flotte 1475
reguli@@ 1475
glücklich 1475
TI@@ 1475
Mitwirkung 1474
vermis@@ 1474
tags 1474
EW@@ 1474
wu@@ 1474
finanzierung 1474
Musi@@ 1474
zah@@ 1473
ensystem 1473
unmittelbaren 1473
fühlt 1473
anz@@ 1473
Betre@@ 1473
Team@@ 1473
AR 1472
verschieben 1471
maß@@ 1471
Gebiet@@ 1470
Ganzes 1470
wozu 1470
Abfälle 1470
bist 1470
diesmal 1469
glichkeit 1469
tätigkeit 1469
rati@@ 1469
zahlreicher 1469
kün@@ 1469
spielte 1469
Gerä@@ 1469
Installations@@ 1469
natur@@ 1468
strah@@ 1468
junger 1467
roman@@ 1467
Flü@@ 1467
Simbabwe 1467
größtenteils 1466
82 1466
Reak@@ 1466
Pir@@ 1466
Wahrscheinlichkeit 1466
rou@@ 1466
hor@@ 1466
parti@@ 1466
Feuer 1466
Mallorca 1466
geklärt 1465
Vermeidung 1465
regen 1465
bereitstellen 1465
auseinander 1464
verbieten 1464
Stahl 1464
Camp@@ 1464
inbegriffen 1464
otel 1464
inieren 1463
verknüpft 1463
C. 1463
Unternehmen@@ 1463
ausgedrückt 1462
hinein 1461
ßer 1461
tausende 1461
Besuchern 1461
Arbeitslosen@@ 1460
Aufrechterhaltung 1460
7,@@ 1460
asiatischen 1460
Tit@@ 1460
intensiven 1460
SAP 1460
netze 1459
vorbe@@ 1459
Baby@@ 1459
gabe@@ 1459
denkt 1458
Berei@@ 1458
Auseinandersetzung 1458
live 1458
Frage@@ 1457
zungen 1457
Petitions@@ 1457
Argentinien 1457
museum 1457
potenti@@ 1456
í 1456
korrigieren 1456
Ursprungs@@ 1456
ema 1456
erbaut 1456
SD@@ 1456
zeichnete 1455
Demokratien 1455
Seen 1455
drück@@ 1455
Sonn@@ 1455
schrieb 1455
test 1455
Kön@@ 1454
schneiden 1454
jo 1454
Hit@@ 1454
gehörige 1454
Fernseher 1454
Montage 1454
Data 1454
XP 1454
arm@@ 1453
ausgewogene 1453
klausel 1452
idealen 1452
eien 1452
ssigen 1452
Entstehung 1452
gesunde 1452
Umstrukturierung 1451
Atlan@@ 1451
Nuklear@@ 1451
plant 1451
AIDS 1451
zuverlässig 1451
Dienstag 1450
Studium 1450
ttern 1450
erie 1450
Inhaber 1450
Verkäufer 1450
Sim@@ 1450
91 1449
ther 1449
beu@@ 1449
uliert 1449
Meg@@ 1449
personal 1449
führender 1449
Dringlichkeit 1448
94 1448
Zielsetzung 1448
ausgearbeitet 1448
anzugehen 1448
altern@@ 1448
Boot@@ 1448
Flüchtlingen 1447
Sicherheitsrat 1447
Oli@@ 1447
lohnt 1447
PC@@ 1447
asp@@ 1446
Reichtum 1446
Zulassung 1446
besseres 1446
Aufruf 1446
Mah@@ 1446
Cra@@ 1446
veran@@ 1445
62 1445
Wand@@ 1445
Territorium 1445
Hoh@@ 1445
mente 1445
Zusammen 1444
Budapest 1444
Minderheiten@@ 1444
marktes 1444
änder 1444
Playa 1444
mengen 1443
umgekehrt 1443
weichen 1443
rägern 1443
kro@@ 1443
schöner 1443
Mini 1443
Erreichen 1442
üben 1442
wesens 1442
chts@@ 1442
Nat@@ 1442
Erste 1442
GVO 1442
bereichs 1442
Buchungs@@ 1442
Brief 1441
Kurse 1441
ume 1441
Dach 1441
bedeutend 1441
besagt 1441
Ele@@ 1441
Nachbarschaftspolitik 1441
zugs@@ 1440
zeitraum 1440
nennt 1440
Genf 1440
Öko@@ 1440
objek@@ 1440
Zwecken 1440
zukunfts@@ 1439
Nacht@@ 1439
kreu@@ 1439
gegebenen 1438
strategien 1438
ama 1438
reduzi@@ 1438
Sha@@ 1438
Wit@@ 1438
Party 1438
verleiht 1437
Linken 1437
ille 1437
tung@@ 1437
messe 1437
Infrastrukturen 1436
Annäherung 1436
bewe@@ 1436
Rus@@ 1436
nachzudenken 1435
systematisch 1435
zukünftig 1435
umfassendes 1435
Trennung 1435
BMW 1435
sinn 1434
ganz@@ 1434
fertig@@ 1434
bemerken 1434
billi@@ 1434
schmerz@@ 1434
analyse 1433
Ufer 1433
Metern 1433
maßgeb@@ 1432
Zentralbanken 1432
anstelle 1432
verbesser@@ 1432
ausgelegt 1432
bekräftigen 1432
deutlicher 1432
Herr@@ 1432
lie 1432
herrliche 1432
Bedienung 1432
Reich 1431
verschoben 1431
mali@@ 1431
Mittel- 1431
fundament@@ 1431
App@@ 1431
eff@@ 1431
Flüge 1431
verbot 1430
analysiert 1430
Ali@@ 1430
Solange 1430
versuche 1430
Ostsee 1430
Stei@@ 1430
für@@ 1429
Gleichheit 1429
Säule 1429
gewöhnlich 1428
verteilung 1428
AC 1428
Hügel 1428
Fast 1427
sitz 1427
reibung 1427
exklusive 1427
geltend 1426
verstärkten 1426
banken 1426
Angel@@ 1426
glück@@ 1426
zerti@@ 1426
Nahrungsmittel 1426
Behinderungen 1426
Ausgang 1426
wahrnehmen 1426
energie 1426
Ret@@ 1426
Res@@ 1426
längere 1425
gebenen 1425
Sicherheits- 1425
dom@@ 1425
Indikatoren 1424
Durchschnitt 1424
78 1424
Begriffe 1424
fehlende 1423
investitionen 1423
Pr@@ 1423
schreit@@ 1423
höh@@ 1423
Inflations@@ 1423
wen 1423
programmi@@ 1423
Cli@@ 1423
Taste 1423
Entspannen 1423
ßte 1422
ferenzen 1422
Get@@ 1422
bach 1422
ET 1422
Tennis@@ 1422
Gau@@ 1422
belegt 1421
Informations- 1421
fertigen 1421
orten 1421
jo@@ 1421
Karten@@ 1421
weisungen 1420
Dum@@ 1420
Tickets 1420
zö@@ 1419
aush@@ 1419
sozusagen 1419
fahrzeugen 1419
Tibet 1419
Energies@@ 1419
Cha@@ 1419
vorrangig 1418
schä@@ 1418
wick@@ 1418
Ausstellungen 1418
II. 1418
Blut 1418
Pflanzen@@ 1418
Fristen 1417
indirekt 1417
heu@@ 1417
Generalsekretär 1417
skosten 1417
ela 1417
On@@ 1417
wis@@ 1416
Kop@@ 1416
verwand@@ 1416
mehrerer 1416
Mauer 1416
Leben@@ 1416
lieren 1415
rig@@ 1415
9,@@ 1415
Est@@ 1415
enter@@ 1414
deut@@ 1414
Südo@@ 1414
Statt 1414
rö@@ 1414
Box 1414
artige 1413
cor@@ 1413
gefolgt 1413
Visa 1413
Oliven@@ 1413
moralische 1411
fünf@@ 1411
klassische 1411
Elementen 1411
Reihenfolge 1411
Point 1411
irre@@ 1410
regelmäßigen 1410
Interessen@@ 1410
stehe 1410
betrug 1410
Klassi@@ 1410
Ecke 1410
Ton 1410
reis@@ 1410
Key@@ 1410
komfortabel 1410
kompliziert 1409
Ersatz 1409
Meinungs@@ 1409
Nichtregierungsorganisationen 1409
bung 1409
sle@@ 1409
Skla@@ 1409
Lobby 1409
Juden 1409
Datenbanken 1409
Gefangenen 1409
Statistik 1409
serv@@ 1409
info 1409
Hard@@ 1409
Tar@@ 1409
SQL 1409
EVP 1408
Einwände 1408
unteren 1408
erb@@ 1408
kompletten 1408
Indonesien 1407
Zug@@ 1407
genauen 1407
Sper@@ 1407
tions 1407
Unserer 1406
gekauft 1406
verwirklicht 1405
sichti@@ 1405
sendet 1405
ünde 1404
Kompromisse 1404
Eigentümer 1404
Haushaltsjahr 1404
Arzt 1404
Flug 1404
einzustellen 1404
Person@@ 1403
Verantwortungs@@ 1403
kapit@@ 1403
koh@@ 1403
ico 1403
Leg@@ 1402
Komponente 1402
Wach@@ 1402
Frankreichs 1402
verbindlich 1401
wohn@@ 1401
schwedische 1401
kommission 1400
Stütz@@ 1400
Statut 1400
einbringen 1400
freiem 1400
Geldpolitik 1400
Internetseite 1400
personenbezogenen 1400
begab 1400
Wahrnehmung 1399
Einheiten 1399
Kommentar 1399
prüfung 1399
only 1399
eingerichtete 1399
beglei@@ 1398
wirkung 1398
vernünftigen 1398
Wahr@@ 1398
dreht 1398
wäh@@ 1398
ès 1398
web@@ 1398
erlau@@ 1397
rahmens 1397
anspruchs@@ 1397
Deb@@ 1397
HIV 1397
strasse 1397
Board 1397
reicher 1396
Stellenwert 1396
einheiten 1396
Dafürhalten 1396
tigten 1396
dunk@@ 1396
verschiedensten 1396
einheit 1396
cho@@ 1396
film 1396
stein@@ 1396
ws 1396
Treiber 1396
nei@@ 1395
maß 1395
abgehalten 1395
TH@@ 1395
wende 1394
Verhältnisse 1394
Freie 1394
dauerhaften 1394
igkeiten 1394
gesorgt 1394
zin@@ 1394
Schön@@ 1394
Fahrrad@@ 1394
verwöhnen 1394
stet 1393
schied@@ 1393
religiöse 1393
schönes 1393
Hans 1393
e.@@ 1393
gratis 1393
ies 1392
iler 1392
abgesch@@ 1392
Impulse 1392
Wissen@@ 1392
tatsächliche 1392
Fleisch@@ 1392
ire 1391
Passagi@@ 1391
häusern 1391
stoppen 1391
Außengrenzen 1391
Währungen 1391
kommunistischen 1391
koordinieren 1390
giert 1390
beeinträchtigen 1390
technologie 1390
Entschädigung 1390
nah 1390
Mitgliedsstaaten 1390
herz@@ 1390
zulässig 1389
firmen 1389
weitem 1389
Vorbild 1389
stätte 1389
verglichen 1389
partner 1389
vertei@@ 1388
tin@@ 1388
Vista 1388
Aufwand 1387
Reden 1387
gebene 1387
Ratspräsidenten 1387
kap@@ 1387
versi@@ 1387
zugän@@ 1387
jähriger 1387
gas 1387
Tel 1387
beantragt 1386
bedingt 1386
proz@@ 1386
lässigen 1386
Diktatur 1386
dauerhaft 1386
Orts@@ 1386
Café 1386
verstän@@ 1385
kapital 1385
io 1385
Anreiz 1385
new 1385
Open@@ 1385
Ty@@ 1384
vermu@@ 1384
Cu@@ 1384
beding@@ 1384
ams 1384
ältesten 1384
Empfän@@ 1384
Befehl 1384
dos 1384
Event 1384
Naturkatastrophen 1383
part 1383
mangelnde 1383
fes 1383
chron@@ 1383
Pau@@ 1383
Feld@@ 1383
bürger@@ 1382
verliert 1382
starker 1382
Autonomie 1382
Temperatur 1382
arte 1382
Apple 1382
Breakfast 1382
Inanspruchnahme 1381
fern@@ 1381
Spek@@ 1381
initi@@ 1381
Zut@@ 1381
xes 1381
Gefäng@@ 1381
dänischen 1380
Pack 1380
chem@@ 1380
haus@@ 1380
Automobilindustrie 1379
verpflich@@ 1379
under 1379
Finanz- 1379
fair 1379
Hom@@ 1379
dest@@ 1378
Völkern 1378
Sau@@ 1378
industrielle 1378
erhol@@ 1378
gelöscht 1378
ville 1378
Service@@ 1378
Cat@@ 1378
ordnen 1377
Wiener 1377
mobili@@ 1377
Chem@@ 1377
nehmer 1377
Bit 1377
punk@@ 1376
spre@@ 1376
Augenmerk 1376
fak@@ 1376
Reb@@ 1376
übersetzt 1376
wissenschaften 1376
lassung 1375
daten@@ 1375
Geschäftsbedingungen 1375
ersuchen 1374
fließen 1374
ständiger 1374
Kreis 1374
DC 1374
vorzuschlagen 1373
tü@@ 1373
Studien@@ 1373
aux 1373
män@@ 1373
votes 1373
opp@@ 1372
korrekte 1372
Vielmehr 1372
stens 1371
Mühe 1371
ance 1371
Ander@@ 1371
63 1371
ł@@ 1371
Sozialpolitik 1370
untereinander 1370
Anders 1370
ehm@@ 1370
¶ 1370
nördlichen 1369
schwäch@@ 1369
zeitlich 1369
eingerichteten 1369
bauten 1369
Wasch@@ 1369
gieren 1368
over 1368
Leidenschaft 1368
Gemeinsam 1368
veränder@@ 1368
begeistert 1368
rem 1368
ze@@ 1368
Vermarktung 1367
deutscher 1367
iPhone 1367
Tschetschenien 1366
Strasse 1366
wiederhole 1365
gemeinschaftliche 1365
gründlich 1365
billigen 1365
welle 1365
Telekommunikations@@ 1365
Neu 1365
Demokratisierung 1365
meister 1365
AK@@ 1365
max 1365
gerung 1364
Manchmal 1364
uten 1364
Panorama 1364
lager 1364
any 1364
Rechtssicherheit 1363
Strah@@ 1363
zustand 1363
halb 1363
breites 1363
aktiver 1363
standard 1363
materialien 1363
geschätzt 1363
Allgemeine 1363
Migranten 1363
fasst 1363
geordneten 1362
Sorgfalt 1362
voranzutreiben 1362
Bud@@ 1362
Ok@@ 1362
faktor 1362
Bür@@ 1362
reibungen 1362
drin@@ 1362
Zinssätze 1362
geren 1361
Mode 1361
Nachteil 1361
allmählich 1361
weis 1361
V. 1361
Unterhaltungs@@ 1361
geteilt 1360
Index 1360
ausgeübt 1360
niedri@@ 1360
ebung 1360
onie 1360
Tisch@@ 1360
beantragen 1359
ellem 1359
Aufsicht 1359
Wurzeln 1359
gebühr 1359
Mass@@ 1359
Schiffen 1358
Treib@@ 1358
ester@@ 1358
old 1358
Einfluß 1357
behindert 1357
gelang 1357
din 1357
Kathedrale 1357
Beobach@@ 1356
vit@@ 1356
Erneuerung 1355
übrig 1355
Gesamtheit 1355
EX 1355
nice 1355
beglückwünsche 1354
vorhaben 1354
brauch 1354
Interess@@ 1354
pläne 1354
anfangen 1354
sek@@ 1354
anten@@ 1354
König@@ 1354
arbeiter 1353
jahr@@ 1353
fortzusetzen 1353
Gesetzgebungs@@ 1353
Assi@@ 1353
Stellungnahmen 1352
Gewährung 1352
Refer@@ 1352
Rio 1352
pp 1352
Speicher 1352
musik 1352
rungen 1351
vorausgesetzt 1351
Anmerkung 1351
hinzuzufügen 1351
vielfältige 1351
dt 1351
menü 1351
belegen 1350
kurz@@ 1350
ausbildung 1350
fischen 1350
Samm@@ 1350
Gesetzen 1350
ffs 1350
igung 1350
bewirkt 1349
bezogenen 1349
anbietet 1349
einmalige 1349
Kompromiss@@ 1349
strebt 1348
einsetzt 1348
board 1348
chemischen 1348
Marketing@@ 1348
Folgendes 1348
On 1348
verschwinden 1347
Not 1347
müh@@ 1347
transatlantischen 1347
Quell@@ 1347
mol@@ 1347
pos@@ 1347
Wochen@@ 1347
fähiger 1346
Rechtsan@@ 1346
vorhandene 1346
quoten 1346
stör@@ 1346
beweist 1345
engagieren 1345
vorne 1345
Operationen 1345
Ansätze 1344
Aufträge 1344
Material@@ 1344
Inf@@ 1344
symboli@@ 1344
Signale 1344
Vorbehalte 1344
Terror@@ 1344
Eintrag 1344
user 1344
sters 1343
fache 1343
dahingehend 1343
Haf@@ 1343
bul@@ 1343
teilungen 1343
illi@@ 1343
raums 1342
abzulehnen 1342
begrenz@@ 1342
gleichzei@@ 1342
normal 1342
neueste 1342
Solar@@ 1342
meter 1341
ommen 1341
Sie@@ 1341
oo@@ 1341
Kopie 1340
einzigartig 1340
Grafiken 1340
verträge 1339
befreien 1339
außergewöhnliche 1339
Kanal 1339
Features 1339
Leistungsfähigkeit 1338
Berechnung 1338
Ga@@ 1338
ous 1338
UND 1338
CHF 1338
einzuleiten 1337
kin@@ 1337
ST 1337
verhältnis 1336
Roll@@ 1336
treibt 1336
Dienstes 1336
motivi@@ 1336
Unternehmer@@ 1335
vereinfacht 1335
mittel- 1335
dürften 1335
sozial 1335
bereitschaft 1335
Anim@@ 1335
Einwohnern 1335
ori 1334
Wert@@ 1334
verbreiten 1334
start 1334
ía 1334
meistens 1334
besetzt 1334
Schwimmbad 1334
städtischen 1333
festhalten 1333
Autorität 1333
Partnerschafts@@ 1333
ble 1333
Substanzen 1333
revolution@@ 1333
Norwegen 1332
Schwan@@ 1332
Demokrati@@ 1332
Immunität 1332
quali@@ 1332
Durchführungs@@ 1331
Königreichs 1331
Entwicklungspolitik 1331
zip 1331
Kernenergie 1331
erschein@@ 1331
Minder@@ 1331
Hierbei 1331
Konvents 1331
Hunger 1331
otten 1331
brut@@ 1331
Touren 1331
Ziels 1330
veröffentlichten 1330
rischen 1330
großartige 1330
inf@@ 1330
Konstruk@@ 1330
Formel 1330
idealer 1330
tem@@ 1330
EM 1330
derungen 1329
81 1329
gesenkt 1329
gerer 1329
ystem 1329
Halbinsel 1329
frühere 1329
multilateralen 1329
position@@ 1329
Foren 1329
TA 1329
Dam@@ 1329
tie 1329
gert 1328
durchschnittlich 1328
artig 1328
Hoffnungen 1328
benötigten 1328
Anpassungen 1328
Gefan@@ 1328
erreichten 1327
mache 1327
unterstrichen 1327
Maß@@ 1327
Einbindung 1327
vorzubereiten 1326
Aro@@ 1326
veranstaltungen 1326
ling@@ 1326
fuhren 1325
fünfzehn 1325
schaftliche 1325
Defizit 1325
PH@@ 1325
ALE 1325
orte 1325
Ausfahrt 1325
Städ@@ 1324
Impf@@ 1324
endete 1324
ziehung 1324
Onlin@@ 1324
Rock 1324
Schmu@@ 1323
omp@@ 1323
my@@ 1323
Zuerst 1322
schar@@ 1322
letztes 1322
erweiterte 1322
Funktions@@ 1322
beliebten 1322
site 1322
grös@@ 1322
Redezeit 1321
69 1321
differenzi@@ 1321
Einladung 1321
intern@@ 1321
Instabilität 1321
neo@@ 1321
Master 1321
Industriepolitik 1320
optimalen 1320
Nom@@ 1320
Hierzu 1320
illegal 1320
Große 1320
A. 1320
Whirlpool 1320
Mann@@ 1319
Beitrittsverhandlungen 1319
ises 1319
Forst@@ 1319
schien 1319
MP3 1319
Wechsel 1318
ssige 1318
Komple@@ 1318
zivilen 1318
Beachten 1318
mo 1318
Herberge 1318
Block@@ 1317
James 1317
Sand 1317
Hon@@ 1317
M. 1316
St 1316
aden@@ 1316
inwieweit 1316
AT 1316
kus@@ 1316
Kle@@ 1316
bten 1315
grundlage 1315
genügt 1315
enor@@ 1315
angeführt 1315
Mehrere 1315
Hab@@ 1315
iche 1315
Spuren 1315
vorbereiten 1314
Landwirten 1314
sieb@@ 1314
äden 1314
Tat@@ 1314
präz@@ 1314
Etik@@ 1314
Urheber@@ 1314
Piazza 1314
unglaub@@ 1313
Verbrauch 1313
imp@@ 1313
Kie@@ 1313
ausmachen 1312
wehr@@ 1312
Ärzte 1312
Aktiv@@ 1312
erinnen 1312
andau@@ 1312
40@@ 1312
anlässlich 1312
Jung@@ 1311
Schlei@@ 1311
lem 1311
verschärft 1311
76 1311
NO@@ 1311
Wunder 1311
zeichnungen 1311
grundlegend 1310
untern@@ 1310
Moderne 1310
kos 1310
Siehe 1310
straßen 1309
73 1309
Fußball 1309
ritt 1309
gericht 1309
Benutzern 1309
Information@@ 1308
heik@@ 1308
Nä@@ 1308
Streitkräfte 1308
Meinungsäußerung 1308
Hongkong 1308
Ol@@ 1308
Gegenstände 1308
GR@@ 1308
enswer@@ 1307
zusammenzu@@ 1307
peri@@ 1307
tend 1307
Temperaturen 1306
sachen 1306
begrenzen 1306
immerhin 1306
Bag@@ 1306
Voraus 1306
Domain 1306
verbin@@ 1305
wirksam@@ 1305
harten 1305
steigende 1305
mehrmals 1305
Oper@@ 1305
Anwendungsbereich 1305
ence 1305
PRO@@ 1305
DIE 1305
sel 1304
bekämpft 1304
Toleranz 1304
ständiges 1304
Griff 1304
entworfen 1304
geschwindigkeit 1304
forderungen 1303
einhei@@ 1303
stau@@ 1303
siv 1303
gehend 1303
Ari@@ 1303
Zauber@@ 1303
61 1303
Logo 1303
schaftlicher 1302
dacht 1302
leichten 1302
Gesundheitswesen 1302
Architekten 1302
log 1302
reform@@ 1301
häufiger 1301
verbindliche 1301
Orientierung 1301
Green 1301
,000 1301
Golfplatz 1301
Sozialisten 1300
entwickel@@ 1300
abhängen 1300
Europäisches 1300
Gew@@ 1300
bor@@ 1300
erwar@@ 1299
gesetzliche 1299
schicht 1299
terten 1299
geho@@ 1299
Blo@@ 1299
preises 1299
Luxus@@ 1299
star 1299
Dir 1299
Sem@@ 1299
Control 1299
Release 1299
wandern 1298
Rand@@ 1298
stechn@@ 1298
Artikels 1298
verzer@@ 1298
ausgebaut 1298
tels 1298
dur@@ 1298
kö@@ 1298
UNESCO 1298
Award 1298
Ungleichheiten 1297
bte 1297
wirksamer 1297
höchst@@ 1297
inne 1297
format 1297
Tochter 1297
Entschei@@ 1296
erkenn@@ 1296
Anreise 1296
New@@ 1296
Swiss 1296
Fertigungs@@ 1296
akten 1295
unterhalb 1295
Zahlreiche 1295
these 1294
Insofern 1294
angemessener 1294
abzuschließen 1294
Freien 1294
Mont@@ 1294
Beförderung 1293
lob@@ 1293
kehr 1293
stabilen 1293
diplomatischen 1293
schätzt 1293
bedürfen 1292
bot@@ 1292
tors 1292
hinterlassen 1292
iranischen 1292
Strategi@@ 1291
betreibt 1291
Schließung 1291
fel 1291
lichung 1291
gesetzlich 1291
Zeitungen 1291
Chaos 1291
ament 1291
packen 1291
Zugangs@@ 1291
Fokus 1291
sensi@@ 1290
anen 1290
schaftlich 1290
weitergegeben 1290
kenntnisse 1290
Bürgerrechte 1290
schle@@ 1290
gebrau@@ 1290
verbindung 1290
benachrichtigt 1290
Real 1290
Schiffs@@ 1289
Auswahl@@ 1289
drehen 1289
Moldau 1289
Konsumenten 1289
stunden 1289
ac 1289
besticht 1289
Rohstoff@@ 1289
Pum@@ 1289
ci 1289
tragenen 1288
Eintritt 1288
Diplom@@ 1288
datum 1288
fis@@ 1288
gäste 1288
Nordkorea 1288
malerischen 1288
Dienststellen 1287
abgeschafft 1287
Variante 1287
tner 1287
Gelände 1287
getestet 1286
HD 1286
Zustellbetten 1286
vielfach 1285
zuverlässige 1285
Szene 1285
traditionell 1285
esse 1285
manu@@ 1285
Saddam 1285
Tee 1285
ausführliche 1284
tags@@ 1284
Möchten 1284
füllt 1284
Bou@@ 1284
gio 1284
Swimmingpool 1284
Hostel 1284
Prof@@ 1283
Katastrophen@@ 1283
Lobby@@ 1283
feier@@ 1283
Thailand 1283
ary 1282
massive 1282
Zentren 1282
74 1282
amerikanischer 1282
Alp@@ 1282
Gay 1282
aufweist 1281
lichere 1281
ausreichen 1281
eur 1281
Prop@@ 1281
án 1281
Stimmung 1281
flüsse 1281
Schluß 1280
Ruh@@ 1280
Maßstab 1280
berger 1280
kauf@@ 1280
Küchen@@ 1280
gratuliere 1279
bemerkt 1279
Schottland 1279
versetzen 1279
EA 1279
Neuigkeiten 1279
ffer 1278
Schlußfolgerungen 1278
union 1278
kompetenz 1278
Peking 1278
abschließen 1278
fro@@ 1278
Selb@@ 1278
bers 1278
deutsch 1278
Wohlbefinden 1278
One 1278
reck@@ 1277
glicher 1277
blü@@ 1277
Sämtliche 1277
preisen 1277
Mol@@ 1277
Ganzen 1277
CDs 1277
DO@@ 1277
würdi@@ 1276
diesbezüglichen 1276
wachen 1276
Schwar@@ 1276
dynamischen 1276
Visum@@ 1276
ßes 1275
Verhinderung 1275
Weihnachts@@ 1275
amtierenden 1275
run@@ 1275
UT@@ 1275
ING 1275
Hindernis 1274
appen 1274
gefühl 1274
anzen 1274
etzt 1274
Versorgungs@@ 1274
Prü@@ 1274
Gegenwärtig 1274
Patri@@ 1274
Verbündeten 1273
brachten 1273
Bedrohungen 1273
Schreib@@ 1273
blockiert 1273
trock@@ 1273
gültigen 1273
rec@@ 1273
mieten 1273
inhal@@ 1272
ahr@@ 1272
serklärung 1272
irgendeine 1272
abgestimm@@ 1272
Kup@@ 1272
Beispielsweise 1271
heil@@ 1271
Schaf@@ 1271
ansch@@ 1271
Bul@@ 1271
Mailand 1271
Dokument@@ 1271
Maxim@@ 1270
02@@ 1270
Entscheidungsträger 1270
aben 1270
ansä@@ 1270
ektion 1270
mensch@@ 1270
server 1270
anzuerkennen 1269
Hunderte 1269
best 1269
Tot@@ 1268
verhandelt 1268
herrschenden 1268
meint 1268
Hung@@ 1268
zur@@ 1268
en.@@ 1268
Fertigung 1268
walt 1267
unternehmer@@ 1267
Beträge 1267
Bla@@ 1267
Verbindungs@@ 1267
geachtet 1267
Beibehaltung 1267
anmelden 1267
startet 1267
aria 1267
zweck@@ 1266
Helsinki 1266
Komplexität 1266
Basis@@ 1266
Fischereiabkommen 1266
Folter 1266
rich 1266
flüge 1266
Gegebenheiten 1265
cker@@ 1265
beunruhi@@ 1265
fang@@ 1265
Übereinkunft 1265
schulen 1265
Deine 1265
Gültigkeit 1264
arme 1264
Pot@@ 1264
verteilen 1264
koordiniert 1264
niedrige 1264
aufhören 1264
äd@@ 1264
vereinbarung 1264
Gesetz@@ 1264
Zivilisation 1264
beruf@@ 1264
Endes 1264
alien 1264
bestraft 1264
ausgehend 1263
Kohäsion 1263
spür@@ 1263
Konvergenz 1263
Gemeinschaftsrecht 1263
Papier@@ 1263
amtierende 1263
regelungen 1262
träglich 1262
Vertriebs@@ 1262
schlimmsten 1262
Zäh@@ 1262
konkre@@ 1262
späten 1262
ols 1262
system@@ 1262
wunderbare 1261
Bestrebungen 1261
atur 1261
ble@@ 1261
Tipps 1261
Alexander 1260
Überleben 1260
worauf 1260
echter 1260
luxuriöse 1260
ausgeben 1259
global 1259
bedeutendsten 1259
Netzwerke 1259
eg 1259
runden 1259
abwechslungs@@ 1259
Stabilisierung 1258
Alkohol 1258
kes 1258
Uhr@@ 1258
Gam@@ 1258
lon@@ 1258
Ski 1258
erkennbar 1257
Män@@ 1257
äußer@@ 1257
alternativen 1257
Brem@@ 1257
ford 1257
tiefen 1256
IA@@ 1256
gend@@ 1256
verband 1256
Copyright 1256
Passagiere 1256
Vietnam 1256
eingeben 1256
Besteller 1256
ränkten 1255
stützt 1255
Kriterium 1255
versprochen 1255
schwan@@ 1255
krieg@@ 1255
Stadtteil 1255
bekanntesten 1255
Kapitalismus 1255
Sortiment 1255
schweigen 1254
Gedanke 1254
Vertre@@ 1254
büros 1254
glich@@ 1254
900 1254
gü@@ 1254
Hum@@ 1254
erschienen 1254
frisch 1254
leiste 1254
about 1254
Salzburg 1254
herausge@@ 1253
Diejenigen 1253
dringen 1253
mes@@ 1253
Gemüse 1253
Pen@@ 1253
Premium 1253
funk@@ 1252
ausgewogen 1252
Volkswirtschaft 1252
Unterstütz@@ 1252
festgehalten 1252
Dich@@ 1252
profitiert 1252
than 1252
wenngleich 1251
transpor@@ 1251
erfassen 1251
mann@@ 1251
Säu@@ 1251
berau@@ 1251
lia 1251
klarstellen 1250
berührt 1250
Bir@@ 1250
effizi@@ 1250
Sto@@ 1250
OECD 1250
Kongo 1250
Nutzungs@@ 1250
CD@@ 1250
inge 1249
Energiever@@ 1249
regelmäßige 1249
Aufgaben@@ 1249
nutzung 1249
Finanzielle 1249
Max 1249
Bonus 1249
einbeziehen 1248
führend 1248
fft 1248
luft@@ 1248
Kn@@ 1248
wechselt 1248
warmen 1248
IM 1248
Executive 1248
Fitness@@ 1248
gezahlt 1247
fungs@@ 1247
latein@@ 1247
Afrikas 1247
Gleichwohl 1246
OLAF 1246
strom 1246
stahl 1246
Leu@@ 1246
Nachteile 1246
oria 1246
Internation@@ 1245
Pfei@@ 1245
Sierra 1245
persönlicher 1245
Direktor 1245
schreiten 1244
Zeile 1244
High@@ 1244
Dich 1244
LT 1244
stechnologien 1243
situationen 1243
energie@@ 1243
Projektes 1243
Radio@@ 1243
ong@@ 1243
Früchte 1242
kab@@ 1242
Konsolidierung 1242
ost@@ 1242
Aufklärung 1242
hy@@ 1242
American 1242
ED 1241
aufre@@ 1241
Ern@@ 1241
laufende 1241
rechnung 1241
setzten 1241
erneu@@ 1241
Besu@@ 1241
archi@@ 1241
verweist 1240
Mitgliedsländer 1240
Listen 1240
identifizieren 1240
stufen 1240
Ram@@ 1240
kunst 1240
beachtet 1239
Finanzminister 1239
teres 1239
modelle 1239
Risi@@ 1238
verordnung 1238
Brü@@ 1238
Det@@ 1238
ce@@ 1238
schwarzen 1237
Schätzungen 1237
Ganze 1237
Regulierungs@@ 1237
lusses 1237
Konzert 1237
gemachten 1237
Zellen 1237
HU 1237
Eisen@@ 1236
Betrach@@ 1236
inierten 1236
Mich@@ 1236
Charles 1236
leidung 1236
sämtlicher 1235
schaft@@ 1235
2,5 1235
Parks 1235
Eink@@ 1235
massiven 1235
pragmati@@ 1235
westliche 1235
LU@@ 1235
gehand@@ 1234
gebrachten 1234
gehörte 1234
europa@@ 1234
Lun@@ 1234
bed 1234
zweimal 1233
abzugeben 1233
Krimin@@ 1233
Entschließungsanträge 1233
rom 1233
trenn@@ 1233
Applikationen 1233
Akzeptanz 1232
begriffen 1232
bekanntlich 1232
passenden 1232
Geschichten 1232
clean 1232
Infrastruktur@@ 1231
reiten 1231
located 1231
Ausschüssen 1230
bas@@ 1230
herrschen 1230
Autor@@ 1230
Amp@@ 1230
Dörfer 1230
Laser@@ 1230
erische 1229
Palästinen@@ 1229
vereinbaren 1229
extra 1229
Sevilla 1229
Pack@@ 1229
Schwimm@@ 1229
verlängert 1228
territorialen 1228
Griechenlands 1228
schie@@ 1228
Aff@@ 1228
Edi@@ 1228
benutzer@@ 1228
aufrechtzuerhalten 1227
Minimum 1227
zehn@@ 1227
Kindes 1227
wertvollen 1227
ausgestatteten 1227
langjährige 1227
authenti@@ 1227
volumen 1226
gemä@@ 1226
ausgenommen 1226
Persönlichkeiten 1226
schwach 1226
optimieren 1226
Bay 1226
Darlehen 1226
va@@ 1226
Km 1226
herbei@@ 1225
Persön@@ 1225
Stau@@ 1225
bewegungen 1225
Milch 1225
Nachbarschaft 1225
Siemens 1225
v. 1225
element@@ 1224
gründe 1224
sache 1224
Wich@@ 1224
vorzugehen 1224
tiver 1224
Dritt@@ 1224
Fäl@@ 1224
Begrenzung 1224
spi@@ 1224
Erkrankungen 1224
drücke 1224
Erleben 1224
thal@@ 1223
gezielt 1223
zierten 1223
Rechtsrahmen 1223
Besetzung 1223
Schlu@@ 1223
Kohlen@@ 1223
Versand@@ 1223
SM@@ 1223
erwarte 1222
Zeitalter 1222
Vogel@@ 1222
gestrichen 1222
Monats 1222
außer@@ 1222
ext 1222
Abwicklung 1222
kle@@ 1222
Geburt 1222
tschechischen 1222
LAN 1222
Che@@ 1222
Bauern@@ 1222
Guide 1222
zulegen 1221
zurückkommen 1221
ebt 1221
perman@@ 1221
auftritt 1221
Garan@@ 1221
ball 1221
automatischen 1221
Vorstand 1221
behindern 1220
jenige 1220
Wes@@ 1220
Auflagen 1220
port 1220
aufrufen 1220
gerei@@ 1220
Wissens 1220
Sofern 1220
Rücken 1220
Forscher 1220
konz@@ 1220
Zubehör 1220
87 1219
drittens 1219
nes 1219
ord 1219
Asyl 1219
Begeisterung 1219
Herstellern 1219
ausführ@@ 1218
widerspiegelt 1218
Sozialpartner 1218
Sicherstellung 1218
Ticket 1218
Room 1218
Schwerpunkte 1217
vereinbar 1217
erweise 1217
Bier 1217
Italiens 1217
Ära 1217
Porto 1217
DS@@ 1217
EX@@ 1217
Wärme 1216
trieb 1216
Plugin 1216
Entfer@@ 1215
Optim@@ 1215
Krä@@ 1215
gewaltige 1215
überzeu@@ 1215
Joseph 1215
Main 1215
reali@@ 1214
tender 1214
Funktionsweise 1214
vorgesehene 1214
deli@@ 1214
Zent@@ 1214
Übermittlung 1214
Level 1214
Veranstaltungs@@ 1214
potenziellen 1214
Š@@ 1214
geisti@@ 1213
wirtschaf@@ 1213
solidar@@ 1213
verlust 1213
Zwischenzeit 1213
doppelt 1213
Luftverkehrs@@ 1213
Echtzeit 1213
Security 1213
Wäscheservice 1213
Adri@@ 1212
ambi@@ 1212
faktoren 1212
Commerce 1212
Versand 1212
fertigung 1212
KDE 1212
Vorbe@@ 1211
Festung 1211
Chinesen 1211
leh@@ 1211
ous@@ 1211
basierend 1211
Wetter@@ 1211
Ed@@ 1211
Überwindung 1210
Störungen 1210
Zukunfts@@ 1210
ank 1210
nähe 1210
acht@@ 1210
Phasen 1210
Tem@@ 1210
übertrag@@ 1210
Ministerpräsidenten 1210
Ess@@ 1210
Thermal@@ 1210
zuführen 1209
Super 1209
mah@@ 1209
fru@@ 1209
hunder@@ 1209
erender 1209
Künstlern 1209
sur@@ 1209
Estland 1209
aly@@ 1209
XML 1209
ständigkeit 1208
kritisieren 1208
leute 1208
Satelliten 1208
fassten 1208
Snow@@ 1208
Arbeitszeit 1207
ungsh@@ 1207
Erwerb 1207
israelische 1207
henden 1207
stö@@ 1207
nd 1207
Bit@@ 1207
Stuttgart 1207
a.@@ 1207
optionen 1207
83 1206
Kün@@ 1206
gewal@@ 1206
zugreifen 1206
Resultat 1206
Literatur 1206
han@@ 1206
Birma 1206
schätz@@ 1206
Journ@@ 1205
Wachstum@@ 1205
unmittelbare 1204
Patten 1204
Fair@@ 1204
geeinigt 1204
ques 1204
höherer 1204
Technologi@@ 1204
Stan@@ 1204
Cho@@ 1204
Suchen 1204
Explorer 1204
zierte 1203
außergewöhnlichen 1203
Der@@ 1203
Airlines 1203
herunter 1203
bilaterale 1202
setzungs@@ 1202
Freizei@@ 1202
hrt 1202
strukturellen 1202
herrschaft 1202
dio@@ 1202
Buchstaben 1202
rung 1202
damaligen 1201
Ul@@ 1201
plä@@ 1201
entlich 1201
imm@@ 1201
Militär 1201
Jan@@ 1201
Egal 1201
della 1201
Brow@@ 1201
Zusagen 1200
OSZE 1200
Mä@@ 1200
dynamische 1200
grafischen 1200
Fitness 1200
Räumen 1199
bereitgestellten 1199
kampf 1199
irgendwann 1199
ernannt 1199
genetisch 1199
Korea 1199
Bed@@ 1199
CE 1199
Segel@@ 1199
zuständige 1198
vollkomm@@ 1198
Bemühen 1198
Kanäle 1198
hochrangi@@ 1198
vers 1198
liz@@ 1198
Central 1198
deb@@ 1198
Institute 1198
unvergesslichen 1198
Sozialdemokratischen 1197
lasten 1197
geschenkt 1197
Gremien 1197
Schnei@@ 1197
männ@@ 1197
widerspiegeln 1197
Chile 1197
wuchs 1197
Verein 1197
friendly 1197
Display 1197
signifikan@@ 1196
Kommissars 1196
legislativen 1196
Kompromiß 1196
Sieb@@ 1196
Bestände 1196
kriti@@ 1195
bestanden 1195
Vermögen 1195
Pakt 1195
südlich 1195
saal 1195
Fabri@@ 1195
IV@@ 1195
installi@@ 1195
Interventionen 1194
Angebot@@ 1194
tum@@ 1194
geschlossene 1194
Änderungs@@ 1194
Klick 1194
beihilfen 1193
dul@@ 1193
Ach@@ 1193
übergreifende 1193
ination 1193
elung 1193
Fundament 1193
kaner 1193
lös@@ 1193
lische 1193
sich@@ 1193
ektor 1193
Basel 1193
gesendet 1193
Umstellung 1192
kü@@ 1192
ausdrück@@ 1192
loh@@ 1192
bestellt 1192
Quartal 1192
besu@@ 1192
aktivi@@ 1192
ekten 1191
Stockholm 1191
höhe 1191
isse 1191
beliebtesten 1191
Erstellen 1191
GA 1190
Gewi@@ 1190
Mart@@ 1190
Republi@@ 1190
fehler 1190
Kontinents 1190
Übersch@@ 1190
Techni@@ 1190
überdenken 1189
Pfeiler 1189
bedaure 1189
lans 1189
tivität 1189
Baum@@ 1189
Folge@@ 1189
gels 1189
Nichts 1188
Olympischen 1188
zügen 1188
aktionen 1188
bestände 1187
fundi@@ 1187
verbundene 1187
ow 1187
Tagungs@@ 1187
Past@@ 1187
Minde@@ 1186
gerte 1186
mitglied 1186
Appell 1186
vorberei@@ 1186
tigungen 1186
gter 1186
Rohstoffe 1186
Spi@@ 1186
Stränden 1186
è 1186
partner@@ 1185
halben 1185
überwälti@@ 1185
Fahrzeugen 1185
stam@@ 1185
Währungsfonds 1185
Loch 1185
freundlicher 1185
Saudi 1185
ín 1185
Gastfreundschaft 1185
tagung 1184
artigen 1184
gebnisse 1184
Delegationen 1184
facto 1184
Fak@@ 1184
Pharma@@ 1184
radio@@ 1184
Michel 1184
Zusammenhalts 1183
dak@@ 1183
zips 1183
Nordirland 1183
dorthin 1183
Aufstockung 1183
Einsparungen 1183
Ebenfalls 1183
nom@@ 1183
mobilen 1183
Ideal 1183
Ly@@ 1183
formular 1183
vernünf@@ 1182
ergänz@@ 1182
abschließ@@ 1182
ländischen 1182
Netto@@ 1182
kontra@@ 1182
sendung 1182
Casa 1182
Zus@@ 1181
GUE 1181
Mitbürger 1181
Mobil@@ 1181
Erfassung 1180
drängt 1180
läne 1180
Terror 1180
Erkenntnis 1180
geholt 1180
indischen 1180
Zusammenfassung 1180
Kommunikation@@ 1180
Proz@@ 1180
DR@@ 1180
Kreatur 1180
Daraus 1179
veröffentlichte 1179
formulieren 1179
back 1179
verdanken 1179
österreichische 1179
lief 1179
Vel@@ 1179
einrichten 1178
selts@@ 1178
Sicht@@ 1178
geld@@ 1178
Balkan@@ 1178
Himm@@ 1178
bürgerliche 1178
Hypoth@@ 1178
diente 1178
Algerien 1178
sk 1178
Klaren 1178
luss 1178
verursachten 1177
Konservativen 1177
Register 1177
Freilassung 1177
Erhebung 1177
anzusehen 1177
Dest@@ 1177
zweif@@ 1177
intelligente 1177
seitdem 1177
eingang 1177
Blair 1177
eta 1177
Verkehrsmittel 1176
Rechn@@ 1176
Wiederein@@ 1176
anstal@@ 1176
zonen 1176
machung 1176
stabili@@ 1176
kultureller 1176
achtung 1176
Don@@ 1176
Zoll 1176
acken 1176
belieb@@ 1176
SK 1176
Firefox 1176
beobachtet 1175
olog@@ 1175
herunter@@ 1175
debatte 1175
Löhne 1175
Ero@@ 1175
Les 1175
verantwortung 1174
osteuropäischen 1174
scheinbar 1174
schwä@@ 1174
Einblick 1174
ckte 1174
gewalt@@ 1174
Heim@@ 1174
diverse 1173
Höhepunkt 1173
digkeit 1173
Sudan 1173
verwandeln 1173
Vari@@ 1173
kopieren 1173
sichten 1173
Bak@@ 1173
pflan@@ 1173
Spielern 1173
jemanden 1172
ammern 1172
gesundheits@@ 1172
Voraus@@ 1172
gebor@@ 1172
Zucker 1172
annehm@@ 1171
durchschnittliche 1171
nahen 1171
erzählt 1171
mächtigen 1171
Roman@@ 1171
themen 1170
doppel@@ 1170
alter@@ 1170
Sou@@ 1170
heb@@ 1170
zierung 1170
geneti@@ 1170
lagen@@ 1170
AM 1170
Politikern 1169
Elite 1169
ecke 1169
low 1169
Kalender 1169
abschluss 1169
town 1169
schlim@@ 1168
Verpackung 1168
Verhaltenskodex 1168
sozio@@ 1168
enswerten 1168
Karl 1168
France 1168
350 1168
freiwillig 1168
Verbin@@ 1168
Hintergrund@@ 1168
geschützten 1168
Sehen 1168
Anleger 1168
Engineering 1168
grafische 1168
fot@@ 1168
verteidigt 1167
genommenen 1167
Subsidiaritätsprinzip 1167
Hauptziel 1167
Viertens 1167
Tag@@ 1167
Verschlechterung 1167
Konzern 1167
erzeugung 1167
Flach@@ 1167
wandeln 1167
förmi@@ 1167
TEN 1167
Games 1167
hoff@@ 1166
getroffenen 1166
beunruhigt 1166
markiert 1166
Gemeinschaftsebene 1166
erho@@ 1166
fän@@ 1166
erzielte 1166
ott 1166
gewöhnliche 1166
ano@@ 1166
Interface 1166
ê@@ 1166
Account 1166
RSS 1166
gerin 1165
stärke 1165
bewahrt 1165
bus@@ 1165
uneingeschränkte 1165
stisch 1165
Alpen@@ 1165
zügi@@ 1165
Intern@@ 1165
kapazität 1165
Rin@@ 1165
sts 1165
ühle 1165
Fot@@ 1165
Sol 1165
transparente 1164
andel 1164
selek@@ 1164
Lauf 1164
Touristen@@ 1164
akzep@@ 1163
kunft@@ 1163
erschien 1163
problemen 1163
nehm@@ 1163
Schulz 1163
auto@@ 1163
räger 1163
präsen@@ 1163
Internetseiten 1163
skep@@ 1162
offensich@@ 1162
moderni@@ 1162
hinnehmen 1162
gedenkt 1162
ennen 1162
statt@@ 1162
schaff@@ 1162
rump@@ 1162
Aufstieg 1162
bücher 1162
84 1162
LA 1162
Techn@@ 1162
Norm 1162
card 1162
klimati@@ 1162
Kit@@ 1162
struk@@ 1161
Bestimm@@ 1161
positives 1161
Fremden@@ 1161
nisch 1161
ös@@ 1161
Exporte 1161
Subjek@@ 1161
bon@@ 1161
Kameras 1161
Sili@@ 1161
great 1161
obgleich 1160
Rechtsprechung 1160
gewähr@@ 1160
SY@@ 1160
Lizenzen 1160
Kühl@@ 1160
einhalb 1159
appelliere 1159
pflegen 1159
Il@@ 1159
deckung 1159
Glo@@ 1159
su 1159
pap@@ 1159
sidenten 1159
Arbeiter@@ 1159
Studios 1159
Metro@@ 1159
fizierten 1158
flexiblen 1158
Schwächen 1158
hochwer@@ 1158
Hy@@ 1158
berühmt 1158
möglicher 1157
Pak@@ 1157
vorherseh@@ 1157
Erdbeben 1157
ehrgeizige 1157
Schritten 1157
Warnung 1157
Teilnehmern 1157
Jahrestag 1157
beliebt 1157
Grö@@ 1157
Termine 1156
Unregelmäßigkeiten 1156
verlängern 1156
Main@@ 1156
org@@ 1156
hl 1156
kus 1156
GPS 1156
Prof. 1156
Ungleich@@ 1155
sichtlich 1155
brin@@ 1155
Einleitung 1155
Gesichtspunkt 1155
ust 1155
biologische 1155
zugang 1155
But@@ 1155
Obst 1155
Up@@ 1155
berechti@@ 1154
fläch@@ 1154
direkter 1154
stellvertre@@ 1154
Standorten 1154
servi@@ 1154
SU@@ 1154
Allein 1153
luß@@ 1153
Landschaften 1153
oms 1153
Spor@@ 1153
ausgeprä@@ 1152
univers@@ 1152
Befürchtungen 1152
demselben 1152
Spekul@@ 1152
PP@@ 1152
Meer@@ 1152
atte 1152
Sun@@ 1152
Esp@@ 1152
Konferenz- 1152
gewahrt 1151
privater 1151
Biokraft@@ 1151
в@@ 1151
problematisch 1150
annten 1150
Stil@@ 1150
Chin@@ 1150
erbringen 1150
bige 1150
Nutzern 1150
trag 1150
jün@@ 1150
Route 1150
Bundesrepublik 1149
betragen 1149
Gegenden 1149
atik 1149
Kolumbien 1149
polizei@@ 1148
schwarz 1148
agt 1148
Nigeria 1148
ruf@@ 1148
Ansprechpartner 1148
Workshops 1148
ausgebil@@ 1147
aufkommen 1147
legten 1147
Interpretation 1147
79 1147
saison 1147
Bewer@@ 1147
Run@@ 1147
esi@@ 1147
Antrieb@@ 1147
â@@ 1147
Blue 1147
Warcraft 1147
kümmert 1146
Auslands@@ 1146
Beschränkung 1146
wärts 1146
elf 1146
aufgegriffen 1145
fehl@@ 1145
entziehen 1145
streiten 1145
Poker@@ 1145
linge 1145
60@@ 1145
Tagungen 1145
ami 1145
ación 1145
Nero 1145
Fax- 1145
Gor@@ 1144
ßten 1144
äum@@ 1144
Erwachsenen 1144
abel 1144
touristischen 1144
lieferungen 1144
parks 1144
Freizeit 1144
belastet 1143
kenne 1143
anerkannten 1143
geber@@ 1143
Datent@@ 1143
kas 1143
verschlüssel@@ 1143
Square 1143
Chr. 1143
Ashton 1143
derte 1142
Protektionismus 1142
veranlassen 1142
Fülle 1142
politi@@ 1142
aufgeben 1142
Mark 1142
.- 1142
Lebensbedingungen 1141
beugen 1141
irgendwie 1141
Chemikalien 1141
Stabilitätspakt 1141
bil 1141
Friendly 1141
einräumen 1140
Kohäsionsfonds 1140
entsp@@ 1140
Kurs@@ 1140
wertet 1140
sia 1140
Offizi@@ 1140
Richard 1140
tic@@ 1140
spieler 1140
Nikon 1140
eventuelle 1139
würfe 1139
ausgewählte 1139
Eleganz 1139
Rab@@ 1139
gewann 1139
nen@@ 1139
Bed 1139
ange 1138
geschnitten 1138
größ@@ 1138
Stadium 1138
tigsten 1138
verletz@@ 1138
besi@@ 1138
Audi@@ 1138
Rü@@ 1138
wahrgenommen 1138
Logistik 1138
don 1138
Sammel@@ 1138
lic@@ 1138
Kriege 1137
super 1137
Fischer@@ 1137
einlad@@ 1137
Gesetzgeber 1136
Verstöße 1136
Davon 1136
offenkundig 1136
Erleichterung 1136
kommunizieren 1136
GO 1136
wachstum 1135
Inzwischen 1135
ürz@@ 1135
Regierung@@ 1135
Fas@@ 1135
schwachen 1134
Mitentscheidung 1134
einschlägigen 1134
rang 1134
gefahren 1134
extremen 1134
bungs@@ 1134
Kali@@ 1134
Nationalpark 1134
hervorzuheben 1133
schriftlichen 1133
wissens@@ 1133
Inform@@ 1133
Korrektur 1133
Flächen 1133
Schlacht@@ 1133
renovierte 1133
vergabe 1132
ehren 1132
ppt 1132
5.000 1132
gemeint 1132
Masse 1132
Privatisierung 1132
attraktive 1132
verkauf@@ 1132
Kamp@@ 1132
Maus@@ 1132
besorgniserre@@ 1131
EIB 1131
wiederherzustellen 1131
og@@ 1131
130 1131
Lettland 1131
ALDE 1131
Vorsicht 1130
Jahrhunderte 1130
rassi@@ 1130
Angehörigen 1130
Verhältnis@@ 1130
Erzeugnissen 1130
Erziehung 1130
Job 1130
Pfer@@ 1130
Glücks@@ 1130
I. 1130
Spanisch 1130
eo 1130
Doppelbett 1130
URL 1130
ausgegangen 1129
Zertifizierung 1129
ultur 1129
denkbar 1129
möge 1129
eds 1129
läufigen 1129
Interview 1129
Gemü@@ 1129
packt 1129
Funk@@ 1129
Rep@@ 1129
BA 1129
Werde 1129
berechtigte 1128
Ball@@ 1128
Streben 1128
oberste 1128
Kürzungen 1128
Quadrat@@ 1128
Spon@@ 1128
DEN 1128
ungsphase 1127
ank@@ 1127
tigkeits@@ 1127
Allgemein@@ 1127
merken 1127
Haushaltsausschusses 1127
Gutes 1127
Erweiterungen 1127
Möbel 1127
By@@ 1127
ney 1127
qm 1127
beheben 1126
derartiger 1126
juristischen 1126
ihrerseits 1126
Demokratischen 1126
Gewässern 1126
Solana 1126
Aufteilung 1126
prozessen 1126
ftung 1126
ov 1126
etten@@ 1126
dei 1126
befürchten 1125
erfahrenen 1125
prin@@ 1125
Wohlergehen 1125
abteilung 1125
demnächst 1124
vergleichbar 1124
Rollen 1124
aufhalten 1124
medien 1124
transeuropäischen 1124
antiken 1124
wissenschaftlich 1124
Nokia 1124
Hir@@ 1124
Dienstleistungsrichtlinie 1124
Sat 1124
Richtigkeit 1123
Aufstellung 1123
versprechen 1123
schö@@ 1123
forum 1123
fürchte 1123
menden 1123
autonom@@ 1123
ologen 1123
Herzegowina 1123
Artikeln 1123
anne 1123
schwe@@ 1123
FI 1123
Formul@@ 1123
anscheinend 1122
Angeboten 1122
überra@@ 1122
zin 1122
shi@@ 1122
gefährlicher 1121
Gestalt 1121
vertrags 1121
Akteuren 1121
op 1121
zte 1121
Renten 1121
hang 1121
Meister 1121
sh 1121
schrecklichen 1120
eigent@@ 1120
Pfad 1120
Geschlech@@ 1120
asien 1120
Institu@@ 1120
Verpackungs@@ 1120
frische 1120
Friedensprozess 1120
ausschließ@@ 1119
hinausgehen 1119
orts 1119
Verurteilung 1119
Arena 1119
gewaltigen 1118
verkün@@ 1118
Kanz@@ 1118
Preises 1118
wahlen 1118
ehl 1118
os@@ 1118
rot 1118
Digital@@ 1118
Rou@@ 1118
bearbeitung 1118
Music 1118
fizierte 1117
Genfer 1117
Zahl@@ 1117
ando 1117
Straß@@ 1116
Vertrauens@@ 1116
terie 1116
ausgestellt 1116
80@@ 1116
vorüber@@ 1116
erzeugnisse 1116
ager 1116
School 1116
Schriftliche 1116
diversen 1115
korrigiert 1115
pole 1115
Spann@@ 1115
elli 1115
Verheugen 1115
tari@@ 1115
Zuliefer@@ 1115
erbare 1115
olle 1115
ppen@@ 1115
Kleidung 1115
8,@@ 1115
ermutigt 1114
völ@@ 1114
ordnungen 1114
ermittelt 1114
gangen 1114
unternimmt 1114
phase 1114
pflanzen 1114
Kaiser 1114
Anzeigen 1114
arbeitenden 1113
Strafe 1113
keits@@ 1113
mutz@@ 1113
gesetzgebung 1113
licht@@ 1113
voranzubringen 1113
herbeizuführen 1113
Ann@@ 1113
Schal@@ 1113
fi 1113
dru@@ 1112
Evaluierung 1112
affen 1112
schlicht 1112
Anstatt 1112
antwortet 1112
sensiblen 1112
Reichweite 1112
Schuld@@ 1112
liberale 1112
Bandbreite 1112
Côte 1112
zon@@ 1112
there 1112
Veranstaltungsräume 1112
180 1111
unterschied@@ 1111
hielten 1111
Genauigkeit 1111
täu@@ 1111
ehrgeizigen 1111
Mitgliedstaates 1111
Kontra@@ 1111
konstruk@@ 1111
lierung 1111
OK 1111
Len@@ 1111
Play@@ 1111
konkreter 1110
ras 1110
beauftragt 1110
kreative 1110
aufgeführten 1110
agenturen 1110
Bruder 1110
Ausstellungs@@ 1110
Zentrums 1110
manager 1110
Network 1110
optimiert 1109
befreit 1109
ät 1109
belastung 1109
außen@@ 1109
strecke 1109
aut@@ 1109
Gerne 1109
Aufbau@@ 1108
enttäu@@ 1108
ethnische 1108
Rä@@ 1108
beratung 1108
abzustimmen 1108
Alkohol@@ 1108
Kühlschrank 1108
Therap@@ 1108
Menü@@ 1108
Wikicars 1108
erhöhte 1107
dnis 1107
Benz@@ 1107
arch@@ 1107
ausgeliefert 1107
Botschaften 1107
Klausel 1107
sn@@ 1107
erhebt 1106
110 1106
Organ 1106
modernsten 1106
ür 1106
abstimmung 1106
etabli@@ 1106
aufrecht 1106
fig@@ 1106
flicht 1106
zel 1106
Schie@@ 1106
Stro@@ 1106
PK@@ 1106
ernsten 1105
ferenz 1105
Auftraggeber 1105
Darauf 1105
RE 1105
konvention 1105
handels 1105
gewöhnlichen 1105
Pazi@@ 1105
last@@ 1105
künfte 1105
dan 1105
Theater@@ 1105
.net 1105
willigen 1104
Hochschulen 1104
tener 1104
föder@@ 1104
Franzosen 1104
verfassungs@@ 1104
icht@@ 1104
islam@@ 1104
bat@@ 1104
house 1103
begeben 1103
rolle 1103
saubere 1103
ann 1103
Armen@@ 1103
therapeu@@ 1103
cos 1103
geräumigen 1103
close 1103
nachkommen 1102
Verw@@ 1102
arisierung 1102
Einmischung 1102
zeile 1102
Nachfolger 1102
angen 1101
Entdeckung 1101
Eck@@ 1101
slowak@@ 1101
bör@@ 1101
out@@ 1101
geschul@@ 1101
beeindruck@@ 1101
zimmern 1100
Genehm@@ 1100
erheb@@ 1100
Zutaten 1100
betreffende 1100
einnahmen 1100
traf 1100
länge 1100
Potential 1100
reiches 1100
gischen 1100
lität 1100
tran@@ 1100
Tut@@ 1100
virtuellen 1100
adresse 1100
Meilen 1100
.-@@ 1100
stable 1100
Reparatur 1100
verläss@@ 1100
architekton@@ 1100
Konzerte 1100
Jur@@ 1099
Milliarde 1099
geschah 1099
ables 1099
anspruchsvolle 1099
Behandlungen 1099
Gleiche 1099
Vier 1099
Tabellen 1099
lass 1099
don@@ 1099
Rem@@ 1099
Technology 1099
Rettungs@@ 1098
Gesundheitsversorgung 1098
dichte 1098
weis@@ 1098
Fischler 1098
Pestizi@@ 1098
Belastungen 1098
ernde 1098
ées 1098
Residence 1098
traums 1097
entscheidungen 1097
Vorsorge@@ 1097
abgedeckt 1097
zeugt 1097
aten@@ 1097
Tochter@@ 1097
Medizin@@ 1097
ahl 1097
Datens@@ 1097
nit@@ 1097
ics 1097
NE@@ 1097
like 1097
Werken 1096
familie 1096
Bab@@ 1096
seg@@ 1096
christlichen 1096
Direkt 1096
illa 1096
Maus 1096
с@@ 1096
Klärung 1095
belast@@ 1095
esenen 1095
definitiv 1095
Vorgang 1095
Ven@@ 1095
Sports 1095
и@@ 1095
folgendes 1094
ages 1094
erung@@ 1094
gehalt 1094
Zigare@@ 1094
Erwärmung 1094
Fotokopiereinrichtungen 1094
Schienen@@ 1093
koordini@@ 1093
entsprechender 1093
abhängt 1093
laufend 1093
fut@@ 1093
bewundern 1093
Schwellen@@ 1093
Louis 1093
Kohle 1093
platten 1093
Bedauern 1092
anmerken 1092
Erwägungen 1092
ähnlicher 1092
Einerseits 1092
Wohl 1092
versorgen 1092
view 1092
privilegi@@ 1091
nachfolgenden 1091
stungen 1091
gründet 1091
exakt 1091
nächstes 1091
Dür@@ 1091
gestal@@ 1091
Schuh@@ 1091
Plattformen 1091
Geschäftsführer 1091
pass 1091
thaus 1091
Publikationen 1091
anwendungen 1091
verknü@@ 1090
historisch 1090
nachtei@@ 1090
deu@@ 1090
sitzung 1090
cken@@ 1090
Experim@@ 1090
spit@@ 1090
Fest 1090
künstlerischen 1090
pas@@ 1090
Shops 1090
team 1090
auseinander@@ 1089
gesetze 1089
artiges 1089
Behauptung 1089
blicke 1089
par 1089
Parti@@ 1089
comfortable 1089
obliegt 1088
mittelständi@@ 1088
Ausgewogenheit 1088
zusätzlicher 1088
Sin@@ 1088
Wollen 1088
ansprüche 1088
grenzt 1088
Ausbruch 1088
gg@@ 1088
CON@@ 1088
berg@@ 1088
Informationsschalter 1088
Gewer@@ 1087
echt 1087
beschleunigt 1087
Beantwortung 1087
fa 1087
perfek@@ 1087
Time 1087
Hyper@@ 1087
plung 1086
angehört 1086
übertragung 1086
Stoffen 1086
Null 1086
Nachrichten@@ 1086
Vergabe 1086
Eigentums 1086
ön 1086
Galileo 1086
Müller 1086
CE@@ 1086
cre@@ 1086
beizu@@ 1085
Haushaltskontrolle 1085
schaftsp@@ 1085
seinerzeit 1085
unglück@@ 1085
richtlinien 1085
verweigert 1085
Trä@@ 1085
ura 1085
Spiels 1085
Kämp@@ 1085
abends 1085
alist 1085
u.@@ 1085
Pic@@ 1085
zusammenhän@@ 1084
getre@@ 1084
Klassen 1084
NGL 1084
wissenschaftlicher 1084
Chef 1084
iss@@ 1084
dachten 1084
Klim@@ 1084
unweit 1084
Symbole 1084
Cy@@ 1084
ario 1084
bestrebt 1083
attraktiven 1083
Anlage@@ 1083
afri@@ 1083
wunderbaren 1083
Jan 1082
Ansehen 1082
fran@@ 1082
bot 1082
überwachung 1082
Dok@@ 1082
Berat@@ 1082
veränderten 1081
verbesserten 1081
pflicht 1081
enswerte 1081
zurufen 1081
ahn 1081
versammlung 1081
Heu@@ 1081
arbeitungs@@ 1081
Periode 1081
Wortlaut 1080
Charakter@@ 1080
Bewirtschaftung 1080
währung 1080
jahres 1080
roten 1080
Konz@@ 1080
Bewegungs@@ 1080
tom@@ 1080
Meinungsfreiheit 1080
Abend@@ 1080
lieferung 1080
zügig 1079
existi@@ 1079
Energiem@@ 1079
Lat@@ 1079
Gö@@ 1079
yp 1079
Sound@@ 1079
besser@@ 1078
schwi@@ 1078
prü@@ 1078
Teils 1078
zwecken 1078
Lande 1078
arischen 1078
behei@@ 1078
Ira@@ 1078
lehnt 1077
Bestreben 1077
stim@@ 1077
unterstützten 1077
aci@@ 1077
steck@@ 1076
nein 1076
von@@ 1076
äter 1076
Az@@ 1075
Kompetenz@@ 1075
gendsten 1075
Hinzu 1075
läßlich 1075
pak@@ 1075
komplizierten 1075
demokrati@@ 1075
griffe 1075
ao 1075
repräsentiert 1075
robu@@ 1075
Ay@@ 1075
Therapie 1075
Paradies 1075
freundliches 1075
antwor@@ 1074
Prüfungen 1074
luß 1074
exportieren 1074
Befreiung 1074
Button 1074
aster 1073
span@@ 1073
versichert 1073
positiver 1073
gesu@@ 1073
bedeutender 1073
Fli@@ 1073
Jahre@@ 1073
Valencia 1073
teilnehmenden 1073
Single 1073
geehrter 1072
Handhabung 1072
Schwäche 1072
aran@@ 1072
zip@@ 1072
Bun@@ 1072
Texten 1072
d.@@ 1072
G20 1072
entnehmen 1071
imstande 1071
terte 1071
erhielten 1071
Auswirkung 1071
palästinensische 1071
sky 1071
bedient 1071
Verwand@@ 1071
lässig 1070
rek@@ 1070
ökonom@@ 1070
Kommunismus 1070
Viren 1070
Einigkeit 1070
Instanz 1070
zir@@ 1070
bekam 1070
Autovermietung 1070
siedlung 1069
umfassender 1069
Themas 1069
Ergän@@ 1069
ô@@ 1069
anony@@ 1069
repräsent@@ 1069
Ideologie 1069
Fron@@ 1069
PE 1069
Breite 1068
nä@@ 1068
Parlamentarier 1068
Kunststoff@@ 1068
englische 1068
akte 1068
Versicherung 1068
Still@@ 1068
gal@@ 1068
heruntergeladen 1068
Campingplatz 1068
hotels 1068
interven@@ 1067
Unions@@ 1067
verlang@@ 1067
erneuerbarer 1067
turel@@ 1067
Schwanger@@ 1067
Rezep@@ 1067
visu@@ 1067
VIP 1067
tre 1066
schwächen 1066
Ansprüchen 1066
Zivilisten 1066
Bevölkerungsgruppen 1066
holt 1066
Änderungsantrags 1066
forder@@ 1066
Strecken 1066
lit@@ 1066
Set 1066
Ticket@@ 1066
Ferienhaus 1066
Space 1066
ausgeht 1065
shofes 1065
gänzlich 1065
strengere 1065
empfehle 1065
beginn 1065
igte 1065
wälte 1065
anschauen 1065
Berichterstattung 1065
Motoren 1065
Taxi 1065
Vulkan@@ 1065
berat@@ 1064
Unrecht 1064
Vertrag@@ 1064
überschritten 1064
Koalition 1064
tika 1064
ome 1064
Spam 1064
Punk@@ 1063
Wirtschaft@@ 1063
definierten 1063
multinationalen 1063
Welle 1063
untersagt 1063
agnen 1063
trinken 1063
Kost@@ 1063
steigerung 1063
Benutz@@ 1063
NE 1063
betreut 1062
steine 1062
allgemeiner 1062
verzö@@ 1062
ssig 1062
atom@@ 1062
uter 1062
Weiter 1062
esische 1062
beeindruckende 1062
inischen 1062
gemeldet 1061
haltens 1061
Begleitung 1061
tent@@ 1061
unterzeichnen 1061
Sogar 1061
Lust 1061
ond 1061
stufe 1060
Füßen 1060
Konsequenz 1060
lok@@ 1060
spru@@ 1060
sweise 1060
Gefühle 1060
solle 1060
Verts 1060
turm 1060
UM@@ 1060
Formate 1060
Tampere 1059
Ausnahme@@ 1059
bräu@@ 1059
Diplomatie 1059
ener@@ 1059
wünschte 1059
wahl@@ 1059
geplante 1059
exist@@ 1059
Tier 1059
adel@@ 1059
bran@@ 1058
beziehe 1058
lindustrie 1058
vorsehen 1058
vermei@@ 1058
angesprochenen 1058
Kampfes 1058
Musiker 1058
Lev@@ 1058
Dur@@ 1058
kompet@@ 1058
å@@ 1058
Tech 1057
gelan@@ 1057
Schengener 1057
weiterentwickelt 1057
verbrauch 1057
kam@@ 1057
Labor@@ 1057
bestehend 1057
Unterricht 1057
tzei@@ 1057
vereinen 1057
Taliban 1057
initiativen 1056
vertrieben 1056
Modellen 1056
ernähr@@ 1056
rahmen@@ 1056
kub@@ 1056
gran@@ 1056
willen 1055
Beitrittskandidaten 1055
verlor@@ 1055
italien@@ 1055
verwandelt 1055
kontrolli@@ 1055
Spaniens 1055
unverändert 1055
stetig 1055
wirst 1055
elegant 1055
Eingabe 1055
Schalt@@ 1055
beträchtlichen 1054
Anleitung 1054
Milli@@ 1054
moralischen 1054
Konsum 1054
soren 1054
Fotografie 1054
Trek 1054
Unfälle 1053
Kürzung 1053
fangs 1053
herauszufinden 1053
uen 1053
Block 1053
Streitigkeiten 1053
Variablen 1053
Tari@@ 1053
tien 1053
Cab@@ 1053
Fan 1053
Schwei@@ 1052
maßgeblich 1052
buchs 1052
Drittländer 1052
übereinstimmen 1052
prüft 1052
gelegentlich 1052
Zuwanderung 1052
Kampf@@ 1052
Behandlungs@@ 1052
Auftrag@@ 1052
Il 1052
ć 1052
wettbewerbsfähig 1051
Kommissionsmitglied 1051
stabil 1051
themati@@ 1051
ünden 1051
fachen 1051
scho@@ 1051
Etagen 1051
behindertenfreundliche 1051
staates 1050
geheim@@ 1050
räte 1050
präsent 1050
Errungenschaften 1050
unglaublich 1050
lichten 1050
Quer@@ 1050
aussieht 1050
Damals 1050
Noten@@ 1050
Songs 1050
genehm@@ 1049
begrün@@ 1049
historischer 1049
tzen 1049
freiwillige 1049
zyklus 1049
Gy@@ 1049
pack@@ 1049
Heiz@@ 1049
Plug 1049
Streit 1048
Forschungs- 1048
Akt 1048
verschärfen 1047
deter 1047
ausgerüstet 1047
sein@@ 1047
Beschäftigungspolitik 1047
abilität 1047
beurteilt 1047
Bibliotheken 1047
1988 1047
Prot@@ 1047
Exper@@ 1047
Fund@@ 1047
Zeitschrift 1047
Alliance 1047
mitzuteilen 1046
eingeb@@ 1046
Ökonomen 1046
ausreich@@ 1046
allgemein@@ 1046
Management@@ 1046
katastrophal@@ 1046
zwingend 1046
Europar@@ 1046
chens 1046
Brüder 1046
area 1046
Strafen 1045
Unfall 1045
terien 1045
orientieren 1045
fehlenden 1045
halts@@ 1045
Monte 1045
Prote@@ 1045
besichtigen 1045
top@@ 1045
Vormittag 1045
erholen 1045
News@@ 1045
tho@@ 1045
Aufpreis 1045
Auskunft 1044
Laufzeit 1044
streng@@ 1044
Cer@@ 1044
Baden 1044
Wandern 1044
kostenfreien 1044
pfli@@ 1043
Mehrheits@@ 1043
gig 1043
ino@@ 1043
Ref 1043
rede 1042
müßten 1042
Kodex 1042
Haushaltsmittel 1042
Fundament@@ 1042
abe 1042
einrichtung 1042
halten@@ 1041
zusammengestellt 1041
Drucker 1041
beizubehalten 1040
Qualifikationen 1040
tab@@ 1040
Straftaten 1040
Tiefe 1040
transparenter 1040
spot@@ 1040
gescho@@ 1040
Busse 1040
japanische 1040
Angestellten 1040
Experten@@ 1039
Diskussions@@ 1039
auszubauen 1039
stuhl 1039
graus@@ 1039
blich 1039
zweier 1039
kes@@ 1039
Photo@@ 1039
Gil@@ 1039
air 1039
Konfigurations@@ 1039
html 1039
Instrument@@ 1038
funktions@@ 1038
zögern 1038
gelt 1038
sebene 1038
konzep@@ 1038
Klin@@ 1038
regul@@ 1038
dierung 1038
polnische 1038
kunfts@@ 1038
ji 1038
befindlichen 1037
Gerü@@ 1037
neten 1037
Jerusalem 1037
Umwelt- 1037
Patente 1037
Singapur 1037
Seh@@ 1037
Bay@@ 1037
TO 1037
Betrieben 1036
widmet 1036
WWU 1036
Russen 1036
wägen 1036
Häusern 1036
scheu@@ 1036
Verstoß 1036
ile 1036
römischen 1036
other 1036
Slideshows 1036
Zusch@@ 1035
deutlichen 1035
Bewerber@@ 1035
sofortige 1035
Gestern 1035
Rohr@@ 1035
Gewis@@ 1035
entfernten 1035
allen@@ 1035
Telekommunikation 1034
verse 1034
Investitionsbank 1034
mittelalterlichen 1034
Imperi@@ 1034
dest 1034
Leiden 1034
gestütz@@ 1034
home 1034
Grafik@@ 1034
Umweltpolitik 1033
angestre@@ 1033
echtes 1033
Zufall 1033
Auseinandersetzungen 1033
Entscheidungsfindung 1033
tür@@ 1033
Ausdehnung 1033
aufgezeigt 1033
Münzen 1033
Inhalts@@ 1033
world 1033
Install@@ 1033
unterrichtet 1032
beabsichti@@ 1032
lebens 1032
dienstes 1032
veranstaltet 1032
Fut@@ 1032
anschließ@@ 1032
CA 1032
bedingten 1032
business 1032
registri@@ 1032
Kloster 1032
ierter 1031
erweist 1031
Viel 1031
tam@@ 1031
versuchte 1031
geschnit@@ 1031
vertrauens@@ 1031
Haiti 1031
Spiegel 1031
tour@@ 1031
erzählen 1031
boot 1031
Line 1031
vi 1031
Zusage 1030
zukommt 1030
vertiefen 1030
traten 1030
ernsthaften 1030
gleicht 1030
Konsultationen 1030
unden@@ 1030
exzellente 1030
Lieblings@@ 1030
überschreiten 1030
komb@@ 1030
unterstütz@@ 1030
passi@@ 1030
Gepäck 1030
trug 1029
bür@@ 1029
Fun@@ 1029
kunde 1029
Neg@@ 1028
Gü@@ 1028
spon@@ 1028
Geg@@ 1028
fert 1028
Aussprachen 1028
Anschließend 1028
zweit@@ 1028
begehen 1028
Cur@@ 1028
mangelt 1027
verlaufen 1027
handelte 1027
sahen 1027
individu@@ 1027
Biom@@ 1027
er- 1027
por 1027
Monti 1026
Vieh@@ 1026
Frau@@ 1026
Ros@@ 1026
potenzielle 1026
Downloads 1026
geräumige 1026
Erläu@@ 1025
umfangreich@@ 1025
ex 1025
Tragen 1025
Vertiefung 1025
Überschwemmungen 1025
tchen 1025
Bestandteile 1025
revi@@ 1025
Unger@@ 1025
Prak@@ 1025
Komplex 1025
Ostse@@ 1025
sphase 1024
geordnete 1024
beschäf@@ 1024
Enttäuschung 1024
EURO@@ 1024
öst@@ 1024
Bezug@@ 1024
Standpunk@@ 1024
dicht 1024
breiter 1024
First 1024
Eingliederung 1024
folgte 1024
Klassen@@ 1024
glichkeiten 1023
ränk@@ 1023
Vollendung 1023
Erlaubnis 1023
teu@@ 1023
under@@ 1023
Rücksicht 1023
sla@@ 1023
iPod 1023
Stärken 1022
überarbeitet 1022
aufrichtig 1022
samt 1022
Nationalismus 1022
dringende 1022
Pakets 1022
ggf. 1022
Co. 1022
FC 1022
pol 1021
Refle@@ 1021
auferlegt 1021
eindeutigen 1021
Vertreterin 1021
Dimensionen 1021
konzer@@ 1021
unüber@@ 1021
Sab@@ 1021
physi@@ 1021
einigt 1021
Feri@@ 1021
ham 1021
hen@@ 1021
Ori@@ 1021
Stern 1021
Quart@@ 1021
Heraus@@ 1020
ankommt 1020
hten 1020
übersehen 1020
Seel@@ 1020
Gru@@ 1020
inn 1020
weitergehen 1020
Unser@@ 1020
Völker@@ 1020
appellieren 1020
Temperatur@@ 1020
insel 1020
herkömmlichen 1020
int@@ 1020
smo@@ 1020
Anleihen 1020
hoben 1019
strategischer 1019
bi 1019
schich@@ 1019
Konsu@@ 1019
DS 1019
beherbergt 1019
W. 1018
nder 1018
ordnungsgemäße 1018
Umstrukturi@@ 1018
maxim@@ 1018
ende@@ 1018
iens 1018
unzählige 1018
setzungen 1018
sauber@@ 1018
schir@@ 1018
def@@ 1018
Verzeichn@@ 1018
ses@@ 1018
Marco 1018
übergreifenden 1017
Clinton 1017
wählt 1017
Engli@@ 1017
statisti@@ 1017
sprechende 1017
undes 1017
verfasst 1017
KG 1017
hindern 1016
Israelis 1016
Verknüpfung 1016
Ersten 1016
Montenegro 1016
irakischen 1016
vermieten 1016
Got@@ 1016
Fed 1016
europaweit 1015
gelei@@ 1015
station@@ 1015
ographie 1015
Trock@@ 1015
dol@@ 1015
takt 1015
Terroran@@ 1015
José 1015
kirche 1015
ME 1015
Kart@@ 1014
verhe@@ 1014
dlern 1014
malen 1014
stellern 1014
bun@@ 1014
Mie@@ 1014
mut 1014
tter@@ 1014
web 1014
schiff 1014
ök@@ 1013
Spen@@ 1013
geg@@ 1013
ungere@@ 1013
Typ@@ 1013
informellen 1013
Krebs 1013
Düsseldorf 1013
Schlussfolgerung 1013
Fuss 1013
Geschwindi@@ 1012
Sichtweise 1012
juristische 1012
Beamte 1012
zucht 1012
Nahrung 1012
ROM 1012
Buffet 1012
Südkorea 1012
Christian 1012
ehr 1011
Meeres 1011
ganzes 1011
Europäern 1011
freiwilligen 1011
kum@@ 1011
fortgeschrit@@ 1011
ergie 1011
fängt 1011
lla 1011
dner 1011
Lit@@ 1011
Hall 1011
lossene 1010
kapitali@@ 1010
Zeu@@ 1010
verläuft 1010
Persönlichkeit 1010
Balance 1010
Portfolio 1010
Gegen 1010
konvention@@ 1010
konfigu@@ 1010
formuli@@ 1009
bean@@ 1009
absoluten 1009
aufgegeben 1009
Beschleunigung 1009
Rechtsetzung 1009
Unterscheidung 1009
anführen 1009
Räumlichkeiten 1009
vorteil@@ 1009
Kalten 1009
Messen 1009
Leser 1009
sports 1009
Höhen@@ 1009
tol@@ 1009
Nan@@ 1009
niedrigeren 1008
igungs@@ 1008
stürzen 1008
Jahreszeit 1008
Rüstungs@@ 1008
bringung 1008
ras@@ 1008
CH 1008
geograph@@ 1007
Rap@@ 1007
augen@@ 1007
organisator@@ 1007
verarbeiten 1007
mark 1007
Illu@@ 1007
manip@@ 1007
Cle@@ 1007
SMS 1007
Wäre 1006
Straßenverkehr 1006
Schulungen 1006
aktion 1006
pflich@@ 1006
entlassen 1006
zitiere 1006
rez 1006
vollsten 1006
rem@@ 1006
Entdeck@@ 1006
Saf@@ 1006
Verwenden 1006
ader 1006
erstklassige 1006
Terminal 1006
erkt 1005
perfekten 1005
akts 1005
Auslieferung 1005
nischer 1005
zweites 1005
Publi@@ 1005
zwecke 1005
Kä@@ 1005
Palast 1005
ungarische 1005
Sig@@ 1005
zwingt 1004
rechtlicher 1004
shaushal@@ 1004
Anpassungs@@ 1004
Momente 1004
Seminare 1004
Edinburgh 1004
jenseits 1004
schrei@@ 1004
Chat 1004
Dolomiten 1004
tschaft 1003
nachhaltiges 1003
realistische 1003
gebern 1003
Posten 1003
strei@@ 1003
bru@@ 1003
Times 1003
Multimedia 1003
services 1003
Elektronik 1002
Mitgliedsländern 1002
erschwert 1002
wöch@@ 1002
bindung 1002
Einwanderungspolitik 1002
Gebäudes 1002
wehr 1002
inierte 1002
Dresden 1002
helpful 1002
Haltestelle 1002
strikt 1001
beteiligung 1001
Linke 1001
halbe 1001
Umstand 1001
länger@@ 1000
reinen 1000
acher 1000
Spannung 1000
gelder 1000
haushalts@@ 1000
schlü@@ 1000
ethischen 1000
Vertrauens 1000
Blei@@ 1000
acc@@ 1000
behar@@ 1000
Finanzdienstleistungen 1000
din@@ 1000
legungs@@ 1000
Mittagessen 1000
SI 1000
been 1000
strukturelle 999
rationen 999
merkt 999
Assoziierungsabkommen 999
Kampagnen 999
Machen 999
ämp@@ 999
Lieferungen 999
mische 999
cal@@ 999
1980 999
Harmonie 999
ash@@ 999
Fi 999
Place 999
Infos 999
Mitglied@@ 998
Fraktions@@ 998
Schulung 998
ritten 998
Verbrech@@ 998
risiko 998
Lagerung 998
makro@@ 998
versorgt 998
esta 998
day 998
AF@@ 998
Flo@@ 998
var 998
geänderten 997
Vollständigkeit 997
thin 997
stan 997
extreme 997
ziehungs@@ 997
aufnahmen 997
Anbau 997
iel 997
Ale@@ 997
offener 996
einfaches 996
stritten 996
Misch@@ 996
treibung 996
drän@@ 996
iso@@ 996
Arabien 996
imperi@@ 996
operativen 995
voraussichtlich 995
auszuarbeiten 995
besuchte 995
Felsen 995
ICH@@ 995
chi 995
Designs 995
Suites 995
Strukturreformen 994
jeglichen 994
ux 994
Kapit@@ 994
Rats 994
Verhaf@@ 994
Leb@@ 994
tivere 994
integri@@ 994
vielfäl@@ 994
erwarteten 994
anbieter 994
king 994
Pon@@ 993
Glückwunsch 993
Mineral@@ 993
ffekt 993
Verwirrung 993
Brok 993
Stehende 993
Ve@@ 993
ain 993
erien 993
Diagno@@ 993
Leh@@ 993
Leipzig 993
IR 993
zeitgenös@@ 993
Präsident@@ 992
vertrete 992
benachteiligten 992
fragte 992
schätze 992
geschäfte 992
pakete 992
sheit 992
Kamer@@ 992
Skript 992
skri@@ 991
wiesen 991
ald 991
massiv 991
modus 991
nig 991
glücklicherweise 991
stitu@@ 991
kontinuierliche 991
Haut@@ 991
Freihandelsabkommen 991
Vir@@ 991
Aussehen 991
SL@@ 991
kurzfristige 990
gelegten 990
Rindfleisch 990
indert 990
IX 990
ais 990
tas 990
unterstützte 990
beliebige 990
dent@@ 990
Fili@@ 990
2014 990
trop@@ 989
verständnis 989
verwendete 989
Aufnahme@@ 989
Eis 989
ganzhei@@ 989
auswahl 989
häufi@@ 989
01.@@ 989
befaßt 988
höre 988
zuzustimmen 988
eder@@ 988
alisierungen 988
erledigen 988
strit@@ 988
ministers 988
ds@@ 988
PAR@@ 988
Handels- 988
ummer 988
AND 988
gos 987
geleistete 987
wohlhab@@ 987
Gewähr 987
unabhängiger 987
sinken 987
riebenen 987
sident 987
erem 987
gres@@ 987
dimension@@ 987
Technologie@@ 987
rän@@ 987
ati 987
magne@@ 987
Distri@@ 987
Speicherk@@ 987
flexibler 986
Etage 986
kund@@ 986
ermuti@@ 986
andin@@ 986
Befürworter 986
Durchbruch 986
berge 986
beruhi@@ 986
Diagnose 986
unterschiedlichsten 986
garanti@@ 986
ards 986
Hotelzimmer 986
Allah 986
häufigsten 985
überleben 985
mitgliedern 985
verfü@@ 985
haltungs@@ 985
dü@@ 985
schnellstmöglich 985
Vide@@ 985
bles 984
einzuräumen 984
Marktan@@ 984
bevorzugen 984
Dien@@ 984
illegaler 984
flucht 984
Herstell@@ 984
modells 984
Arzneimitteln 984
einzeln 984
ators 984
100@@ 984
Kontak@@ 984
ok 984
auszuführen 983
tolle 983
Dauer@@ 983
einher@@ 983
mende 983
rückt 983
rechnet 983
brenn@@ 983
exo@@ 983
liebt 983
reservieren 983
night 983
AP 983
veranlasst 983
hi 983
file 983
trieb@@ 982
Aktionsprogramm 982
günstiger 982
Nar@@ 982
wirtschaftliches 982
Reisenden 982
Labour 982
angem@@ 982
Mir@@ 982
Standorte 982
virtuelle 982
Association 982
Tempel 982
Panoram@@ 982
1990er 982
enfalls 981
überwunden 981
einheimischen 981
untergebracht 981
unabdingbar 981
sitzt 981
bestätigung 981
nachzukommen 981
Typen 981
tsprü@@ 981
Wanderungen 981
salon 981
LCD 981
Nationalen 980
rent@@ 980
Anlaß 980
Weitergabe 980
Jacques 980
Obergrenze 980
Behin@@ 980
Rücktritt 980
Das@@ 980
Blumen 980
Spr@@ 980
Inneren 980
lauten 980
einstellungen 980
ř@@ 980
schär@@ 979
erledigt 979
vorsitzenden 979
jenem 979
ischerweise 979
Nachweis 979
isieren 979
Fachleute 979
gesteuert 979
ereien 979
komponenten 979
Tanz@@ 979
großzügig 978
Blau@@ 978
läufig 978
Zehn@@ 978
Simul@@ 978
unde@@ 978
befin@@ 978
Prozessen 978
ekte 978
dafri@@ 978
verzeichnis 978
bet 978
stay 978
drastisch 977
intensiver 977
kündigen 977
ellen@@ 977
Gleichberechtigung 977
Ernst 977
soll@@ 977
gedrängt 976
zugenommen 976
zweck 976
stattfand 976
Dienstleister 976
Biotechnologie 976
Rub@@ 976
beanspru@@ 976
Fahrrad 976
Verfassungsvertrag 976
Aufschwung 975
Verschmutzung 975
Hunder@@ 975
objektiv 975
Kö@@ 975
ängen 975
aufgeteilt 975
marken 975
air@@ 975
portal 975
sinnvolle 974
mau@@ 974
gerweise 974
Ökonomie 974
rali@@ 974
entzieht 974
güter 974
Somm@@ 974
Tä@@ 974
identi@@ 974
entschuldigen 974
brü@@ 974
echnik 974
Wartungs@@ 974
stehend 974
Development 974
Palma 974
gescheitert 973
schiff@@ 973
Mountain@@ 973
finnischen 972
nuklearen 972
Repräsent@@ 972
eilung 972
galt 972
gebil@@ 972
schlug 972
verhaftet 972
Prestige 972
Frequ@@ 972
voranzu@@ 971
deutsch@@ 971
übergreif@@ 971
sozialistischen 971
gegensei@@ 971
Mehrwertsteuer@@ 971
Erforschung 971
Kinderbetreuung 971
light 971
win 971
ästheti@@ 971
isti@@ 970
zuversichtlich 970
angen@@ 970
anhaltenden 970
Kandidaten@@ 970
aufer@@ 970
Zurück@@ 970
vorwiegend 970
Vorteilen 970
entdeckte 970
You 970
einwand@@ 969
Lücke 969
Sozial- 969
Erfordernisse 969
1986 969
ffenen 969
cl@@ 969
westen 969
tiz@@ 969
jah@@ 969
diesjährigen 969
ewi@@ 969
Schlacht 969
behilflich 969
zauber@@ 969
Aluminium 969
Vizepräsidentin 968
Radik@@ 968
langfris@@ 968
katho@@ 968
Kontinuität 968
keln 968
ennung 968
überraschend 968
entierte 968
Schnee 968
Tennis 968
Bonus@@ 968
anges@@ 967
treffend 967
C4 967
ausgewo@@ 967
chel@@ 967
bürgerlichen 967
Kamin 967
Med@@ 967
eria 967
Gum@@ 967
LED 967
großartigen 966
verletzen 966
Einstimmigkeit 966
assen@@ 966
dreißig 966
beschä@@ 966
produktiv 966
restrik@@ 966
m. 966
Fische 966
Später 966
Automati@@ 966
they 966
umgewandelt 966
GN@@ 966
geografischen 966
gefertigt 966
ordnungs@@ 965
speisen 965
sorge 965
sorgungs@@ 965
Ten@@ 965
Berechti@@ 965
raff@@ 965
ähn@@ 965
Wand 965
begannen 965
bewusstsein 965
cer@@ 965
nnen 965
gross@@ 965
Familienzimmer 965
Wettbewerbspolitik 964
Behinderung 964
Informationsaustausch 964
Finanzrahmen 964
Rek@@ 964
Verschiebung 964
ält 964
UL@@ 964
Kraftstoff@@ 964
Konzeption 964
eda 964
fikations@@ 964
Mannschaft 964
orienti@@ 964
starb 964
Erwachsen@@ 964
lot 964
Micro@@ 964
Solarium 964
dramatisch 963
Amsterdamer 963
eistungen 963
Handlung 963
Abstimmungs@@ 963
Bezüglich 963
allgemeinem 963
ye 963
Kron@@ 963
agen@@ 963
kost@@ 963
artikel 963
ankommen 963
Beobachtung 963
verbot@@ 963
stationen 963
sse@@ 963
situ@@ 963
verfolgung 962
ersucht 962
verweigern 962
Ehe@@ 962
Rahmenrichtlinie 962
elektrischen 962
ysteme 962
grä@@ 962
Japans 962
Protot@@ 962
t.@@ 962
Jazz 962
Auftreten 961
einziger 961
rot@@ 961
demnach 961
zusammengearbeitet 961
eintritt 961
persönliches 961
ierungen 961
rats@@ 961
Sym@@ 961
ny 961
thos 961
Pel@@ 961
explo@@ 960
Gemeinschaftsrechts 960
legitim@@ 960
Gewässer 960
Tätigkeits@@ 960
Wäldern 960
hon@@ 960
Demonstrationen 960
stamm@@ 960
Fehlern 960
Bestes 960
nette 960
Herzlich 960
Akademie 960
ku 960
einleiten 959
tier 959
kore@@ 959
Differenzen 959
Strei@@ 959
Rückzug 959
qualifizierter 959
ausgeweitet 959
angekommen 959
geringfü@@ 959
Säulen 959
soviel 959
tierungs@@ 959
Radi@@ 959
Minim@@ 959
inu@@ 959
Research 959
grundsätzliche 958
auslösen 958
Verspä@@ 958
zugewiesen 958
Tie@@ 958
appe 958
Übersetz@@ 958
ball@@ 958
Klang@@ 958
Upgrade 958
menschen@@ 957
fik 957
worfen 957
woll@@ 957
pfer@@ 957
ky 957
KO@@ 957
Filter@@ 957
Festivals 957
befugnisse 956
Verbraucherpolitik 956
beha@@ 956
Werkzeug@@ 956
Reich@@ 956
schritt@@ 956
Atlantik 956
kasus 956
Santer 956
abili@@ 956
shand@@ 956
Wagen 956
ures 956
Plätzen 956
500@@ 956
kurbeln 955
Ausgaben@@ 955
Mitteilungen 955
geleiteten 955
unlau@@ 955
Konvergenz@@ 955
amerikan@@ 955
Tabak 955
Sied@@ 955
wohin 955
intellektu@@ 955
jed@@ 955
blieben 955
strecken 955
Etappe 954
Handelspolitik 954
angenommene 954
attraktiv 954
unverzichtbar 954
spreis 954
Partition 954
Geduld 953
anerkennt 953
05@@ 953
Richtungen 953
Verkehrsmitteln 953
Auffassungen 953
Länder@@ 953
sche@@ 953
älen 953
geschlossen@@ 953
beeindruckenden 953
Wertpapier@@ 953
Serviceleistungen 953
Pressemit@@ 953
Schande 952
Besatzung 952
Flusses 952
organe 952
Ambitionen 952
band@@ 952
restlichen 952
Psych@@ 952
KE@@ 952
Controller 952
Toten 951
Käl@@ 951
SP 951
örung 951
Mein@@ 951
Male 951
verab@@ 951
Handelsabkommen 951
konver@@ 951
prim@@ 951
Sec@@ 951
widersprüch@@ 950
operi@@ 950
krie@@ 950
geringeren 950
affung 950
bedien@@ 950
Dev@@ 950
Hob@@ 950
rent 950
tnismäßig 950
Wall@@ 950
Cafés 950
IE 950
anträge 949
greifende 949
konsequ@@ 949
schäd@@ 949
agten 949
verbände 949
kurzfristigen 949
stur@@ 949
wovon 949
verantwortlichen 949
Wertpap@@ 949
konsu@@ 949
Finger@@ 949
A.@@ 949
к@@ 949
Auschecken 949
akzept@@ 948
anfän@@ 948
kw 948
euer@@ 948
list 948
übernahm 948
PD@@ 948
Verlagerung 947
Aktion@@ 947
soziales 947
annimmt 947
konzentri@@ 947
bring@@ 947
heiligen 947
Nächte 947
Vorstands@@ 947
einzigartiges 947
Öffnen 947
Salz@@ 947
Darfur 947
140 946
schock@@ 946
Schlag 946
existierenden 946
richtete 946
Zeilen 946
Schü@@ 946
einander@@ 946
neut@@ 946
einkommen 946
Holiday 946
veränderte 945
herum@@ 945
unbesch@@ 945
lagerung 945
engere 945
operative 945
gif@@ 945
wäch@@ 945
etzung 945
Süß@@ 945
ologien 945
Körpers 945
ão 945
Metro 945
Editor 945
beobach@@ 944
Mobili@@ 944
Daß 944
flich 944
namentlich 944
anhaltende 944
bloß 944
slowen@@ 944
decke 944
anter 944
zusammengefasst 944
ice 944
amb@@ 944
räumt 943
ereig@@ 943
höchstem 943
verbindlichen 943
deuten 943
rangi@@ 943
ender@@ 943
Modell@@ 943
Botschafter 943
Defiz@@ 943
Obst@@ 943
Einfach 943
after 943
steil 943
Konzern@@ 943
9001 943
Sri 942
Brief@@ 942
einseitig 942
niveaus 942
vorange@@ 942
graf@@ 942
dramatischen 942
kostspie@@ 942
QU@@ 942
GASP 942
langjährigen 942
franzö@@ 942
beleu@@ 942
morgens 942
erei@@ 942
sil@@ 942
ungsermächtigungen 942
ame@@ 942
Dün@@ 942
Schnittstellen 942
Road 942
Grafik 942
Turni@@ 942
ahl@@ 941
gestrigen 941
Homo@@ 941
vent@@ 941
inische 941
unnötig 940
portugiesische 940
Diesel@@ 940
bein@@ 940
vorgelegte 940
hauses 940
ding 940
betten 940
Resultate 940
tic 940
pot 940
excellent 940
SDL 940
Liga 939
gangenen 939
krieg 939
vorgesch@@ 939
Proteste 939
irgen@@ 939
syn@@ 939
til 939
Digit@@ 939
wanderung 938
unterzogen 938
Mehrzahl 938
Wahlkreis 938
Binnenmark@@ 938
Auswertung 938
Ank@@ 938
genheit 938
Aktionsplans 938
tspar@@ 938
Anschein 938
behin@@ 938
vorschlags 938
ungen@@ 938
dd@@ 938
geschmackvoll 938
auffor@@ 937
gängigen 937
Pfund 937
Feind 937
Wunsch@@ 937
angegangen 937
noten 937
IBM 937
aire 937
Bearbeitungs@@ 937
Label 937
Song 937
Reservierungen 937
minutes 937
Applikation 937
nötige 936
Bestand 936
Mitgliedstaats 936
tums 936
beschäftigungs@@ 936
uts 936
schwierig@@ 936
demonstrieren 936
setzbar 936
beherrscht 936
Flugzeug@@ 936
sammelt 936
Logos 936
Tap@@ 936
Auszeichnung 936
BE@@ 936
SD 936
gesandt 935
Entwicklungsziele 935
gezielte 935
schnit@@ 935
Kompromis@@ 935
CO 935
Turm 935
Softwa@@ 935
Palacio 934
Sozialfonds 934
verdeutlicht 934
finanz@@ 934
allererst 934
Umfrage 934
geradezu 934
Organismen 934
Jahrhunderten 934
unternehmen@@ 934
erklärung 934
Bol@@ 934
would 934
Program@@ 933
folgen@@ 933
Ky@@ 933
eingenommen 933
Fortschritten 933
bisweilen 933
Sul@@ 933
firma 933
Platten 933
doppelte 932
bewährten 932
Ansatzes 932
Zuver@@ 932
öl 932
Verantwortlichkeit 932
Lenk@@ 932
tra 932
essi@@ 932
Roten 932
nachhaltiger 932
Mani@@ 932
1985 932
Jesus 932
Jun@@ 932
fasste 932
Plenar@@ 931
Spiegel@@ 931
hundert@@ 931
graben 931
tempor@@ 931
etabliert 931
ads 931
geist 930
unterworfen 930
risiken 930
norm@@ 930
reformen 930
Extra@@ 930
1945 930
ordnet 930
blauen 930
Besatz@@ 930
alog@@ 930
Zo@@ 930
Badewanne 930
legungen 929
Ressource 929
schwerwiegende 929
Stolz 929
Beteilig@@ 929
ermordet 929
bewaffneten 929
Tschechische 929
olen 929
Hussein 929
lev@@ 929
Lot@@ 929
een 929
Waff@@ 928
tiefer 928
Verweis 928
thilfe 928
ien@@ 928
Deck@@ 928
ua 928
gemütlich 928
Sandstrand 928
Geltungsbereich 927
weites 927
umfangreiches 927
Kommun@@ 927
sprung 927
Mobiltelef@@ 927
Note 927
FR@@ 927
COD 926
sicherungen 926
Wiederaufnahme 926
eder 926
distan@@ 926
Öffent@@ 926
such 926
innovativer 926
Ex 926
Exempl@@ 926
keit 926
Szenario 926
Riviera 926
Brust@@ 926
eingetreten 925
eingehend 925
grenzüberschreit@@ 925
Zonen 925
holz 925
stren@@ 925
erschwing@@ 925
Fahrzeu@@ 925
fortschrit@@ 925
getro@@ 925
Priv@@ 925
klingt 925
rank 925
carte 925
SC 925
Tode 924
strä@@ 924
Entwickl@@ 924
haush@@ 924
Entwicklung@@ 924
hinnehmbar 924
Rechenschaft 924
Wähler@@ 924
Krankenhaus 924
Tepp@@ 924
loses 924
Rati@@ 924
spunkt 924
kehrt 924
Van@@ 924
gesundheitlichen 924
Seu@@ 924
bedingte 924
weiß@@ 924
ule 924
.ch 924
enkt 923
Andernfalls 923
Haushaltslinie 923
zivile 923
Einzelpersonen 923
Vernichtung 923
handel@@ 923
gespannt 923
komplexer 923
progno@@ 923
deinem 923
Boo@@ 923
Blü@@ 923
Zeichen@@ 923
Olymp@@ 923
konstitu@@ 922
beträchtlich 922
erbracht 922
beginn@@ 922
Nähr@@ 922
graphie 922
ares 922
lichte 922
1987 922
unen 922
det@@ 922
östlich 922
Verkehrs 922
Teilnehmer@@ 922
Cir@@ 922
erklär@@ 921
reichsten 921
sektor@@ 921
hn@@ 921
06@@ 921
Weihnachten 921
Konsum@@ 921
anspruchsvollen 921
auszuschließen 921
gül@@ 921
Ford 921
erkrank@@ 921
Instand@@ 921
Paar 921
wörter 921
Public 921
Fitnesscenter 921
Konzerne 920
eindeu@@ 920
Gehör 920
impor@@ 920
gründete 920
Cent@@ 920
discher 919
zufügen 919
Wohnungs@@ 919
administrativen 919
Entschließungs@@ 919
transparenten 919
verstößt 919
Wörter 919
rations@@ 919
human@@ 919
Lebensdauer 919
ania 919
Eisenbahn 919
Klein- 919
biegen 919
Größen 919
Koch@@ 919
fielen 918
Abänderungs@@ 918
vertik@@ 918
rachte 918
tragischen 918
längeren 918
erkan@@ 918
Einsatzes 918
summe 918
gigen 918
konstruktiv 918
zeuge 918
bestimmtes 918
unvergleich@@ 918
two 918
î@@ 918
luxuriösen 918
Captain 918
rechtmäßig 917
raschen 917
liter@@ 917
Ep@@ 917
Professional 917
idylli@@ 917
Menschenleben 916
Sav@@ 916
Schriften 916
bürokrati@@ 916
Seitdem 916
Gremium 916
off 916
21.@@ 916
Geno@@ 916
Pressefreiheit 916
misst 916
ure@@ 916
Vin@@ 916
Übernachtungen 916
Grundsatzes 915
mußte 915
quasi 915
Vorgänger 915
Riesen@@ 915
Substanz 915
thei@@ 915
geehrten 915
waffen@@ 915
Tarif@@ 915
schriften 915
gespräche 915
Freih@@ 915
EE@@ 915
keit@@ 915
Jungen 915
ege 915
Schwein@@ 915
transport 914
Börsen@@ 914
gang@@ 914
Betra@@ 914
chteten 914
wahrschein@@ 914
Kooper@@ 914
Nahrungsmitteln 914
bilanz 914
Übersetzer 914
ENT@@ 914
verabschiedeten 913
Thematik 913
Haftungs@@ 913
bestimmung 913
Einwanderungs@@ 913
Reihen 913
sätz@@ 913
äne 913
Ras@@ 913
fing 913
CAD 913
NEW 913
legal 912
Volumen 912
Gesundheits- 912
demzufolge 912
mediterranen 912
Strö@@ 912
niederländische 912
ping 912
blockieren 912
veren 912
Ama@@ 912
ühlen 912
int 912
soli@@ 911
nationales 911
Waffe 911
kräftig 911
Wählern 911
Fremdenfeindlichkeit 911
fris@@ 911
jähr@@ 911
erfolgreich@@ 911
Gründer 911
berechnen 911
Bli@@ 911
their 911
tech 911
Fotografen 911
Wi 911
brauch@@ 910
tliches 910
strich 910
Versamm@@ 910
Christus 910
ausgedeh@@ 910
Verschlüssel@@ 910
exklu@@ 910
zo 910
Tool@@ 910
andernfalls 909
Geschäf@@ 909
Skandal 909
tasie 909
ehmern 909
Belange 909
bezo@@ 909
Abwesenheit 909
Lob 909
signi@@ 909
ungsergebnisse 909
militär@@ 909
abhalten 909
hende 909
Aktionäre 909
spr@@ 909
Religionsfreiheit 909
OR 909
lingen 909
Rol@@ 909
Varianten 909
Vorgän@@ 908
spunkte 908
Dialog@@ 908
mie@@ 908
vention 908
übersetzen 908
ambition@@ 908
Grenzwerte 908
türk@@ 908
Cast@@ 908
TM 908
J. 908
Kirk 908
vermark@@ 907
Öffentliche 907
Lücken 907
egen@@ 907
Zah@@ 907
verschlechtert 907
Gründungs@@ 907
Küh@@ 907
wischen 907
Phänom@@ 907
bir@@ 907
first 907
Band@@ 907
ausdrücken 906
potenzi@@ 906
interpre@@ 906
gangs@@ 906
anti 906
häu@@ 906
vorantreiben 906
enab@@ 906
Atomwaffen 906
Rasse 906
Prozent@@ 906
Bünd@@ 906
telefon@@ 906
rief 906
aggres@@ 906
warm 906
double 906
gründliche 905
Überprü@@ 905
spra@@ 905
hinweg@@ 905
onds 905
minist@@ 905
schädlich 905
ketten 905
üblicherweise 905
westlich 905
komfort@@ 905
Intel 905
uropä@@ 904
pran@@ 904
städte 904
spezifischer 904
Wertschö@@ 904
Beitrittsländer 904
autorit@@ 904
terweise 904
sert 904
ausreichenden 904
verbreitete 904
kombinieren 904
Fähr@@ 904
Wärme@@ 904
klick 904
cou@@ 904
Gehäuse 904
logisch 903
betrachte 903
Fac@@ 903
Haupts@@ 903
gelö@@ 903
Donau 903
Stufen 903
elektronischer 903
eingeschlossen 903
leger 903
Daniel 903
Filmen 903
klagt 902
Schwäch@@ 902
Beihilfe 902
kä@@ 902
funktionierenden 902
warnt 902
engagi@@ 902
ritt@@ 902
euren 902
fter 902
Stern@@ 902
pf 902
Solidaritätsfonds 902
sin 902
risi@@ 902
Handbuch 902
samer 901
Langzeit@@ 901
Erfahrungs@@ 901
lagern 901
ago@@ 901
schot@@ 901
elligkeit 901
Unterstützungs@@ 901
Organis@@ 901
Reisende 901
Stä@@ 901
schwarze 901
kommerzi@@ 901
krei@@ 901
ish@@ 901
Telefonnummer 901
Haushaltsausschuss 901
Ass@@ 901
place 901
Barack 901
Reader 901
bevorzugt 900
Fro@@ 900
Oster@@ 900
erstattet 900
feldern 900
statistischen 900
archie 900
Spri@@ 900
haltenen 900
Zul@@ 900
echn@@ 900
identifiziert 900
freies 900
open 900
Oper 900
Sarkozy 900
beitritts@@ 899
debattieren 899
brauchs 899
utes 899
Arbeitsprogramm 899
zufällig 899
beziehungsweise 899
Fahren 899
Präsidentschaftswahlen 899
Tauchen 899
strahlung 899
Sequ@@ 899
Flexibili@@ 898
Vaku@@ 898
schädlichen 898
ausfallen 898
Zertifikat 898
gefaßt 898
rer 898
Dringlichkeits@@ 898
einschränken 898
kapazitäten 898
übergehen 898
standardi@@ 898
atisch 898
Wunder@@ 898
Hannover 898
Multi 898
Trainings@@ 898
Soft 898
most 898
legislative 897
aufgreifen 897
grei@@ 897
Vorgänge 897
Europa@@ 897
stanzen 897
außergewöhnlich 897
Schir@@ 897
Sicherheitsrates 897
UC@@ 897
index 897
neun@@ 897
lagerungen 897
sung 897
och 897
infrastruktur 897
herausragende 897
Mar 897
genügen 896
verbleibenden 896
mauern 896
jenes 896
skraft 896
inneh@@ 896
Einfuhr 896
befes@@ 896
verspricht 896
sien 896
üpp@@ 896
PCs 896
Toskana 896
Bügelservice 896
Änderungsvorschläge 895
benennen 895
Inhaf@@ 895
brasili@@ 895
bester 895
pflanz@@ 895
schte 895
Schauen 895
Schlus@@ 895
miet@@ 895
Abfahrt 895
Samsung 895
Layout 895
Minist@@ 894
Sech@@ 894
Austausch@@ 894
Dossier 894
zeuger 894
widersprechen 894
FA@@ 894
Industrien 894
Einträge 894
Verbrauch@@ 894
stattfindenden 894
BS 894
FS 894
gebucht 894
anzeige 894
Wellnessbereich 894
Gütern 893
komplizierte 893
ausmacht 893
Grüne 893
Weltmarkt 893
sorgfäl@@ 893
ey@@ 893
Modells 893
Nutzungsbedingungen 893
flan@@ 893
lings 893
ungsum@@ 893
Daneben 893
gewalts@@ 892
streit@@ 892
maßnahme 892
punkt@@ 892
Messung 892
relevant 892
einsehen 892
Ratspräsidentin 892
ausch 892
Inc 892
club 892
read 892
Gesetzgeb@@ 891
relevante 891
Verdacht 891
erstaun@@ 891
verlei@@ 891
Verhand@@ 891
Ausfuhr@@ 891
eingetragen 891
Materials 891
privat 891
Sky@@ 891
10.000 891
repar@@ 891
Skrip@@ 891
anteil 890
geltende 890
Legitim@@ 890
aufgeworfen 890
Fischereisektor 890
militärischer 890
Feedback 890
anstehenden 890
definierte 890
Wachstumspakt 890
Patent 890
schten 890
HP 890
lier 890
С@@ 890
Wiederbelebung 889
festlegt 889
beschränkungen 889
Arbeitsplatz@@ 889
Verlu@@ 889
stagung 889
renommierten 889
Wat@@ 889
eger@@ 889
Rechnungshofs 889
beides 889
Lärm 889
Frühling 889
Sant 889
Nachtleben 889
Consulting 889
immen@@ 888
herrschende 888
notwendi@@ 888
Gehen 888
öne 888
ünsti@@ 888
ement@@ 888
außenpolitischen 888
po 888
vielerlei 887
Madeira 887
arm 887
flotte 887
reak@@ 887
erhöhten 887
besetzten 887
Eth@@ 887
maßen 887
erfolgreicher 887
zurückgreifen 887
wohnt 887
Aktualität 887
reserven 887
gliches 887
wissen@@ 887
Kontin@@ 887
Import 887
later@@ 887
schlägen 887
е@@ 887
Villen 887
Impuls 886
ital 886
erlangt 886
bestmögliche 886
Rücküber@@ 886
pass@@ 886
Verbesser@@ 886
Erholungs@@ 886
schrieben 886
unwahrscheinlich 886
rank@@ 886
aal 886
transportiert 885
arium 885
glaubwürdig 885
anerkannte 885
digungs@@ 885
fallenden 885
verschwunden 885
lossenen 885
Zivilbevölkerung 885
Bananen 885
verträ@@ 885
Maßstäbe 885
entwicklungen 885
ühr@@ 885
Verkauf@@ 885
Mär@@ 885
benachbarten 885
physikali@@ 885
gesetzes 885
pfe 885
Well@@ 885
utz 885
zellen 885
muster 885
orn 885
Programmier@@ 885
Muslime 885
Geschäftsreisende 885
Sender 884
vorübergehend 884
lokal 884
weitreich@@ 884
Rechtsvorschrift 884
schwache 884
angegriffen 884
Sinn@@ 884
kompati@@ 884
institute 884
wohnheiten 884
Gastronomie 884
Superior 884
Ring 884
DIN 884
gültige 883
herzlichen 883
entstehenden 883
vergangen 883
erwartete 883
Visi@@ 883
Jobs 883
Sus@@ 883
cat@@ 883
Südtirol 883
vorgebracht 882
aufgetreten 882
Ausgleichs@@ 882
jahre@@ 882
zau@@ 882
cel@@ 882
Fris@@ 882
entgegenzu@@ 881
befriedi@@ 881
Haft@@ 881
diplomatische 881
Quad@@ 881
kanal 881
Invasion 881
Sho@@ 881
unterricht 881
unberühr@@ 881
plans 880
Summen 880
vorankommen 880
KS 880
übri@@ 880
Erinnerungen 880
kunft 880
seid 880
then 880
fällige 880
farbe 880
elektron@@ 880
essel 880
dal@@ 880
facilities 880
Boutique 880
ausdrückliche 879
emm@@ 879
Komment@@ 879
Dokuments 879
Schattenberichterstat@@ 879
Hemm@@ 879
Geschäftspar@@ 879
GE 879
Flair 879
eingebrachten 878
reißen 878
Ansonsten 878
daraufhin 878
gekehrt 878
Völkerrecht 878
ließ@@ 878
chers 878
ordentlich 878
Universal@@ 878
mus@@ 878
Oase 878
Apart@@ 878
LateRooms.com 878
besserer 877
prior@@ 877
detaillierten 877
Ke@@ 877
doppelten 877
weilen 877
Indiens 877
erschaft 877
erschö@@ 877
VI 877
Kro@@ 877
widerspricht 877
Lamp@@ 877
konstitutionelle 877
beschriebenen 877
Verbrau@@ 877
Brot 877
Kuli@@ 877
eu 877
Terrorismusbekämpfung 877
Appart@@ 877
Verantwortlichkeiten 876
Metho@@ 876
bevölkerung 876
produktiven 876
arkt 876
aku@@ 876
befand 876
Spenden 876
Malware 876
verur@@ 875
angekün@@ 875
gehender 875
Versuchen 875
Sicher 875
Kollegi@@ 875
Kreis@@ 875
Kommen 875
autori@@ 875
Züge 875
geringere 875
cc@@ 875
Volk@@ 875
Day 875
wol@@ 875
brand@@ 875
Servern 875
terrasse 875
Pixel 875
Diszipl@@ 874
Phan@@ 874
Nationalstaaten 874
Billionen 874
shop 874
egenheiten 874
schiffe 874
angemess@@ 874
getrennte 874
wertes 874
esa 874
Apo@@ 874
kön@@ 874
Finger 874
sprachige 874
teur 874
Stable 874
Richtlinien@@ 873
schritt 873
pfeiler 873
ärz@@ 873
intern 873
kontro@@ 873
national 873
Oft 873
diplom@@ 873
entschied 873
No 873
jü@@ 873
Kino 873
Pflan@@ 873
älteste 873
Erdgeschoss 873
Luftverkehr 872
Ungleichgewichte 872
herausgestellt 872
Verhütung 872
Ängste 872
spektrum 872
Dorf@@ 872
Jeden 872
vorsorge 872
Abhängi@@ 872
Andreas 872
strand 872
CEO 872
UM 872
Sitzungsperiode 871
hierher 871
ehrte 871
abzubauen 871
klingen 871
widri@@ 871
Generaldirektion 871
Hav@@ 871
wiederhol@@ 871
Dau@@ 871
met 871
toleri@@ 871
Zuschauer 871
Bildes 871
terroristischen 871
töten 871
Navigation 871
Sum@@ 870
Dienstleist@@ 870
Notwendi@@ 870
gravier@@ 870
Fischbestände 870
ränkte 870
ästi@@ 870
titel 870
jugosla@@ 870
Handelsbeziehungen 870
jk 870
Adress@@ 870
Blu@@ 870
English 870
verhängt 869
gekürzt 869
inhaltlich 869
Mitgefühl 869
fleisch@@ 869
17.@@ 869
ms@@ 869
90er 869
Niederlage 869
EP@@ 869
Authenti@@ 869
bilanz@@ 869
ity 869
betro@@ 868
experten 868
eingesetzten 868
abzuschaffen 868
philosoph@@ 868
Stück@@ 868
Verfü@@ 868
Merk@@ 868
Profil@@ 868
Gur@@ 868
Bern@@ 868
bre 868
Meerblick 868
mitunter 867
Umweltschutz@@ 867
einheitliches 867
Bedauerlicherweise 867
Anstrengung 867
verbrechen 867
ham@@ 867
sah@@ 867
Preisstabilität 867
Misstr@@ 867
down 867
chambres 867
ausstellung 867
д@@ 867
verlin@@ 867
stür@@ 866
verschieden 866
nerin 866
dokumentiert 866
sicherte 866
Strafgerichtshof 866
zuteil 866
Engagements 866
worüber 866
bekann@@ 866
sammlung 866
bo 866
aloge 866
End 866
beeindruckt 865
Prozentsatz 865
abler 865
vermin@@ 865
Europarat 865
Fis@@ 865
bed@@ 865
Mund 865
Erzeug@@ 865
Naturschutz@@ 865
Mord 865
Investment@@ 865
lizen@@ 865
Prognosen 865
niert 865
Lav@@ 865
Speicherung 865
Bruttoinlands@@ 864
üssen 864
artik@@ 864
Ziffern 864
alarmi@@ 864
seits 864
verwen@@ 864
radikale 864
Gewalt@@ 864
1979 864
Verlei@@ 864
Speed 864
offers 864
schil@@ 863
hervorgeht 863
Geltung 863
Herangehensweise 863
auszuweiten 863
Kinnock 863
ationale 863
Meldung 863
menschlicher 863
Green@@ 863
institutionen 863
lis 863
Erscheinung 862
weitergeleitet 862
senkung 862
Rettung 862
British 862
höchstens 862
zurückzukehren 862
Vernunft 862
jüdischen 862
vergrößern 862
Stoff@@ 862
ecks 862
anna 862
Japan@@ 862
stage 862
Schwellenländer 862
endsten 861
Reserven 861
begünstigt 861
kers 861
aufgabe 861
biger 861
Erwähnung 861
blin@@ 861
Vereinig@@ 861
Fluggesellschaft 861
stattungen 861
misch 861
schenko 861
Internetanschluss 861
Mön@@ 861
и 861
wesentliches 860
bisherige 860
Zeugen 860
Sitzungs@@ 860
emotion@@ 860
springen 860
jeher 860
erwor@@ 860
isiert 860
3000 860
Medium 860
num@@ 860
perat@@ 860
musi@@ 860
Black 860
Schaltfläche 860
when 860
stel@@ 859
territoriale 859
weigert 859
beschädigt 859
univer@@ 859
Liter 859
bezir@@ 859
Politikbereiche 859
natürlicher 859
Führungsrolle 859
Briten 859
stem 859
Schönheits@@ 859
Branchen@@ 859
Magazin 859
tro 859
Anfänger 859
Beam@@ 858
Schokolade 858
disziplin@@ 858
Abfall 858
winden 858
GH 858
Stornierungen 858
Hochzeits@@ 858
Deut@@ 857
draußen 857
thema 857
ehrgeizi@@ 857
lung@@ 857
bestehender 857
begriff 857
zugeschnitten 857
erfol@@ 857
langes 857
Kämpfe 857
ava 857
Stress 857
Fir@@ 857
LAN@@ 857
erkläre 856
them@@ 856
tim 856
spürbar 856
Kette 856
Streichung 856
Venezuela 856
Meldungen 856
respek@@ 856
entwicklungs@@ 856
Eltern@@ 856
Sicher@@ 856
Fall@@ 856
etts 856
eld 856
his 856
alp@@ 856
Dampfbad 856
Olympus 856
inkl 856
s.com 856
Initiativ@@ 855
Österreichs 855
faßt 855
abseh@@ 855
Gross@@ 855
Gedächtnis 855
schätzungen 855
gebot 855
dazu@@ 855
Lärm@@ 855
paßt 854
Ad 854
gewirkt 854
geordnet 854
hänge 854
Schichten 854
Beschlusses 854
Ged@@ 854
verwir@@ 854
Überdies 854
möglich@@ 854
Käse 854
Holland 854
igt 854
klam@@ 854
Frühjahr@@ 854
ign@@ 854
Acc@@ 854
Ausschuss@@ 854
Net 854
vorsitz@@ 853
Beitritts 853
Ausgehend 853
exportiert 853
diesbezügliche 853
bloße 853
Betrei@@ 853
Bedar@@ 853
car 853
fremden 853
Paket@@ 853
pa 853
space 853
nischen 853
Geburtstag 853
Science 853
[...]
